{
  "version": "1.0",
  "truncation": null,
  "padding": null,
  "added_tokens": [
    {
      "id": 0,
      "content": "[UNK]",
      "single_word": false,
      "lstrip": false,
      "rstrip": false,
      "normalized": false,
      "special": true
    },
    {
      "id": 1,
      "content": "[PAD]",
      "single_word": false,
      "lstrip": false,
      "rstrip": false,
      "normalized": false,
      "special": true
    },
    {
      "id": 2,
      "content": "[CLS]",
      "single_word": false,
      "lstrip": false,
      "rstrip": false,
      "normalized": false,
      "special": true
    },
    {
      "id": 3,
      "content": "[SEP]",
      "single_word": false,
      "lstrip": false,
      "rstrip": false,
      "normalized": false,
      "special": true
    },
    {
      "id": 4,
      "content": "[MASK]",
      "single_word": false,
      "lstrip": false,
      "rstrip": false,
      "normalized": false,
      "special": true
    }
  ],
  "normalizer": {
    "type": "BertNormalizer",
    "clean_text": true,
    "handle_chinese_chars": true,
    "strip_accents": null,
    "lowercase": true
  },
  "pre_tokenizer": {
    "type": "BertPreTokenizer"
  },
  "post_processor": null,
  "decoder": {
    "type": "WordPiece",
    "prefix": "##",
    "cleanup": true
  },
  "model": {
    "type": "WordPiece",
    "unk_token": "[UNK]",
    "continuing_subword_prefix": "##",
    "max_input_chars_per_word": 100,
    "vocab": {
      "[UNK]": 0,
      "[PAD]": 1,
      "[CLS]": 2,
      "[SEP]": 3,
      "[MASK]": 4,
      "،": 5,
      "؛": 6,
      "؟": 7,
      "ء": 8,
      "ا": 9,
      "ب": 10,
      "ة": 11,
      "ت": 12,
      "ث": 13,
      "ج": 14,
      "ح": 15,
      "خ": 16,
      "د": 17,
      "ذ": 18,
      "ر": 19,
      "ز": 20,
      "س": 21,
      "ش": 22,
      "ص": 23,
      "ض": 24,
      "ط": 25,
      "ظ": 26,
      "ع": 27,
      "غ": 28,
      "ـ": 29,
      "ف": 30,
      "ق": 31,
      "ك": 32,
      "ل": 33,
      "م": 34,
      "ن": 35,
      "ه": 36,
      "و": 37,
      "ى": 38,
      "ي": 39,
      "٠": 40,
      "١": 41,
      "٢": 42,
      "٣": 43,
      "٤": 44,
      "٥": 45,
      "٦": 46,
      "٧": 47,
      "٨": 48,
      "٩": 49,
      "٪": 50,
      "ک": 51,
      "ی": 52,
      "۱": 53,
      "۲": 54,
      "۷": 55,
      "۹": 56,
      "##ر": 57,
      "##ت": 58,
      "##ق": 59,
      "##ب": 60,
      "##ة": 61,
      "##د": 62,
      "##ي": 63,
      "##ه": 64,
      "##ى": 65,
      "##م": 66,
      "##ا": 67,
      "##ل": 68,
      "##ن": 69,
      "##ط": 70,
      "##و": 71,
      "##ء": 72,
      "##ذ": 73,
      "##ح": 74,
      "##س": 75,
      "##ث": 76,
      "##ع": 77,
      "##ص": 78,
      "##ك": 79,
      "##ف": 80,
      "##ظ": 81,
      "##ض": 82,
      "##ج": 83,
      "##ش": 84,
      "##غ": 85,
      "##خ": 86,
      "##ز": 87,
      "##ک": 88,
      "##ی": 89,
      "##٣": 90,
      "##١": 91,
      "##٢": 92,
      "##٤": 93,
      "##٥": 94,
      "##٠": 95,
      "##٩": 96,
      "##ـ": 97,
      "##٦": 98,
      "##٧": 99,
      "##٨": 100,
      "##۲": 101,
      "##۱": 102,
      "ال": 103,
      "##ال": 104,
      "##ان": 105,
      "##ها": 106,
      "ان": 107,
      "في": 108,
      "##ما": 109,
      "من": 110,
      "##ين": 111,
      "##را": 112,
      "##لا": 113,
      "الا": 114,
      "الم": 115,
      "عل": 116,
      "##رة": 117,
      "##يا": 118,
      "##ية": 119,
      "##لك": 120,
      "##نا": 121,
      "##ته": 122,
      "##ار": 123,
      "وال": 124,
      "##اب": 125,
      "لا": 126,
      "##يد": 127,
      "على": 128,
      "الى": 129,
      "##ست": 130,
      "##ول": 131,
      "##ير": 132,
      "##اد": 133,
      "الح": 134,
      "ما": 135,
      "عن": 136,
      "##ذا": 137,
      "##وا": 138,
      "##ون": 139,
      "وا": 140,
      "##يل": 141,
      "بال": 142,
      "##ري": 143,
      "##ام": 144,
      "##اء": 145,
      "##يه": 146,
      "##قال": 147,
      "##لم": 148,
      "لم": 149,
      "وه": 150,
      "ولك": 151,
      "الس": 152,
      "ولكن": 153,
      "الع": 154,
      "##له": 155,
      "الت": 156,
      "##با": 157,
      "##ور": 158,
      "##عد": 159,
      "##جل": 160,
      "##دي": 161,
      "##اي": 162,
      "ثم": 163,
      "##ني": 164,
      "كان": 165,
      "##هم": 166,
      "##حد": 167,
      "وت": 168,
      "##اس": 169,
      "##قد": 170,
      "##بي": 171,
      "##بة": 172,
      "الش": 173,
      "ام": 174,
      "##رت": 175,
      "##فس": 176,
      "##ات": 177,
      "##مة": 178,
      "الج": 179,
      "##تى": 180,
      "##وق": 181,
      "الق": 182,
      "فقال": 183,
      "##فت": 184,
      "##وج": 185,
      "مع": 186,
      "##ود": 187,
      "##لت": 188,
      "##قة": 189,
      "##مت": 190,
      "##كن": 191,
      "##دا": 192,
      "##وم": 193,
      "##عت": 194,
      "##كر": 195,
      "##اح": 196,
      "اب": 197,
      "##كان": 198,
      "##اه": 199,
      "يت": 200,
      "وج": 201,
      "##به": 202,
      "او": 203,
      "##خر": 204,
      "وان": 205,
      "##رف": 206,
      "يا": 207,
      "حتى": 208,
      "الب": 209,
      "الر": 210,
      "##قت": 211,
      "##عة": 212,
      "##لي": 213,
      "له": 214,
      "##ذه": 215,
      "##رك": 216,
      "وهو": 217,
      "الن": 218,
      "##رب": 219,
      "الخ": 220,
      "##مر": 221,
      "##يف": 222,
      "انه": 223,
      "الذ": 224,
      "هذا": 225,
      "لي": 226,
      "##قي": 227,
      "##عل": 228,
      "##حت": 229,
      "##عا": 230,
      "##وت": 231,
      "مت": 232,
      "الص": 233,
      "الف": 234,
      "##قا": 235,
      "به": 236,
      "وم": 237,
      "فت": 238,
      "##سم": 239,
      "##يت": 240,
      "##در": 241,
      "شي": 242,
      "ول": 243,
      "##مل": 244,
      "الي": 245,
      "##قول": 246,
      "وقال": 247,
      "الد": 248,
      "نفس": 249,
      "ذلك": 250,
      "##اف": 251,
      "الط": 252,
      "قال": 253,
      "##بل": 254,
      "ولا": 255,
      "كل": 256,
      "الذي": 257,
      "وس": 258,
      "اح": 259,
      "##يدة": 260,
      "ين": 261,
      "بين": 262,
      "لل": 263,
      "اي": 264,
      "فا": 265,
      "اس": 266,
      "الك": 267,
      "##وف": 268,
      "##بر": 269,
      "##قل": 270,
      "##ظر": 271,
      "##يلة": 272,
      "##بت": 273,
      "اع": 274,
      "##وة": 275,
      "##مي": 276,
      "##خل": 277,
      "##جة": 278,
      "التي": 279,
      "است": 280,
      "##رد": 281,
      "##ساء": 282,
      "وع": 283,
      "##راء": 284,
      "##وس": 285,
      "##نت": 286,
      "##بد": 287,
      "انت": 288,
      "##في": 289,
      "تت": 290,
      "بع": 291,
      "يد": 292,
      "##كت": 293,
      "علي": 294,
      "الز": 295,
      "الان": 296,
      "اخ": 297,
      "الله": 298,
      "اما": 299,
      "##مال": 300,
      "تع": 301,
      "مح": 302,
      "وكان": 303,
      "##مد": 304,
      "##فا": 305,
      "##رض": 306,
      "هو": 307,
      "يع": 308,
      "##لة": 309,
      "بعد": 310,
      "##لام": 311,
      "##تها": 312,
      "قل": 313,
      "وق": 314,
      "عين": 315,
      "##جا": 316,
      "هذه": 317,
      "غير": 318,
      "يج": 319,
      "وب": 320,
      "##وي": 321,
      "با": 322,
      "##ثر": 323,
      "##هر": 324,
      "الغ": 325,
      "ولم": 326,
      "##يب": 327,
      "شيء": 328,
      "##حة": 329,
      "بان": 330,
      "حس": 331,
      "##حك": 332,
      "##طل": 333,
      "##جر": 334,
      "الل": 335,
      "##صر": 336,
      "عليه": 337,
      "##من": 338,
      "وي": 339,
      "وح": 340,
      "تر": 341,
      "##قه": 342,
      "كما": 343,
      "##عه": 344,
      "عند": 345,
      "ولكنه": 346,
      "##اط": 347,
      "تن": 348,
      "وهي": 349,
      "تح": 350,
      "##فر": 351,
      "بن": 352,
      "##هد": 353,
      "لها": 354,
      "##قب": 355,
      "اخر": 356,
      "قد": 357,
      "##ياة": 358,
      "##يم": 359,
      "ات": 360,
      "##يرة": 361,
      "الرجل": 362,
      "##كون": 363,
      "اليه": 364,
      "##عر": 365,
      "##ضي": 366,
      "نح": 367,
      "وجه": 368,
      "لن": 369,
      "##ضا": 370,
      "##سة": 371,
      "##دة": 372,
      "نفسه": 373,
      "وقد": 374,
      "##رات": 375,
      "بح": 376,
      "##وح": 377,
      "##وان": 378,
      "##وه": 379,
      "بها": 380,
      "##وب": 381,
      "##دت": 382,
      "##فع": 383,
      "اش": 384,
      "##فة": 385,
      "##رج": 386,
      "هل": 387,
      "يح": 388,
      "لك": 389,
      "##راة": 390,
      "بك": 391,
      "##سي": 392,
      "بل": 393,
      "كال": 394,
      "جد": 395,
      "##اك": 396,
      "راس": 397,
      "##يات": 398,
      "احد": 399,
      "ون": 400,
      "النا": 401,
      "##شة": 402,
      "##غم": 403,
      "##رح": 404,
      "اص": 405,
      "هي": 406,
      "يقول": 407,
      "يس": 408,
      "بص": 409,
      "اه": 410,
      "##وع": 411,
      "انها": 412,
      "وما": 413,
      "وك": 414,
      "##هما": 415,
      "سا": 416,
      "##شر": 417,
      "يست": 418,
      "مرة": 419,
      "##سا": 420,
      "##مع": 421,
      "##مه": 422,
      "##ورة": 423,
      "##ادة": 424,
      "##وز": 425,
      "كيف": 426,
      "##لق": 427,
      "مث": 428,
      "##قط": 429,
      "##ساءل": 430,
      "##اله": 431,
      "واحد": 432,
      "##جرة": 433,
      "قبل": 434,
      "ماذا": 435,
      "يم": 436,
      "##طر": 437,
      "##طف": 438,
      "يش": 439,
      "##مان": 440,
      "##ايلا": 441,
      "بلا": 442,
      "السيد": 443,
      "##ظرة": 444,
      "اني": 445,
      "##ينة": 446,
      "اذا": 447,
      "##ذكر": 448,
      "الث": 449,
      "##دق": 450,
      "##سان": 451,
      "##طي": 452,
      "##واج": 453,
      "##ريق": 454,
      "كانت": 455,
      "##صة": 456,
      "فه": 457,
      "المت": 458,
      "##صل": 459,
      "##شي": 460,
      "بد": 461,
      "##شا": 462,
      "اك": 463,
      "بم": 464,
      "##عب": 465,
      "##رق": 466,
      "لو": 467,
      "انا": 468,
      "اج": 469,
      "##ارت": 470,
      "فقالت": 471,
      "اد": 472,
      "##نة": 473,
      "دون": 474,
      "اف": 475,
      "يكن": 476,
      "بس": 477,
      "##ذلك": 478,
      "##ينا": 479,
      "الاس": 480,
      "##ناء": 481,
      "تج": 482,
      "##ند": 483,
      "##يرا": 484,
      "##ياء": 485,
      "ير": 486,
      "البي": 487,
      "فان": 488,
      "##عي": 489,
      "الحياة": 490,
      "##مس": 491,
      "لت": 492,
      "##وء": 493,
      "##خت": 494,
      "##غير": 495,
      "مست": 496,
      "عبد": 497,
      "##وض": 498,
      "الض": 499,
      "يق": 500,
      "فوق": 501,
      "##نه": 502,
      "##ره": 503,
      "اذ": 504,
      "مس": 505,
      "##بها": 506,
      "فيه": 507,
      "قايلا": 508,
      "##فق": 509,
      "##امة": 510,
      "الما": 511,
      "##ابت": 512,
      "تف": 513,
      "##وى": 514,
      "##تي": 515,
      "منه": 516,
      "فلم": 517,
      "##راه": 518,
      "##جلس": 519,
      "##ضى": 520,
      "المع": 521,
      "##وك": 522,
      "وراء": 523,
      "باس": 524,
      "##غل": 525,
      "عم": 526,
      "ود": 527,
      "وش": 528,
      "##طا": 529,
      "##وال": 530,
      "##جب": 531,
      "وص": 532,
      "وفي": 533,
      "انك": 534,
      "##ديث": 535,
      "اليوم": 536,
      "##باب": 537,
      "كث": 538,
      "حقا": 539,
      "ياس": 540,
      "الاح": 541,
      "ست": 542,
      "##عم": 543,
      "##وجه": 544,
      "##حظ": 545,
      "ايضا": 546,
      "##ده": 547,
      "بي": 548,
      "حال": 549,
      "##نيا": 550,
      "را": 551,
      "##بك": 552,
      "##ارة": 553,
      "عليها": 554,
      "البيت": 555,
      "والح": 556,
      "##رع": 557,
      "يوم": 558,
      "##بع": 559,
      "والا": 560,
      "##اني": 561,
      "بيت": 562,
      "##يز": 563,
      "رج": 564,
      "مج": 565,
      "##بق": 566,
      "جمي": 567,
      "جل": 568,
      "مص": 569,
      "##اري": 570,
      "##نون": 571,
      "يف": 572,
      "ار": 573,
      "اق": 574,
      "##تف": 575,
      "فس": 576,
      "الشي": 577,
      "##مام": 578,
      "سي": 579,
      "##الم": 580,
      "تق": 581,
      "خط": 582,
      "##نى": 583,
      "الام": 584,
      "اخرى": 585,
      "##ركة": 586,
      "اول": 587,
      "تحت": 588,
      "عا": 589,
      "اله": 590,
      "##يام": 591,
      "راي": 592,
      "##الة": 593,
      "تس": 594,
      "ياسين": 595,
      "تد": 596,
      "##وات": 597,
      "لع": 598,
      "##ضب": 599,
      "##فه": 600,
      "تش": 601,
      "فر": 602,
      "##حا": 603,
      "صاح": 604,
      "ولكنها": 605,
      "##طة": 606,
      "فيما": 607,
      "##ولا": 608,
      "##بث": 609,
      "##يها": 610,
      "الظ": 611,
      "حين": 612,
      "##قيقة": 613,
      "ابت": 614,
      "عنه": 615,
      "بت": 616,
      "والم": 617,
      "##ذهب": 618,
      "فل": 619,
      "كمال": 620,
      "##ضحك": 621,
      "نحو": 622,
      "##يدا": 623,
      "##امل": 624,
      "##لمة": 625,
      "ليس": 626,
      "##وما": 627,
      "##كا": 628,
      "المراة": 629,
      "يخ": 630,
      "##بس": 631,
      "مد": 632,
      "لان": 633,
      "##سى": 634,
      "ترى": 635,
      "اعت": 636,
      "واست": 637,
      "تص": 638,
      "##ادر": 639,
      "بصوت": 640,
      "##جاب": 641,
      "##ثة": 642,
      "سب": 643,
      "##انا": 644,
      "وحد": 645,
      "اليها": 646,
      "راسه": 647,
      "والت": 648,
      "##كم": 649,
      "الاخ": 650,
      "جاء": 651,
      "حد": 652,
      "ورا": 653,
      "##غي": 654,
      "##انة": 655,
      "وخ": 656,
      "##زن": 657,
      "##لاء": 658,
      "الاخر": 659,
      "بما": 660,
      "تست": 661,
      "امام": 662,
      "فقد": 663,
      "لما": 664,
      "##زع": 665,
      "ارت": 666,
      "الطريق": 667,
      "يص": 668,
      "ور": 669,
      "##شت": 670,
      "اكثر": 671,
      "منها": 672,
      "الجد": 673,
      "مما": 674,
      "رجل": 675,
      "##وار": 676,
      "##سمع": 677,
      "##ذر": 678,
      "##زا": 679,
      "##اة": 680,
      "##ضل": 681,
      "يكون": 682,
      "##نع": 683,
      "##واء": 684,
      "الرا": 685,
      "ولما": 686,
      "وقالت": 687,
      "فلا": 688,
      "تقول": 689,
      "حي": 690,
      "##رام": 691,
      "##ردد": 692,
      "الاست": 693,
      "المد": 694,
      "المح": 695,
      "الناس": 696,
      "##الي": 697,
      "زوج": 698,
      "عز": 699,
      "##اهر": 700,
      "فق": 701,
      "شك": 702,
      "صوت": 703,
      "##عاد": 704,
      "اث": 705,
      "##زوج": 706,
      "فيها": 707,
      "الامر": 708,
      "اجل": 709,
      "##خص": 710,
      "##واد": 711,
      "##خذ": 712,
      "حسن": 713,
      "بيد": 714,
      "شييا": 715,
      "##باد": 716,
      "##وقف": 717,
      "فهم": 718,
      "وانت": 719,
      "فرا": 720,
      "قالت": 721,
      "##فسه": 722,
      "الباب": 723,
      "ومن": 724,
      "المن": 725,
      "اين": 726,
      "##وية": 727,
      "##ماء": 728,
      "##يفة": 729,
      "##ماع": 730,
      "##باح": 731,
      "تخ": 732,
      "##جه": 733,
      "رب": 734,
      "##ودة": 735,
      "باب": 736,
      "مش": 737,
      "نظرة": 738,
      "تم": 739,
      "##ضة": 740,
      "##وجد": 741,
      "وغ": 742,
      "##يق": 743,
      "مثل": 744,
      "واحدة": 745,
      "كنت": 746,
      "##تهم": 747,
      "منذ": 748,
      "كلا": 749,
      "عينيه": 750,
      "رغم": 751,
      "كله": 752,
      "##جي": 753,
      "حا": 754,
      "##بير": 755,
      "##لب": 756,
      "الوق": 757,
      "جم": 758,
      "##سل": 759,
      "##ديجة": 760,
      "##بار": 761,
      "الو": 762,
      "بق": 763,
      "شد": 764,
      "##صف": 765,
      "##امت": 766,
      "##اذ": 767,
      "ذه": 768,
      "##ضت": 769,
      "بر": 770,
      "الاع": 771,
      "الحب": 772,
      "قلبه": 773,
      "الاول": 774,
      "##يارة": 775,
      "وجهه": 776,
      "##قدم": 777,
      "##ابة": 778,
      "##ريب": 779,
      "##راب": 780,
      "##ديم": 781,
      "عما": 782,
      "كانما": 783,
      "حيا": 784,
      "يك": 785,
      "##اع": 786,
      "##عادة": 787,
      "وف": 788,
      "بخ": 789,
      "##حق": 790,
      "البا": 791,
      "بعض": 792,
      "تك": 793,
      "خل": 794,
      "##رور": 795,
      "##يني": 796,
      "مق": 797,
      "بدا": 798,
      "يغ": 799,
      "الفت": 800,
      "حول": 801,
      "##سب": 802,
      "##الت": 803,
      "##وبة": 804,
      "الاب": 805,
      "##جد": 806,
      "##حدث": 807,
      "##قيق": 808,
      "ابي": 809,
      "يه": 810,
      "الشاب": 811,
      "معا": 812,
      "حم": 813,
      "الحجرة": 814,
      "##ضح": 815,
      "يعد": 816,
      "بش": 817,
      "سم": 818,
      "خديجة": 819,
      "##تك": 820,
      "الدنيا": 821,
      "جميعا": 822,
      "لقد": 823,
      "لكن": 824,
      "##سامة": 825,
      "دع": 826,
      "##وظ": 827,
      "يمكن": 828,
      "صف": 829,
      "سن": 830,
      "##هوة": 831,
      "##سن": 832,
      "##وته": 833,
      "##زم": 834,
      "المس": 835,
      "بالم": 836,
      "##لاق": 837,
      "الوقت": 838,
      "ذاك": 839,
      "بالح": 840,
      "الشيخ": 841,
      "هنا": 842,
      "تلك": 843,
      "##مات": 844,
      "وبين": 845,
      "##طم": 846,
      "##ياس": 847,
      "ولكني": 848,
      "##على": 849,
      "يل": 850,
      "##طان": 851,
      "##اص": 852,
      "اغ": 853,
      "صاد": 854,
      "##رار": 855,
      "مخ": 856,
      "يوما": 857,
      "احمد": 858,
      "فما": 859,
      "##واب": 860,
      "والع": 861,
      "نفسها": 862,
      "##بح": 863,
      "##الها": 864,
      "##ولة": 865,
      "##زة": 866,
      "##يدي": 867,
      "مر": 868,
      "حسين": 869,
      "مكان": 870,
      "##قر": 871,
      "##الية": 872,
      "الارض": 873,
      "##واق": 874,
      "##طع": 875,
      "شع": 876,
      "##ذة": 877,
      "فك": 878,
      "##طن": 879,
      "##ارج": 880,
      "فهمي": 881,
      "##حر": 882,
      "فن": 883,
      "##يي": 884,
      "ارا": 885,
      "مل": 886,
      "##تمام": 887,
      "وانا": 888,
      "تل": 889,
      "صدر": 890,
      "##طيع": 891,
      "##فك": 892,
      "##بات": 893,
      "ولو": 894,
      "للم": 895,
      "##ضر": 896,
      "##طال": 897,
      "فص": 898,
      "##ارع": 899,
      "جديد": 900,
      "##حظة": 901,
      "##اج": 902,
      "##زل": 903,
      "اذن": 904,
      "والس": 905,
      "الحق": 906,
      "وجد": 907,
      "##ضاء": 908,
      "##شف": 909,
      "##جاة": 910,
      "##ذب": 911,
      "##زد": 912,
      "ته": 913,
      "##ليلا": 914,
      "##قبل": 915,
      "بله": 916,
      "ذات": 917,
      "##ايشة": 918,
      "الاحمر": 919,
      "تكن": 920,
      "عليك": 921,
      "نظ": 922,
      "##كة": 923,
      "الليل": 924,
      "##راهيم": 925,
      "##هاية": 926,
      "المست": 927,
      "عنها": 928,
      "##طلع": 929,
      "##جع": 930,
      "##ليم": 931,
      "##ويلا": 932,
      "##فل": 933,
      "جان": 934,
      "اخت": 935,
      "قا": 936,
      "لنا": 937,
      "##شرة": 938,
      "##زي": 939,
      "##ريم": 940,
      "بج": 941,
      "محمد": 942,
      "رح": 943,
      "طويلا": 944,
      "##قاء": 945,
      "يجد": 946,
      "##دم": 947,
      "##ولي": 948,
      "قص": 949,
      "##ومة": 950,
      "##سر": 951,
      "حما": 952,
      "ضحك": 953,
      "##وره": 954,
      "قلت": 955,
      "قليلا": 956,
      "##اق": 957,
      "الزواج": 958,
      "صدي": 959,
      "سبيل": 960,
      "##نق": 961,
      "بنظرة": 962,
      "لماذا": 963,
      "وث": 964,
      "سر": 965,
      "ملا": 966,
      "##دى": 967,
      "حجرة": 968,
      "عر": 969,
      "عاد": 970,
      "##انه": 971,
      "الحل": 972,
      "بالا": 973,
      "امراة": 974,
      "حديث": 975,
      "قب": 976,
      "ها": 977,
      "##هل": 978,
      "المص": 979,
      "##رس": 980,
      "فع": 981,
      "وكانت": 982,
      "ذكر": 983,
      "##بين": 984,
      "يده": 985,
      "يعرف": 986,
      "##اره": 987,
      "لنفسه": 988,
      "وقت": 989,
      "##ورا": 990,
      "##عها": 991,
      "احت": 992,
      "##جت": 993,
      "##رارة": 994,
      "امه": 995,
      "داي": 996,
      "##يبة": 997,
      "واذا": 998,
      "يجب": 999,
      "مغ": 1000,
      "العمل": 1001,
      "##بيب": 1002,
      "معنى": 1003,
      "##رعان": 1004,
      "وز": 1005,
      "##يار": 1006,
      "عمر": 1007,
      "##شك": 1008,
      "جديدة": 1009,
      "##فظ": 1010,
      "##جن": 1011,
      "خير": 1012,
      "##بيض": 1013,
      "##طار": 1014,
      "##عيد": 1015,
      "##لات": 1016,
      "ابراهيم": 1017,
      "رغ": 1018,
      "##ويل": 1019,
      "##ايق": 1020,
      "##كذا": 1021,
      "##باه": 1022,
      "اقت": 1023,
      "نعم": 1024,
      "تغ": 1025,
      "فال": 1026,
      "##قلب": 1027,
      "ضاح": 1028,
      "تما": 1029,
      "الحديث": 1030,
      "تعرف": 1031,
      "حياته": 1032,
      "بلهجة": 1033,
      "لح": 1034,
      "والد": 1035,
      "ابن": 1036,
      "ابتسامة": 1037,
      "تكون": 1038,
      "للا": 1039,
      "بانه": 1040,
      "بكل": 1041,
      "##تاب": 1042,
      "##قص": 1043,
      "انني": 1044,
      "##فتح": 1045,
      "##قطع": 1046,
      "الاص": 1047,
      "مجلس": 1048,
      "##يك": 1049,
      "##باس": 1050,
      "ومضى": 1051,
      "##ساءلت": 1052,
      "باه": 1053,
      "طال": 1054,
      "اض": 1055,
      "##اصة": 1056,
      "جدا": 1057,
      "الابيض": 1058,
      "كثيرا": 1059,
      "##الته": 1060,
      "وعند": 1061,
      "##اث": 1062,
      "ويت": 1063,
      "ابيه": 1064,
      "##درسة": 1065,
      "غا": 1066,
      "فاست": 1067,
      "##وها": 1068,
      "##حدة": 1069,
      "##ماعيل": 1070,
      "بالس": 1071,
      "ولي": 1072,
      "عايشة": 1073,
      "##قها": 1074,
      "##يش": 1075,
      "##طح": 1076,
      "مكت": 1077,
      "كذلك": 1078,
      "نف": 1079,
      "فقلت": 1080,
      "شخص": 1081,
      "مرت": 1082,
      "هد": 1083,
      "السل": 1084,
      "العر": 1085,
      "اليس": 1086,
      "اسم": 1087,
      "##نان": 1088,
      "##راف": 1089,
      "الحال": 1090,
      "بط": 1091,
      "##رم": 1092,
      "الفرا": 1093,
      "##افة": 1094,
      "جن": 1095,
      "شعر": 1096,
      "##بدو": 1097,
      "بالت": 1098,
      "ينت": 1099,
      "حياة": 1100,
      "ناح": 1101,
      "##دل": 1102,
      "منك": 1103,
      "نش": 1104,
      "##صور": 1105,
      "السا": 1106,
      "الزوج": 1107,
      "الحارة": 1108,
      "وانه": 1109,
      "عي": 1110,
      "اثر": 1111,
      "حل": 1112,
      "##وقع": 1113,
      "يز": 1114,
      "الحس": 1115,
      "الرج": 1116,
      "متى": 1117,
      "##جوب": 1118,
      "وجهها": 1119,
      "سل": 1120,
      "شر": 1121,
      "##ياح": 1122,
      "ليلة": 1123,
      "##يره": 1124,
      "ومع": 1125,
      "##الك": 1126,
      "##اهرة": 1127,
      "عندما": 1128,
      "##حب": 1129,
      "##ناول": 1130,
      "##احت": 1131,
      "ينب": 1132,
      "##يانا": 1133,
      "الايام": 1134,
      "##ابه": 1135,
      "##ادي": 1136,
      "##ريبة": 1137,
      "وتساءل": 1138,
      "هم": 1139,
      "##خرج": 1140,
      "لذلك": 1141,
      "##رى": 1142,
      "##يته": 1143,
      "ثمة": 1144,
      "##هشة": 1145,
      "ذا": 1146,
      "فح": 1147,
      "##رن": 1148,
      "##رتها": 1149,
      "يدري": 1150,
      "##تين": 1151,
      "##ثل": 1152,
      "صمت": 1153,
      "##شد": 1154,
      "##رفع": 1155,
      "ساخ": 1156,
      "الحي": 1157,
      "امت": 1158,
      "اسماعيل": 1159,
      "العج": 1160,
      "##رفة": 1161,
      "##درية": 1162,
      "طب": 1163,
      "##طب": 1164,
      "محجوب": 1165,
      "##قاب": 1166,
      "##فض": 1167,
      "##ونة": 1168,
      "##بط": 1169,
      "##طلق": 1170,
      "نحن": 1171,
      "قايلة": 1172,
      "عج": 1173,
      "يض": 1174,
      "##لف": 1175,
      "##انية": 1176,
      "##املة": 1177,
      "الشر": 1178,
      "بعين": 1179,
      "##بته": 1180,
      "##دع": 1181,
      "الموت": 1182,
      "فض": 1183,
      "كانه": 1184,
      "حن": 1185,
      "الحقيقة": 1186,
      "##هرة": 1187,
      "##لقى": 1188,
      "تماما": 1189,
      "وض": 1190,
      "##حل": 1191,
      "لاول": 1192,
      "القديم": 1193,
      "القهوة": 1194,
      "##سمت": 1195,
      "والن": 1196,
      "المعلم": 1197,
      "صادق": 1198,
      "##ظن": 1199,
      "##يح": 1200,
      "حق": 1201,
      "##فاء": 1202,
      "##جار": 1203,
      "انف": 1204,
      "طريق": 1205,
      "الوح": 1206,
      "وهل": 1207,
      "ابدا": 1208,
      "فتساءل": 1209,
      "مضى": 1210,
      "وعلى": 1211,
      "##داء": 1212,
      "##غيرة": 1213,
      "صاحب": 1214,
      "دايما": 1215,
      "هكذا": 1216,
      "##حم": 1217,
      "وقع": 1218,
      "حدث": 1219,
      "بصر": 1220,
      "تريد": 1221,
      "اط": 1222,
      "وط": 1223,
      "امر": 1224,
      "الخط": 1225,
      "وراح": 1226,
      "حيات": 1227,
      "عام": 1228,
      "##عين": 1229,
      "بالن": 1230,
      "الدين": 1231,
      "فاجاب": 1232,
      "ينبغي": 1233,
      "مه": 1234,
      "##وله": 1235,
      "الجم": 1236,
      "وكيف": 1237,
      "##باك": 1238,
      "صدره": 1239,
      "لط": 1240,
      "##شى": 1241,
      "العمر": 1242,
      "الرح": 1243,
      "تز": 1244,
      "فابت": 1245,
      "واح": 1246,
      "##ريمة": 1247,
      "##وث": 1248,
      "##ظة": 1249,
      "المش": 1250,
      "احيانا": 1251,
      "##فاق": 1252,
      "بنا": 1253,
      "تا": 1254,
      "##مق": 1255,
      "##عف": 1256,
      "##صا": 1257,
      "عيناه": 1258,
      "واب": 1259,
      "##برة": 1260,
      "##كل": 1261,
      "##غت": 1262,
      "الست": 1263,
      "##جليز": 1264,
      "الصمت": 1265,
      "انته": 1266,
      "المنا": 1267,
      "ترك": 1268,
      "لله": 1269,
      "##بية": 1270,
      "##ابط": 1271,
      "نفسي": 1272,
      "اعرف": 1273,
      "##رجع": 1274,
      "تعلم": 1275,
      "فهو": 1276,
      "نت": 1277,
      "والخ": 1278,
      "##اريخ": 1279,
      "تعد": 1280,
      "يخل": 1281,
      "فم": 1282,
      "فات": 1283,
      "كر": 1284,
      "##بال": 1285,
      "اهل": 1286,
      "##ارك": 1287,
      "##ربت": 1288,
      "راى": 1289,
      "##نف": 1290,
      "تخل": 1291,
      "##هار": 1292,
      "##يدان": 1293,
      "بالع": 1294,
      "##شيء": 1295,
      "لعله": 1296,
      "لعل": 1297,
      "محت": 1298,
      "##وط": 1299,
      "##سك": 1300,
      "##ثير": 1301,
      "الذين": 1302,
      "ليست": 1303,
      "بنفس": 1304,
      "الظلام": 1305,
      "دا": 1306,
      "##رعة": 1307,
      "##ونا": 1308,
      "##حف": 1309,
      "الدا": 1310,
      "##الا": 1311,
      "النظر": 1312,
      "الخارج": 1313,
      "بث": 1314,
      "يبق": 1315,
      "##قى": 1316,
      "##ادت": 1317,
      "تذكر": 1318,
      "عهد": 1319,
      "##فح": 1320,
      "ساعة": 1321,
      "##جم": 1322,
      "##غر": 1323,
      "علينا": 1324,
      "حيث": 1325,
      "##ذي": 1326,
      "##حن": 1327,
      "##واف": 1328,
      "واس": 1329,
      "##ديقة": 1330,
      "الجو": 1331,
      "احب": 1332,
      "كم": 1333,
      "الوج": 1334,
      "والش": 1335,
      "##ديمة": 1336,
      "راسها": 1337,
      "وحده": 1338,
      "ضاحكا": 1339,
      "عرف": 1340,
      "غض": 1341,
      "نس": 1342,
      "وهم": 1343,
      "عينيها": 1344,
      "اريد": 1345,
      "شفت": 1346,
      "قر": 1347,
      "##سه": 1348,
      "المكان": 1349,
      "البل": 1350,
      "##ميع": 1351,
      "##وام": 1352,
      "امها": 1353,
      "##متم": 1354,
      "نفسك": 1355,
      "سيد": 1356,
      "##صي": 1357,
      "الانسان": 1358,
      "الواق": 1359,
      "واخ": 1360,
      "يدع": 1361,
      "الفتاة": 1362,
      "##تم": 1363,
      "##صد": 1364,
      "لحظة": 1365,
      "نظر": 1366,
      "از": 1367,
      "طري": 1368,
      "وظ": 1369,
      "الجن": 1370,
      "وجاء": 1371,
      "ذرا": 1372,
      "صورة": 1373,
      "##ظار": 1374,
      "##ادم": 1375,
      "اعما": 1376,
      "باهتمام": 1377,
      "صد": 1378,
      "ايام": 1379,
      "دار": 1380,
      "رض": 1381,
      "نع": 1382,
      "الاف": 1383,
      "وات": 1384,
      "وارت": 1385,
      "##رية": 1386,
      "##ذاب": 1387,
      "واق": 1388,
      "تب": 1389,
      "تساءل": 1390,
      "شهر": 1391,
      "##كرة": 1392,
      "##ظيم": 1393,
      "##يتها": 1394,
      "شيخ": 1395,
      "##ملة": 1396,
      "روح": 1397,
      "##كلم": 1398,
      "##زت": 1399,
      "##قدر": 1400,
      "الانت": 1401,
      "##قبض": 1402,
      "ادرك": 1403,
      "ناحية": 1404,
      "يبدو": 1405,
      "##غة": 1406,
      "امينة": 1407,
      "متس": 1408,
      "##نين": 1409,
      "##جلة": 1410,
      "معه": 1411,
      "تردد": 1412,
      "عد": 1413,
      "علا": 1414,
      "يقت": 1415,
      "الال": 1416,
      "انهم": 1417,
      "الماضي": 1418,
      "خف": 1419,
      "وها": 1420,
      "##مارة": 1421,
      "بالص": 1422,
      "الغضب": 1423,
      "يرى": 1424,
      "قط": 1425,
      "يعت": 1426,
      "##حية": 1427,
      "##راك": 1428,
      "كلما": 1429,
      "ضحكة": 1430,
      "##واصل": 1431,
      "بهد": 1432,
      "حز": 1433,
      "فكان": 1434,
      "فضحك": 1435,
      "قت": 1436,
      "كبير": 1437,
      "##نهد": 1438,
      "##زق": 1439,
      "##قيم": 1440,
      "##كتب": 1441,
      "##بادل": 1442,
      "يهم": 1443,
      "منهم": 1444,
      "حميدة": 1445,
      "برا": 1446,
      "راح": 1447,
      "لست": 1448,
      "مض": 1449,
      "##شق": 1450,
      "##طفى": 1451,
      "لانه": 1452,
      "سمع": 1453,
      "للت": 1454,
      "نج": 1455,
      "##طق": 1456,
      "السماء": 1457,
      "طاهر": 1458,
      "مظ": 1459,
      "موض": 1460,
      "الوز": 1461,
      "والج": 1462,
      "##دقاء": 1463,
      "الساعة": 1464,
      "خاط": 1465,
      "يب": 1466,
      "##ويلة": 1467,
      "الوجه": 1468,
      "##انت": 1469,
      "ولكنك": 1470,
      "ربنا": 1471,
      "عيسى": 1472,
      "بف": 1473,
      "سعد": 1474,
      "##ضية": 1475,
      "علم": 1476,
      "قلبي": 1477,
      "جميع": 1478,
      "صديق": 1479,
      "مريم": 1480,
      "##وش": 1481,
      "##كرت": 1482,
      "المال": 1483,
      "##وظف": 1484,
      "دكان": 1485,
      "##وذ": 1486,
      "الزمن": 1487,
      "الليلة": 1488,
      "نهاية": 1489,
      "يط": 1490,
      "يدي": 1491,
      "##ابع": 1492,
      "##ونه": 1493,
      "##ريبا": 1494,
      "##بلغ": 1495,
      "نحوه": 1496,
      "لهم": 1497,
      "##عام": 1498,
      "البك": 1499,
      "ينظر": 1500,
      "##قلق": 1501,
      "طبعا": 1502,
      "المق": 1503,
      "يحت": 1504,
      "##اها": 1505,
      "قلب": 1506,
      "##كار": 1507,
      "##ماس": 1508,
      "ولن": 1509,
      "بعيد": 1510,
      "الانجليز": 1511,
      "فرصة": 1512,
      "حظ": 1513,
      "##نية": 1514,
      "##ياه": 1515,
      "الجديد": 1516,
      "الرجال": 1517,
      "الحك": 1518,
      "بالق": 1519,
      "يعلم": 1520,
      "##ضيق": 1521,
      "باي": 1522,
      "ثلا": 1523,
      "سع": 1524,
      "شاب": 1525,
      "عباس": 1526,
      "##ارية": 1527,
      "##عدة": 1528,
      "وجدت": 1529,
      "الفر": 1530,
      "##قاق": 1531,
      "##واجه": 1532,
      "اعد": 1533,
      "فخ": 1534,
      "##باء": 1535,
      "الاسرة": 1536,
      "صاحبه": 1537,
      "بحدة": 1538,
      "الها": 1539,
      "رضوان": 1540,
      "سيدي": 1541,
      "كلمة": 1542,
      "##حه": 1543,
      "##ارب": 1544,
      "##واه": 1545,
      "##قتها": 1546,
      "للع": 1547,
      "كثير": 1548,
      "مصطفى": 1549,
      "الجديدة": 1550,
      "عزت": 1551,
      "عاب": 1552,
      "##وري": 1553,
      "##ياب": 1554,
      "وكل": 1555,
      "الاولى": 1556,
      "عش": 1557,
      "كامل": 1558,
      "##يع": 1559,
      "##فى": 1560,
      "##ينه": 1561,
      "##كره": 1562,
      "وجعل": 1563,
      "وقف": 1564,
      "اشت": 1565,
      "بهدوء": 1566,
      "حب": 1567,
      "شارع": 1568,
      "الجل": 1569,
      "الملا": 1570,
      "الفراش": 1571,
      "اقول": 1572,
      "بذلك": 1573,
      "عق": 1574,
      "القلب": 1575,
      "كالم": 1576,
      "ربما": 1577,
      "شديد": 1578,
      "اكت": 1579,
      "حر": 1580,
      "خبر": 1581,
      "لبث": 1582,
      "والص": 1583,
      "العين": 1584,
      "عمل": 1585,
      "واد": 1586,
      "يذكر": 1587,
      "يوجد": 1588,
      "##وص": 1589,
      "المج": 1590,
      "الطبيب": 1591,
      "##بتها": 1592,
      "خاصة": 1593,
      "##حاب": 1594,
      "##سام": 1595,
      "##علت": 1596,
      "المخ": 1597,
      "المدرسة": 1598,
      "واش": 1599,
      "السعادة": 1600,
      "حاجة": 1601,
      "تنا": 1602,
      "حض": 1603,
      "ورب": 1604,
      "##مها": 1605,
      "##لته": 1606,
      "##سية": 1607,
      "##زه": 1608,
      "##وني": 1609,
      "##ورد": 1610,
      "##تفت": 1611,
      "قلبها": 1612,
      "##عله": 1613,
      "##انها": 1614,
      "منت": 1615,
      "##ايم": 1616,
      "فتح": 1617,
      "وسرعان": 1618,
      "الناف": 1619,
      "جميل": 1620,
      "العروس": 1621,
      "بصره": 1622,
      "خي": 1623,
      "زين": 1624,
      "موج": 1625,
      "##فو": 1626,
      "##ادث": 1627,
      "##طلب": 1628,
      "رجال": 1629,
      "شعور": 1630,
      "جو": 1631,
      "حلم": 1632,
      "فج": 1633,
      "كي": 1634,
      "مساء": 1635,
      "##هاب": 1636,
      "منا": 1637,
      "##علق": 1638,
      "يريد": 1639,
      "زب": 1640,
      "عفت": 1641,
      "##هات": 1642,
      "##ياسة": 1643,
      "التح": 1644,
      "##بيع": 1645,
      "باشا": 1646,
      "تجد": 1647,
      "طل": 1648,
      "ظهر": 1649,
      "عمي": 1650,
      "فجاة": 1651,
      "الخير": 1652,
      "عقب": 1653,
      "قوة": 1654,
      "##تهانة": 1655,
      "ادري": 1656,
      "بقوة": 1657,
      "مم": 1658,
      "##بب": 1659,
      "##ليل": 1660,
      "##راد": 1661,
      "در": 1662,
      "##طرب": 1663,
      "##ساس": 1664,
      "##فن": 1665,
      "##فعت": 1666,
      "الالم": 1667,
      "##بيرة": 1668,
      "##خرية": 1669,
      "الصباح": 1670,
      "كت": 1671,
      "كلام": 1672,
      "كانها": 1673,
      "الكبير": 1674,
      "وماذا": 1675,
      "لولا": 1676,
      "##طمين": 1677,
      "السلطان": 1678,
      "خال": 1679,
      "مصر": 1680,
      "يحدث": 1681,
      "##ذن": 1682,
      "##راحة": 1683,
      "واص": 1684,
      "بينهما": 1685,
      "تض": 1686,
      "فش": 1687,
      "مك": 1688,
      "نور": 1689,
      "##يء": 1690,
      "##ذار": 1691,
      "##غبة": 1692,
      "الكلام": 1693,
      "عنا": 1694,
      "التع": 1695,
      "##همة": 1696,
      "ذهب": 1697,
      "بب": 1698,
      "تط": 1699,
      "عص": 1700,
      "نب": 1701,
      "##نتظر": 1702,
      "باسما": 1703,
      "##روف": 1704,
      "##خة": 1705,
      "عندي": 1706,
      "##امر": 1707,
      "##بتسم": 1708,
      "##فعال": 1709,
      "فساله": 1710,
      "لسان": 1711,
      "##سلم": 1712,
      "##صت": 1713,
      "##فون": 1714,
      "وتح": 1715,
      "النفس": 1716,
      "##افية": 1717,
      "وساله": 1718,
      "اخذ": 1719,
      "بنت": 1720,
      "تلا": 1721,
      "يرت": 1722,
      "الوا": 1723,
      "الجميع": 1724,
      "فلن": 1725,
      "النافذة": 1726,
      "خد": 1727,
      "رو": 1728,
      "رك": 1729,
      "فد": 1730,
      "فلي": 1731,
      "نا": 1732,
      "بالله": 1733,
      "يدها": 1734,
      "يستطيع": 1735,
      "متسايلا": 1736,
      "ترا": 1737,
      "رم": 1738,
      "غدا": 1739,
      "##قته": 1740,
      "##زعا": 1741,
      "##لامة": 1742,
      "الاش": 1743,
      "النوم": 1744,
      "اليك": 1745,
      "الدكان": 1746,
      "##مدون": 1747,
      "العجوز": 1748,
      "فابتسم": 1749,
      "مو": 1750,
      "مته": 1751,
      "يو": 1752,
      "##يمة": 1753,
      "##جاه": 1754,
      "##ارف": 1755,
      "امل": 1756,
      "##وده": 1757,
      "النهاية": 1758,
      "وكانه": 1759,
      "حركة": 1760,
      "##جز": 1761,
      "الحظ": 1762,
      "واع": 1763,
      "يتساءل": 1764,
      "وقلت": 1765,
      "فراى": 1766,
      "##وين": 1767,
      "##مار": 1768,
      "##فاع": 1769,
      "بنفسه": 1770,
      "بيته": 1771,
      "الابد": 1772,
      "##واطف": 1773,
      "##ردت": 1774,
      "عيني": 1775,
      "يفعل": 1776,
      "فكرة": 1777,
      "ارض": 1778,
      "فعل": 1779,
      "موق": 1780,
      "##غضب": 1781,
      "المغ": 1782,
      "##يله": 1783,
      "الجام": 1784,
      "##متع": 1785,
      "##راءة": 1786,
      "رايت": 1787,
      "اراد": 1788,
      "لس": 1789,
      "وابت": 1790,
      "شاء": 1791,
      "بالخ": 1792,
      "##دران": 1793,
      "يحب": 1794,
      "عرفت": 1795,
      "الواقع": 1796,
      "شبه": 1797,
      "مز": 1798,
      "##مون": 1799,
      "باست": 1800,
      "جلس": 1801,
      "هناك": 1802,
      "الداخل": 1803,
      "غريب": 1804,
      "وام": 1805,
      "العام": 1806,
      "##قدام": 1807,
      "##ومي": 1808,
      "##عتها": 1809,
      "البشر": 1810,
      "للح": 1811,
      "يديه": 1812,
      "##قهى": 1813,
      "اشد": 1814,
      "بغير": 1815,
      "ينا": 1816,
      "##لها": 1817,
      "الاد": 1818,
      "الحا": 1819,
      "يتع": 1820,
      "ونظر": 1821,
      "نق": 1822,
      "يسمع": 1823,
      "##ذرا": 1824,
      "منظر": 1825,
      "بالش": 1826,
      "##ريف": 1827,
      "حقي": 1828,
      "سيدة": 1829,
      "صح": 1830,
      "وعد": 1831,
      "انسان": 1832,
      "المرة": 1833,
      "##بعث": 1834,
      "الاستاذ": 1835,
      "اهم": 1836,
      "بار": 1837,
      "حجر": 1838,
      "سوء": 1839,
      "طويل": 1840,
      "عال": 1841,
      "##راح": 1842,
      "فاضل": 1843,
      "بسرعة": 1844,
      "قديم": 1845,
      "كن": 1846,
      "ليل": 1847,
      "والف": 1848,
      "الشمس": 1849,
      "القديمة": 1850,
      "##ليق": 1851,
      "وصاح": 1852,
      "عزيز": 1853,
      "##فكير": 1854,
      "##ثال": 1855,
      "والر": 1856,
      "القب": 1857,
      "اولا": 1858,
      "رغبة": 1859,
      "دنيا": 1860,
      "ضر": 1861,
      "طويلة": 1862,
      "عادة": 1863,
      "##انم": 1864,
      "##يري": 1865,
      "واض": 1866,
      "##رتك": 1867,
      "##جاج": 1868,
      "تغير": 1869,
      "لص": 1870,
      "موا": 1871,
      "##مته": 1872,
      "الاه": 1873,
      "بالك": 1874,
      "وسط": 1875,
      "بلغ": 1876,
      "احدا": 1877,
      "##يقظ": 1878,
      "##يس": 1879,
      "##زاء": 1880,
      "##تهي": 1881,
      "##ذات": 1882,
      "بالد": 1883,
      "##علن": 1884,
      "اسرة": 1885,
      "لنفس": 1886,
      "حمادة": 1887,
      "حمدون": 1888,
      "طيب": 1889,
      "فار": 1890,
      "##انون": 1891,
      "الاز": 1892,
      "والق": 1893,
      "##ريح": 1894,
      "##متها": 1895,
      "##اطب": 1896,
      "الضابط": 1897,
      "صباح": 1898,
      "##سد": 1899,
      "##صاب": 1900,
      "##لاح": 1901,
      "##ناه": 1902,
      "مات": 1903,
      "العا": 1904,
      "تحب": 1905,
      "##شرين": 1906,
      "كاس": 1907,
      "نصف": 1908,
      "ابو": 1909,
      "يتح": 1910,
      "النج": 1911,
      "احسان": 1912,
      "##منى": 1913,
      "ينتظر": 1914,
      "##شيدي": 1915,
      "##ابق": 1916,
      "الحد": 1917,
      "بينه": 1918,
      "##زداد": 1919,
      "بهم": 1920,
      "جنون": 1921,
      "خوف": 1922,
      "دق": 1923,
      "رء": 1924,
      "##ظاهر": 1925,
      "مني": 1926,
      "الار": 1927,
      "##ياع": 1928,
      "والك": 1929,
      "بهذا": 1930,
      "فانت": 1931,
      "لكنه": 1932,
      "مجلسه": 1933,
      "بوجه": 1934,
      "خص": 1935,
      "هن": 1936,
      "وين": 1937,
      "##ولت": 1938,
      "الحديقة": 1939,
      "##يهما": 1940,
      "معت": 1941,
      "##اهد": 1942,
      "النساء": 1943,
      "الخوف": 1944,
      "يشعر": 1945,
      "عايدة": 1946,
      "حوله": 1947,
      "انتهى": 1948,
      "جسم": 1949,
      "دور": 1950,
      "ذو": 1951,
      "زن": 1952,
      "قدر": 1953,
      "موقف": 1954,
      "##خرة": 1955,
      "واحدا": 1956,
      "جميلة": 1957,
      "وليس": 1958,
      "بز": 1959,
      "ثق": 1960,
      "قوله": 1961,
      "##لاف": 1962,
      "والله": 1963,
      "يعني": 1964,
      "##جربة": 1965,
      "فهي": 1966,
      "بابا": 1967,
      "تو": 1968,
      "سليم": 1969,
      "صوته": 1970,
      "غريبة": 1971,
      "##تما": 1972,
      "##راته": 1973,
      "والان": 1974,
      "عني": 1975,
      "الشعر": 1976,
      "عمله": 1977,
      "وشعر": 1978,
      "مليا": 1979,
      "غاية": 1980,
      "وربما": 1981,
      "زبيدة": 1982,
      "##تة": 1983,
      "##راق": 1984,
      "##راي": 1985,
      "والب": 1986,
      "قليل": 1987,
      "##حكم": 1988,
      "عبده": 1989,
      "عاما": 1990,
      "##هض": 1991,
      "##اثر": 1992,
      "السيارة": 1993,
      "ابنه": 1994,
      "اجمل": 1995,
      "يكاد": 1996,
      "تقت": 1997,
      "جمال": 1998,
      "صنع": 1999,
      "صامت": 2000,
      "قاس": 2001,
      "##از": 2002,
      "##عث": 2003,
      "المرح": 2004,
      "##ناس": 2005,
      "الحم": 2006,
      "العالم": 2007,
      "القل": 2008,
      "##ودا": 2009,
      "كثيرة": 2010,
      "الاخشيدي": 2011,
      "جاءت": 2012,
      "ساخرا": 2013,
      "تمت": 2014,
      "سري": 2015,
      "##بان": 2016,
      "##وسف": 2017,
      "بكلمة": 2018,
      "يشبه": 2019,
      "الاخيرة": 2020,
      "سمعت": 2021,
      "طالما": 2022,
      "زينب": 2023,
      "صار": 2024,
      "ظن": 2025,
      "##اعب": 2026,
      "##كنت": 2027,
      "##ربية": 2028,
      "اخيرا": 2029,
      "##اطة": 2030,
      "الثورة": 2031,
      "الضحك": 2032,
      "جانب": 2033,
      "الزوجة": 2034,
      "ذاه": 2035,
      "زوجه": 2036,
      "صدق": 2037,
      "فغ": 2038,
      "ملي": 2039,
      "##بعه": 2040,
      "##يط": 2041,
      "الكن": 2042,
      "المه": 2043,
      "##يران": 2044,
      "واج": 2045,
      "وهذا": 2046,
      "السر": 2047,
      "وتت": 2048,
      "فهتف": 2049,
      "خطوة": 2050,
      "الامور": 2051,
      "الراس": 2052,
      "ضوء": 2053,
      "يخت": 2054,
      "الحزن": 2055,
      "وهنا": 2056,
      "##اتها": 2057,
      "النح": 2058,
      "الفا": 2059,
      "الطعام": 2060,
      "للس": 2061,
      "وعاد": 2062,
      "اللحظة": 2063,
      "زوجها": 2064,
      "سمير": 2065,
      "الوحيد": 2066,
      "حك": 2067,
      "غادر": 2068,
      "مال": 2069,
      "نها": 2070,
      "##ندي": 2071,
      "##عض": 2072,
      "##فاف": 2073,
      "##ضم": 2074,
      "المل": 2075,
      "##ذاك": 2076,
      "وهما": 2077,
      "##ايب": 2078,
      "وتن": 2079,
      "##داع": 2080,
      "##ربع": 2081,
      "الذكر": 2082,
      "فتساءلت": 2083,
      "اجد": 2084,
      "رجلا": 2085,
      "الشرطة": 2086,
      "سرعان": 2087,
      "فقط": 2088,
      "##افت": 2089,
      "##جرت": 2090,
      "##شار": 2091,
      "##راض": 2092,
      "الجمال": 2093,
      "كلها": 2094,
      "تحية": 2095,
      "المدير": 2096,
      "برقة": 2097,
      "الحلو": 2098,
      "بام": 2099,
      "سال": 2100,
      "فعاد": 2101,
      "ممت": 2102,
      "الاعت": 2103,
      "واخت": 2104,
      "##امي": 2105,
      "القلق": 2106,
      "الصوت": 2107,
      "##درجة": 2108,
      "بيننا": 2109,
      "اهلا": 2110,
      "مجه": 2111,
      "سلي": 2112,
      "مرض": 2113,
      "##ظل": 2114,
      "##راجع": 2115,
      "ولكنني": 2116,
      "امس": 2117,
      "الجواد": 2118,
      "رجع": 2119,
      "زم": 2120,
      "##طت": 2121,
      "##فها": 2122,
      "##شية": 2123,
      "اننا": 2124,
      "##راج": 2125,
      "##ادا": 2126,
      "##ذاء": 2127,
      "معها": 2128,
      "##ركت": 2129,
      "فتاة": 2130,
      "##درس": 2131,
      "يعود": 2132,
      "جديدا": 2133,
      "ونحن": 2134,
      "رايك": 2135,
      "##رامى": 2136,
      "##فحص": 2137,
      "بشيء": 2138,
      "حقيقة": 2139,
      "صور": 2140,
      "مسي": 2141,
      "##دين": 2142,
      "##مى": 2143,
      "##عان": 2144,
      "##عته": 2145,
      "##يادة": 2146,
      "##ادرة": 2147,
      "السن": 2148,
      "ومضت": 2149,
      "##افر": 2150,
      "بانها": 2151,
      "بنبرة": 2152,
      "تدري": 2153,
      "فصاح": 2154,
      "زنوبة": 2155,
      "شان": 2156,
      "عشرة": 2157,
      "غم": 2158,
      "قهوة": 2159,
      "مهما": 2160,
      "نص": 2161,
      "يذهب": 2162,
      "##يال": 2163,
      "انس": 2164,
      "الاقل": 2165,
      "واعت": 2166,
      "واقت": 2167,
      "بالر": 2168,
      "الصغير": 2169,
      "الدور": 2170,
      "##كتور": 2171,
      "وبدا": 2172,
      "##قبال": 2173,
      "بحرارة": 2174,
      "اكبر": 2175,
      "وراءه": 2176,
      "خليل": 2177,
      "حياتي": 2178,
      "كرشة": 2179,
      "تذ": 2180,
      "شو": 2181,
      "عث": 2182,
      "هام": 2183,
      "##بوع": 2184,
      "##وعة": 2185,
      "##فات": 2186,
      "##تهما": 2187,
      "##ديق": 2188,
      "الصغيرة": 2189,
      "##رجاء": 2190,
      "فلما": 2191,
      "سبب": 2192,
      "الحسين": 2193,
      "لاب": 2194,
      "وار": 2195,
      "وقل": 2196,
      "الياس": 2197,
      "واخذ": 2198,
      "بالف": 2199,
      "بالج": 2200,
      "العلم": 2201,
      "الجنون": 2202,
      "يتم": 2203,
      "الصح": 2204,
      "غاض": 2205,
      "زهرة": 2206,
      "فب": 2207,
      "كف": 2208,
      "مخل": 2209,
      "##قض": 2210,
      "##دفع": 2211,
      "##يلا": 2212,
      "##عات": 2213,
      "##كس": 2214,
      "عنك": 2215,
      "##ومن": 2216,
      "وكانما": 2217,
      "##اكم": 2218,
      "جا": 2219,
      "حزن": 2220,
      "شه": 2221,
      "ظل": 2222,
      "عجر": 2223,
      "فواد": 2224,
      "مذ": 2225,
      "مبت": 2226,
      "يقال": 2227,
      "##ايل": 2228,
      "##صار": 2229,
      "انظر": 2230,
      "الاث": 2231,
      "الحرب": 2232,
      "التفكير": 2233,
      "معي": 2234,
      "الفن": 2235,
      "الفجر": 2236,
      "بهذه": 2237,
      "انتظر": 2238,
      "الزقاق": 2239,
      "الثلا": 2240,
      "والحق": 2241,
      "##قيقية": 2242,
      "ايا": 2243,
      "دام": 2244,
      "عب": 2245,
      "فالت": 2246,
      "##هة": 2247,
      "##عود": 2248,
      "##كما": 2249,
      "##غب": 2250,
      "##ادرت": 2251,
      "##ريض": 2252,
      "القاهرة": 2253,
      "بعيدا": 2254,
      "##واني": 2255,
      "الباشا": 2256,
      "تزوج": 2257,
      "حينا": 2258,
      "##رته": 2259,
      "##قين": 2260,
      "##هن": 2261,
      "##وبا": 2262,
      "##عن": 2263,
      "##فية": 2264,
      "الامل": 2265,
      "الشقة": 2266,
      "##كندرية": 2267,
      "البح": 2268,
      "متع": 2269,
      "قدم": 2270,
      "مخاط": 2271,
      "مكتبه": 2272,
      "جعل": 2273,
      "ناف": 2274,
      "##قم": 2275,
      "##راسة": 2276,
      "##بيت": 2277,
      "امي": 2278,
      "##لتها": 2279,
      "وسوف": 2280,
      "يجوز": 2281,
      "اسمع": 2282,
      "سوف": 2283,
      "سعادة": 2284,
      "سرور": 2285,
      "طه": 2286,
      "لش": 2287,
      "يضحك": 2288,
      "##هش": 2289,
      "##نب": 2290,
      "واخر": 2291,
      "الخبر": 2292,
      "##وسط": 2293,
      "##مالك": 2294,
      "مثله": 2295,
      "ابتسم": 2296,
      "وغادر": 2297,
      "الوزارة": 2298,
      "بني": 2299,
      "بارت": 2300,
      "جيت": 2301,
      "عالم": 2302,
      "مفر": 2303,
      "##اته": 2304,
      "##ظا": 2305,
      "##ظرت": 2306,
      "السلم": 2307,
      "السوال": 2308,
      "ابنت": 2309,
      "الطويل": 2310,
      "عيناها": 2311,
      "اذهب": 2312,
      "دف": 2313,
      "دخل": 2314,
      "ري": 2315,
      "رش": 2316,
      "زال": 2317,
      "زواج": 2318,
      "غام": 2319,
      "نسي": 2320,
      "وير": 2321,
      "##خط": 2322,
      "##زاد": 2323,
      "انفس": 2324,
      "الشباب": 2325,
      "اسف": 2326,
      "الغلام": 2327,
      "يفكر": 2328,
      "الاخرى": 2329,
      "رحمة": 2330,
      "لعلها": 2331,
      "توا": 2332,
      "حام": 2333,
      "خرج": 2334,
      "صغيرة": 2335,
      "##غط": 2336,
      "##لاص": 2337,
      "الموض": 2338,
      "الحاج": 2339,
      "التاريخ": 2340,
      "##يفا": 2341,
      "اعني": 2342,
      "امامه": 2343,
      "باص": 2344,
      "الاخير": 2345,
      "يصدق": 2346,
      "##عادته": 2347,
      "شداد": 2348,
      "وعندما": 2349,
      "شوكت": 2350,
      "سطح": 2351,
      "غضب": 2352,
      "فارت": 2353,
      "قريب": 2354,
      "لد": 2355,
      "مشر": 2356,
      "##قام": 2357,
      "##لس": 2358,
      "##سما": 2359,
      "##كي": 2360,
      "##جها": 2361,
      "معل": 2362,
      "احلام": 2363,
      "مشك": 2364,
      "ملابس": 2365,
      "تسمع": 2366,
      "حيرة": 2367,
      "دخ": 2368,
      "سعيد": 2369,
      "طا": 2370,
      "مقد": 2371,
      "مبال": 2372,
      "##يية": 2373,
      "##مين": 2374,
      "##فته": 2375,
      "##ناية": 2376,
      "السطح": 2377,
      "##اتل": 2378,
      "لهذا": 2379,
      "عليهم": 2380,
      "قدري": 2381,
      "##مانينة": 2382,
      "##ضحكت": 2383,
      "طريقه": 2384,
      "لق": 2385,
      "لدي": 2386,
      "وجلس": 2387,
      "ووجد": 2388,
      "##اول": 2389,
      "##كب": 2390,
      "##ادية": 2391,
      "السجن": 2392,
      "##متك": 2393,
      "##ذهول": 2394,
      "##وتها": 2395,
      "ولعل": 2396,
      "فاذا": 2397,
      "تدع": 2398,
      "سنية": 2399,
      "##زدراء": 2400,
      "الكنبة": 2401,
      "دم": 2402,
      "كبيرة": 2403,
      "مول": 2404,
      "مفت": 2405,
      "وجل": 2406,
      "##علم": 2407,
      "##فلة": 2408,
      "##بيعة": 2409,
      "##داقة": 2410,
      "الدار": 2411,
      "حساب": 2412,
      "لكل": 2413,
      "اجت": 2414,
      "##بقى": 2415,
      "الاصدقاء": 2416,
      "حنفي": 2417,
      "يخلو": 2418,
      "عف": 2419,
      "عسى": 2420,
      "##رر": 2421,
      "##تان": 2422,
      "##طلا": 2423,
      "##الس": 2424,
      "مناس": 2425,
      "##لاة": 2426,
      "الابت": 2427,
      "العقل": 2428,
      "العظيم": 2429,
      "##عده": 2430,
      "ابنا": 2431,
      "وجوه": 2432,
      "قلق": 2433,
      "ثلاثة": 2434,
      "تحد": 2435,
      "مبا": 2436,
      "##دد": 2437,
      "##حي": 2438,
      "##ظاه": 2439,
      "عليات": 2440,
      "##ارض": 2441,
      "واما": 2442,
      "العوا": 2443,
      "##ورها": 2444,
      "##رفض": 2445,
      "##يتي": 2446,
      "ينبس": 2447,
      "##ضاعف": 2448,
      "فهل": 2449,
      "##حظات": 2450,
      "نحوها": 2451,
      "تستطيع": 2452,
      "الجميل": 2453,
      "قول": 2454,
      "يجلس": 2455,
      "##لو": 2456,
      "##نها": 2457,
      "##فكر": 2458,
      "الوف": 2459,
      "##ماق": 2460,
      "الاغ": 2461,
      "الارت": 2462,
      "واضح": 2463,
      "بالان": 2464,
      "وتساءلت": 2465,
      "الخمر": 2466,
      "فترة": 2467,
      "اعلم": 2468,
      "يسال": 2469,
      "يسير": 2470,
      "يمضي": 2471,
      "##كاية": 2472,
      "مقاب": 2473,
      "جام": 2474,
      "رفع": 2475,
      "عدا": 2476,
      "عرض": 2477,
      "مخت": 2478,
      "هانم": 2479,
      "وضحك": 2480,
      "##طلاق": 2481,
      "##ينما": 2482,
      "المر": 2483,
      "الحلم": 2484,
      "بالغ": 2485,
      "الشك": 2486,
      "القصر": 2487,
      "ليت": 2488,
      "##افي": 2489,
      "وعين": 2490,
      "يملك": 2491,
      "بدهشة": 2492,
      "يقع": 2493,
      "الهواء": 2494,
      "انفاس": 2495,
      "قتل": 2496,
      "رويدا": 2497,
      "بري": 2498,
      "جذ": 2499,
      "عان": 2500,
      "يسم": 2501,
      "##حته": 2502,
      "##سوة": 2503,
      "##شه": 2504,
      "##راها": 2505,
      "واله": 2506,
      "الحقي": 2507,
      "##يهم": 2508,
      "##عدا": 2509,
      "وتم": 2510,
      "الدع": 2511,
      "##بره": 2512,
      "##جارة": 2513,
      "حسني": 2514,
      "مسكن": 2515,
      "الشيطان": 2516,
      "تقع": 2517,
      "فعلت": 2518,
      "شفتيه": 2519,
      "سعيدة": 2520,
      "هنالك": 2521,
      "ارج": 2522,
      "ترت": 2523,
      "يبتسم": 2524,
      "##وعا": 2525,
      "##حان": 2526,
      "##كثر": 2527,
      "##جزة": 2528,
      "##رابة": 2529,
      "##ايرة": 2530,
      "وتع": 2531,
      "##عاض": 2532,
      "الصورة": 2533,
      "ولعله": 2534,
      "وسال": 2535,
      "عندك": 2536,
      "بيتي": 2537,
      "حجرته": 2538,
      "خم": 2539,
      "رس": 2540,
      "شار": 2541,
      "طرف": 2542,
      "##طرد": 2543,
      "##ارق": 2544,
      "##كرر": 2545,
      "اعوام": 2546,
      "الزمان": 2547,
      "تنظر": 2548,
      "##ضيحة": 2549,
      "اثار": 2550,
      "العينين": 2551,
      "صنعان": 2552,
      "بض": 2553,
      "دهشة": 2554,
      "فمن": 2555,
      "مولا": 2556,
      "ورد": 2557,
      "##فف": 2558,
      "##ضان": 2559,
      "الهم": 2560,
      "##ريت": 2561,
      "##لهم": 2562,
      "الشخص": 2563,
      "ابوه": 2564,
      "البار": 2565,
      "##ليفون": 2566,
      "احساس": 2567,
      "##غمغم": 2568,
      "##قطة": 2569,
      "فهز": 2570,
      "وراحت": 2571,
      "فكيف": 2572,
      "تقدم": 2573,
      "تاريخ": 2574,
      "عظ": 2575,
      "قاب": 2576,
      "قام": 2577,
      "كاد": 2578,
      "مرا": 2579,
      "معد": 2580,
      "##قف": 2581,
      "##حام": 2582,
      "##جته": 2583,
      "##زوق": 2584,
      "بالز": 2585,
      "##ريس": 2586,
      "##ركز": 2587,
      "الدم": 2588,
      "ينسى": 2589,
      "الكلمة": 2590,
      "##ميم": 2591,
      "هولاء": 2592,
      "تفكر": 2593,
      "##وكد": 2594,
      "مدخل": 2595,
      "المسالة": 2596,
      "ذراع": 2597,
      "سليمان": 2598,
      "تعت": 2599,
      "طيبة": 2600,
      "فاد": 2601,
      "مرات": 2602,
      "وعا": 2603,
      "##قق": 2604,
      "##خم": 2605,
      "الكر": 2606,
      "الوك": 2607,
      "ولبث": 2608,
      "اعجب": 2609,
      "وبعد": 2610,
      "عمره": 2611,
      "الوجود": 2612,
      "اذكر": 2613,
      "بمن": 2614,
      "خلق": 2615,
      "زيارة": 2616,
      "سلم": 2617,
      "ساله": 2618,
      "شا": 2619,
      "طيلة": 2620,
      "طوال": 2621,
      "عجب": 2622,
      "##لال": 2623,
      "##ودي": 2624,
      "##صح": 2625,
      "##جان": 2626,
      "##غا": 2627,
      "اللع": 2628,
      "بحماس": 2629,
      "المدام": 2630,
      "##بارك": 2631,
      "اعماق": 2632,
      "##زعاج": 2633,
      "خيرا": 2634,
      "مي": 2635,
      "يوسف": 2636,
      "##طفة": 2637,
      "##ثاء": 2638,
      "##عك": 2639,
      "##عور": 2640,
      "الات": 2641,
      "الحر": 2642,
      "العمارة": 2643,
      "##فتت": 2644,
      "معروف": 2645,
      "النهار": 2646,
      "##بتي": 2647,
      "ويس": 2648,
      "تنس": 2649,
      "اصدق": 2650,
      "تصور": 2651,
      "اثناء": 2652,
      "الاعماق": 2653,
      "هدوء": 2654,
      "رءوف": 2655,
      "اية": 2656,
      "باح": 2657,
      "بدرية": 2658,
      "حبي": 2659,
      "شدة": 2660,
      "فكر": 2661,
      "كا": 2662,
      "مطل": 2663,
      "نعي": 2664,
      "##ثا": 2665,
      "##صاف": 2666,
      "الاحد": 2667,
      "الاحت": 2668,
      "السياسة": 2669,
      "الجان": 2670,
      "يتصور": 2671,
      "البر": 2672,
      "النش": 2673,
      "ولذلك": 2674,
      "يعيش": 2675,
      "يحمل": 2676,
      "يستحق": 2677,
      "الاسكندرية": 2678,
      "فانه": 2679,
      "خلال": 2680,
      "##زيمة": 2681,
      "الموضوع": 2682,
      "تقل": 2683,
      "ترد": 2684,
      "حج": 2685,
      "صب": 2686,
      "طول": 2687,
      "قصر": 2688,
      "ملك": 2689,
      "وذ": 2690,
      "يدا": 2691,
      "##ذرة": 2692,
      "الته": 2693,
      "##الح": 2694,
      "##ينية": 2695,
      "المرض": 2696,
      "العز": 2697,
      "##ايية": 2698,
      "وانها": 2699,
      "للن": 2700,
      "جليلة": 2701,
      "##بحث": 2702,
      "مرزوق": 2703,
      "تلم": 2704,
      "زلت": 2705,
      "عظيم": 2706,
      "يدر": 2707,
      "##بيل": 2708,
      "##يين": 2709,
      "##اوف": 2710,
      "##كير": 2711,
      "المط": 2712,
      "##نات": 2713,
      "واحت": 2714,
      "العل": 2715,
      "##عدت": 2716,
      "الشاي": 2717,
      "الكل": 2718,
      "الكبر": 2719,
      "محم": 2720,
      "يعمل": 2721,
      "##طلقت": 2722,
      "تحمل": 2723,
      "يقف": 2724,
      "تفعل": 2725,
      "باسمة": 2726,
      "بخير": 2727,
      "بالصمت": 2728,
      "كثيرون": 2729,
      "بو": 2730,
      "بقلق": 2731,
      "دقيقة": 2732,
      "شري": 2733,
      "صر": 2734,
      "صوب": 2735,
      "ظه": 2736,
      "لز": 2737,
      "هز": 2738,
      "##قية": 2739,
      "##دها": 2740,
      "##عى": 2741,
      "##فرة": 2742,
      "##هام": 2743,
      "والغ": 2744,
      "لاست": 2745,
      "##ريضة": 2746,
      "السكر": 2747,
      "##ودته": 2748,
      "##دارة": 2749,
      "اسباب": 2750,
      "##وسة": 2751,
      "ويقول": 2752,
      "وحتى": 2753,
      "زوجة": 2754,
      "الوجوه": 2755,
      "غضبه": 2756,
      "منتصف": 2757,
      "حياء": 2758,
      "دعا": 2759,
      "زي": 2760,
      "عبث": 2761,
      "فرح": 2762,
      "فوجد": 2763,
      "كبر": 2764,
      "ممن": 2765,
      "ميدان": 2766,
      "نصي": 2767,
      "وست": 2768,
      "وذكر": 2769,
      "يمن": 2770,
      "١٩": 2771,
      "##بيه": 2772,
      "##دية": 2773,
      "##درك": 2774,
      "##وغ": 2775,
      "##فوظ": 2776,
      "##خيل": 2777,
      "المعا": 2778,
      "مامون": 2779,
      "متسا": 2780,
      "##بدت": 2781,
      "##فرق": 2782,
      "بسبب": 2783,
      "الاسود": 2784,
      "الماء": 2785,
      "##طاير": 2786,
      "مجنون": 2787,
      "حيال": 2788,
      "##طالب": 2789,
      "اضط": 2790,
      "سلوك": 2791,
      "##غتة": 2792,
      "##وافذ": 2793,
      "اباه": 2794,
      "بات": 2795,
      "رباه": 2796,
      "سواء": 2797,
      "فاس": 2798,
      "مقا": 2799,
      "##كد": 2800,
      "اللا": 2801,
      "الهد": 2802,
      "المم": 2803,
      "السلام": 2804,
      "امره": 2805,
      "القت": 2806,
      "يتكلم": 2807,
      "##وفة": 2808,
      "##فيق": 2809,
      "الغد": 2810,
      "##صرخ": 2811,
      "وكم": 2812,
      "مجرد": 2813,
      "##جيء": 2814,
      "الاعين": 2815,
      "##حقق": 2816,
      "نظرات": 2817,
      "ذكريات": 2818,
      "فحسب": 2819,
      "مولاي": 2820,
      "سخ": 2821,
      "لغ": 2822,
      "موظف": 2823,
      "هتف": 2824,
      "وته": 2825,
      "##صرف": 2826,
      "##كين": 2827,
      "الاي": 2828,
      "المز": 2829,
      "المساء": 2830,
      "##ناد": 2831,
      "والده": 2832,
      "##ولد": 2833,
      "واث": 2834,
      "##ومه": 2835,
      "الدكتور": 2836,
      "##خلص": 2837,
      "تعود": 2838,
      "وقعت": 2839,
      "##جاجة": 2840,
      "فسالته": 2841,
      "الراي": 2842,
      "المدينة": 2843,
      "##وادث": 2844,
      "الوطن": 2845,
      "قصيرة": 2846,
      "قبض": 2847,
      "نشاط": 2848,
      "ساخرة": 2849,
      "مقت": 2850,
      "مجر": 2851,
      "مشا": 2852,
      "وغير": 2853,
      "ووقف": 2854,
      "##اير": 2855,
      "##نك": 2856,
      "##نيه": 2857,
      "انق": 2858,
      "الملك": 2859,
      "المعت": 2860,
      "الميدان": 2861,
      "##ياته": 2862,
      "والز": 2863,
      "##جلت": 2864,
      "النظ": 2865,
      "اتع": 2866,
      "الظن": 2867,
      "الاخرين": 2868,
      "حياتها": 2869,
      "فماذا": 2870,
      "علاقة": 2871,
      "تقد": 2872,
      "لر": 2873,
      "مفا": 2874,
      "وله": 2875,
      "##قرا": 2876,
      "##فرد": 2877,
      "##المة": 2878,
      "##يارات": 2879,
      "وامت": 2880,
      "واشت": 2881,
      "لمن": 2882,
      "السم": 2883,
      "السير": 2884,
      "القص": 2885,
      "الفتى": 2886,
      "استاذ": 2887,
      "استطيع": 2888,
      "تعني": 2889,
      "يجيء": 2890,
      "افندي": 2891,
      "يقوم": 2892,
      "وحدها": 2893,
      "زوجته": 2894,
      "ذهبت": 2895,
      "حديثه": 2896,
      "وكلما": 2897,
      "بغ": 2898,
      "بقي": 2899,
      "برجاء": 2900,
      "تسم": 2901,
      "خارج": 2902,
      "ذي": 2903,
      "شقة": 2904,
      "فرج": 2905,
      "فضحكت": 2906,
      "كات": 2907,
      "لج": 2908,
      "هات": 2909,
      "##صى": 2910,
      "##ظفر": 2911,
      "المهم": 2912,
      "الموقف": 2913,
      "##ناق": 2914,
      "العباس": 2915,
      "القانون": 2916,
      "النيل": 2917,
      "الفار": 2918,
      "تتح": 2919,
      "اخي": 2920,
      "يستطع": 2921,
      "##بابه": 2922,
      "ارتياح": 2923,
      "##بادلا": 2924,
      "لطيف": 2925,
      "دقايق": 2926,
      "الذكريات": 2927,
      "ريب": 2928,
      "زمن": 2929,
      "سره": 2930,
      "ضح": 2931,
      "مرح": 2932,
      "يث": 2933,
      "##تنا": 2934,
      "##ظم": 2935,
      "لاح": 2936,
      "##واص": 2937,
      "واي": 2938,
      "واه": 2939,
      "القمر": 2940,
      "ابعد": 2941,
      "وجعلت": 2942,
      "##رضا": 2943,
      "باع": 2944,
      "راسي": 2945,
      "##والي": 2946,
      "ارى": 2947,
      "ورغم": 2948,
      "صفوان": 2949,
      "بامت": 2950,
      "تساءلت": 2951,
      "قيل": 2952,
      "كنا": 2953,
      "ويد": 2954,
      "ومر": 2955,
      "##وخ": 2956,
      "##ذبة": 2957,
      "##عيدة": 2958,
      "##ظهر": 2959,
      "والى": 2960,
      "##ابر": 2961,
      "الساب": 2962,
      "##اسة": 2963,
      "##ربعة": 2964,
      "##ويش": 2965,
      "فهتفت": 2966,
      "وراءها": 2967,
      "ودع": 2968,
      "حدود": 2969,
      "وراى": 2970,
      "صدرها": 2971,
      "المستقبل": 2972,
      "اود": 2973,
      "بادي": 2974,
      "حمل": 2975,
      "سح": 2976,
      "شتى": 2977,
      "نز": 2978,
      "ورج": 2979,
      "##ران": 2980,
      "##تاء": 2981,
      "##يبه": 2982,
      "##نو": 2983,
      "البه": 2984,
      "##ماعة": 2985,
      "المحت": 2986,
      "##ارته": 2987,
      "##ادمة": 2988,
      "وتمتم": 2989,
      "النق": 2990,
      "اختف": 2991,
      "جدوى": 2992,
      "اهتمام": 2993,
      "##ابتسامة": 2994,
      "##تيجة": 2995,
      "ارتباك": 2996,
      "فنظر": 2997,
      "الزوجية": 2998,
      "الجنود": 2999,
      "التحقيق": 3000,
      "القلوب": 3001,
      "عثمان": 3002,
      "اقل": 3003,
      "بذ": 3004,
      "توجد": 3005,
      "جرى": 3006,
      "كه": 3007,
      "وذهب": 3008,
      "يلت": 3009,
      "يمت": 3010,
      "##كاك": 3011,
      "##غام": 3012,
      "##ياد": 3013,
      "##يرها": 3014,
      "باله": 3015,
      "##اتي": 3016,
      "الجريمة": 3017,
      "##وداء": 3018,
      "الصالة": 3019,
      "اصحاب": 3020,
      "##يزة": 3021,
      "جلست": 3022,
      "##جيبة": 3023,
      "المسرح": 3024,
      "داخل": 3025,
      "مبالاة": 3026,
      "الحقيقي": 3027,
      "اكون": 3028,
      "توف": 3029,
      "زمان": 3030,
      "فاي": 3031,
      "مدرسة": 3032,
      "يود": 3033,
      "##مور": 3034,
      "##طاء": 3035,
      "##ظري": 3036,
      "##شع": 3037,
      "##زان": 3038,
      "##تهت": 3039,
      "والاس": 3040,
      "الحركة": 3041,
      "القادم": 3042,
      "##فتر": 3043,
      "##متمت": 3044,
      "##كرم": 3045,
      "الروح": 3046,
      "للش": 3047,
      "للخ": 3048,
      "يدور": 3049,
      "المعركة": 3050,
      "اوليك": 3051,
      "##جهول": 3052,
      "سبيله": 3053,
      "ضاحكة": 3054,
      "بمع": 3055,
      "تذهب": 3056,
      "طلب": 3057,
      "قرا": 3058,
      "##طور": 3059,
      "##زين": 3060,
      "##هاد": 3061,
      "##هاء": 3062,
      "##رامة": 3063,
      "الاك": 3064,
      "القوة": 3065,
      "##اهة": 3066,
      "##قتي": 3067,
      "اسرته": 3068,
      "##ظروف": 3069,
      "يشير": 3070,
      "اجاب": 3071,
      "##غلول": 3072,
      "مدى": 3073,
      "##اديث": 3074,
      "باد": 3075,
      "تمر": 3076,
      "تنتظر": 3077,
      "سوى": 3078,
      "سيارة": 3079,
      "عواطف": 3080,
      "لف": 3081,
      "لقاء": 3082,
      "نوع": 3083,
      "##يظ": 3084,
      "##صب": 3085,
      "##فذ": 3086,
      "##خي": 3087,
      "##زح": 3088,
      "الحياء": 3089,
      "بالام": 3090,
      "الفرن": 3091,
      "بينهم": 3092,
      "للر": 3093,
      "الكتاب": 3094,
      "##بتك": 3095,
      "وقفت": 3096,
      "غيره": 3097,
      "يجري": 3098,
      "اللقاء": 3099,
      "ويست": 3100,
      "الثال": 3101,
      "الضر": 3102,
      "بيتك": 3103,
      "فسال": 3104,
      "جمصة": 3105,
      "##وثب": 3106,
      "اظن": 3107,
      "تسا": 3108,
      "خلا": 3109,
      "زغلول": 3110,
      "سرا": 3111,
      "عاط": 3112,
      "كتاب": 3113,
      "مب": 3114,
      "مسم": 3115,
      "وكنت": 3116,
      "##لل": 3117,
      "##وهم": 3118,
      "##راما": 3119,
      "##لاك": 3120,
      "المكتب": 3121,
      "##واطر": 3122,
      "الصيف": 3123,
      "ومد": 3124,
      "الكون": 3125,
      "اشياء": 3126,
      "احدهم": 3127,
      "مثلا": 3128,
      "الثانية": 3129,
      "افعل": 3130,
      "##غلب": 3131,
      "صوتها": 3132,
      "بيده": 3133,
      "الوراء": 3134,
      "متسايلة": 3135,
      "اعل": 3136,
      "تنت": 3137,
      "خافت": 3138,
      "غلي": 3139,
      "فقا": 3140,
      "قديمة": 3141,
      "##سلام": 3142,
      "##كاره": 3143,
      "##جام": 3144,
      "انح": 3145,
      "##لاب": 3146,
      "الاق": 3147,
      "##نيها": 3148,
      "وتذكر": 3149,
      "##وقة": 3150,
      "وجود": 3151,
      "البنت": 3152,
      "الصحف": 3153,
      "##راءى": 3154,
      "باش": 3155,
      "##طرق": 3156,
      "الثاني": 3157,
      "##صلح": 3158,
      "تكاد": 3159,
      "عروس": 3160,
      "يزال": 3161,
      "فمضى": 3162,
      "##طلاع": 3163,
      "ارجو": 3164,
      "بدت": 3165,
      "بقدر": 3166,
      "توق": 3167,
      "حبا": 3168,
      "حبه": 3169,
      "حرك": 3170,
      "دفع": 3171,
      "ركن": 3172,
      "عالية": 3173,
      "لحظات": 3174,
      "نه": 3175,
      "##سها": 3176,
      "##شاء": 3177,
      "الامام": 3178,
      "علمت": 3179,
      "لام": 3180,
      "ماض": 3181,
      "##امية": 3182,
      "##ايي": 3183,
      "الشراب": 3184,
      "##وجدت": 3185,
      "معركة": 3186,
      "##جاعة": 3187,
      "مثلك": 3188,
      "باسم": 3189,
      "الشيء": 3190,
      "رايحة": 3191,
      "الابناء": 3192,
      "ثلاث": 3193,
      "اقدام": 3194,
      "رد": 3195,
      "راه": 3196,
      "ساح": 3197,
      "طبي": 3198,
      "فاح": 3199,
      "##ريد": 3200,
      "##بعة": 3201,
      "##دج": 3202,
      "##مم": 3203,
      "##غار": 3204,
      "##غمة": 3205,
      "##راخ": 3206,
      "الاخت": 3207,
      "المقا": 3208,
      "##وقات": 3209,
      "الخام": 3210,
      "الصبر": 3211,
      "ولولا": 3212,
      "وسالته": 3213,
      "للد": 3214,
      "اللهم": 3215,
      "افضل": 3216,
      "تجاه": 3217,
      "##مسين": 3218,
      "والاست": 3219,
      "جانبه": 3220,
      "الفراغ": 3221,
      "العباسية": 3222,
      "بوس": 3223,
      "تود": 3224,
      "تلق": 3225,
      "تخت": 3226,
      "تلقى": 3227,
      "حاف": 3228,
      "خيل": 3229,
      "سوال": 3230,
      "ضع": 3231,
      "فحد": 3232,
      "ند": 3233,
      "يكت": 3234,
      "يقطع": 3235,
      "##اخر": 3236,
      "##لاقة": 3237,
      "المقهى": 3238,
      "##ونها": 3239,
      "معلم": 3240,
      "ابناء": 3241,
      "ليكن": 3242,
      "##بلة": 3243,
      "وسا": 3244,
      "استهانة": 3245,
      "الغريب": 3246,
      "بانني": 3247,
      "عنده": 3248,
      "المايدة": 3249,
      "##بعها": 3250,
      "تشاء": 3251,
      "مدير": 3252,
      "تصدق": 3253,
      "شديدة": 3254,
      "صفحة": 3255,
      "##جتمع": 3256,
      "ذاته": 3257,
      "الرحيم": 3258,
      "عابرة": 3259,
      "عميق": 3260,
      "عصر": 3261,
      "فلت": 3262,
      "لدى": 3263,
      "وفتح": 3264,
      "يرجع": 3265,
      "##تاف": 3266,
      "##ويا": 3267,
      "##وعه": 3268,
      "##جمع": 3269,
      "##شب": 3270,
      "اللي": 3271,
      "##ماوي": 3272,
      "والاح": 3273,
      "العذاب": 3274,
      "##باط": 3275,
      "##قدة": 3276,
      "##لتين": 3277,
      "قلبك": 3278,
      "الاحلام": 3279,
      "بيتها": 3280,
      "يغادر": 3281,
      "ابيها": 3282,
      "قبيل": 3283,
      "الجميلة": 3284,
      "مخاطبا": 3285,
      "بقل": 3286,
      "تهم": 3287,
      "تحدث": 3288,
      "جس": 3289,
      "خلي": 3290,
      "سير": 3291,
      "سالته": 3292,
      "غل": 3293,
      "ووجه": 3294,
      "ورجع": 3295,
      "يمر": 3296,
      "##طفا": 3297,
      "##عش": 3298,
      "##غمت": 3299,
      "##راس": 3300,
      "المسي": 3301,
      "المجهول": 3302,
      "##ناها": 3303,
      "وهتف": 3304,
      "الرغبة": 3305,
      "##ربعين": 3306,
      "فتنهد": 3307,
      "الطيب": 3308,
      "ايها": 3309,
      "اسعد": 3310,
      "بعنف": 3311,
      "يدرك": 3312,
      "محفوظ": 3313,
      "قلوب": 3314,
      "جلال": 3315,
      "##زاوي": 3316,
      "بقية": 3317,
      "تكلم": 3318,
      "العربة": 3319,
      "بعينين": 3320,
      "بعينيه": 3321,
      "حياتك": 3322,
      "فابتسمت": 3323,
      "واخيرا": 3324,
      "روحه": 3325,
      "موقفه": 3326,
      "قاسية": 3327,
      "غاضبا": 3328,
      "الوكالة": 3329,
      "تناول": 3330,
      "خاف": 3331,
      "خطر": 3332,
      "صغير": 3333,
      "ضاع": 3334,
      "مذه": 3335,
      "ويل": 3336,
      "وخل": 3337,
      "وفا": 3338,
      "يفتح": 3339,
      "##قار": 3340,
      "##برت": 3341,
      "##سليم": 3342,
      "##ماه": 3343,
      "##ريقة": 3344,
      "ولكنهم": 3345,
      "العد": 3346,
      "##ايمة": 3347,
      "كانوا": 3348,
      "##همي": 3349,
      "##وقه": 3350,
      "النور": 3351,
      "وعلي": 3352,
      "##قبله": 3353,
      "##غمض": 3354,
      "##ساة": 3355,
      "##طيق": 3356,
      "اقرب": 3357,
      "اعتقد": 3358,
      "##ياسين": 3359,
      "عجوز": 3360,
      "المناسب": 3361,
      "البلد": 3362,
      "الحكومة": 3363,
      "المجنون": 3364,
      "ظهره": 3365,
      "لنفسي": 3366,
      "تاك": 3367,
      "تبقى": 3368,
      "جواب": 3369,
      "خر": 3370,
      "فرد": 3371,
      "قاط": 3372,
      "كاب": 3373,
      "لب": 3374,
      "لير": 3375,
      "مهم": 3376,
      "مقب": 3377,
      "مقط": 3378,
      "نينة": 3379,
      "وفت": 3380,
      "وذه": 3381,
      "يرح": 3382,
      "يخرج": 3383,
      "##دنا": 3384,
      "##اجر": 3385,
      "##طني": 3386,
      "##ورات": 3387,
      "##سع": 3388,
      "الخر": 3389,
      "الاسم": 3390,
      "ماء": 3391,
      "بالب": 3392,
      "العصر": 3393,
      "##باين": 3394,
      "##ديو": 3395,
      "ثمن": 3396,
      "امن": 3397,
      "البعض": 3398,
      "بهما": 3399,
      "احسن": 3400,
      "فايدة": 3401,
      "استغ": 3402,
      "تنم": 3403,
      "##ضاع": 3404,
      "ادع": 3405,
      "افكر": 3406,
      "بسرور": 3407,
      "دعني": 3408,
      "فضلا": 3409,
      "تخلو": 3410,
      "شفتيها": 3411,
      "يدعو": 3412,
      "النجوم": 3413,
      "بابتسامة": 3414,
      "توقف": 3415,
      "جدي": 3416,
      "حان": 3417,
      "خالية": 3418,
      "غريبا": 3419,
      "فط": 3420,
      "كره": 3421,
      "موس": 3422,
      "مطلع": 3423,
      "##بحت": 3424,
      "##لى": 3425,
      "##ذير": 3426,
      "##حيم": 3427,
      "##ثت": 3428,
      "##صق": 3429,
      "##ضع": 3430,
      "فيك": 3431,
      "##راث": 3432,
      "المو": 3433,
      "والام": 3434,
      "السرور": 3435,
      "##عداد": 3436,
      "##بيها": 3437,
      "امك": 3438,
      "معك": 3439,
      "ابني": 3440,
      "ابواب": 3441,
      "تترك": 3442,
      "الزيارة": 3443,
      "وقبل": 3444,
      "##جاوز": 3445,
      "وبلا": 3446,
      "##فرغ": 3447,
      "##سيان": 3448,
      "افهم": 3449,
      "تقوم": 3450,
      "لانها": 3451,
      "شكرا": 3452,
      "يهز": 3453,
      "وثمة": 3454,
      "المرحوم": 3455,
      "اكن": 3456,
      "تطل": 3457,
      "حذر": 3458,
      "فام": 3459,
      "مط": 3460,
      "مدا": 3461,
      "ورفع": 3462,
      "يقيم": 3463,
      "##قاد": 3464,
      "##حيل": 3465,
      "##سبة": 3466,
      "##شعر": 3467,
      "الرف": 3468,
      "فيقول": 3469,
      "والل": 3470,
      "والط": 3471,
      "##وافق": 3472,
      "##ديما": 3473,
      "##ايع": 3474,
      "##ايما": 3475,
      "الشتاء": 3476,
      "##فتها": 3477,
      "ياخذ": 3478,
      "البد": 3479,
      "##قتين": 3480,
      "لهما": 3481,
      "الفكر": 3482,
      "الكثير": 3483,
      "يجر": 3484,
      "الغناء": 3485,
      "اصوات": 3486,
      "بيومي": 3487,
      "بيتنا": 3488,
      "جانبا": 3489,
      "ذكرى": 3490,
      "يبقى": 3491,
      "الوزير": 3492,
      "الحمزاوي": 3493,
      "خطا": 3494,
      "قريبا": 3495,
      "لحد": 3496,
      "مف": 3497,
      "ولت": 3498,
      "يردد": 3499,
      "##مرة": 3500,
      "##ذت": 3501,
      "##سط": 3502,
      "##سين": 3503,
      "##سكر": 3504,
      "##عني": 3505,
      "##زف": 3506,
      "الهر": 3507,
      "الاج": 3508,
      "المعه": 3509,
      "##يده": 3510,
      "##ستان": 3511,
      "واف": 3512,
      "السلامة": 3513,
      "##جلى": 3514,
      "##ديع": 3515,
      "القول": 3516,
      "القسم": 3517,
      "##حتك": 3518,
      "الفناء": 3519,
      "ومح": 3520,
      "بينها": 3521,
      "اعين": 3522,
      "بلى": 3523,
      "باسى": 3524,
      "الظاهر": 3525,
      "##بساطة": 3526,
      "مقعد": 3527,
      "سنوات": 3528,
      "المصباح": 3529,
      "عجيب": 3530,
      "بنفسك": 3531,
      "بثينة": 3532,
      "موضع": 3533,
      "عاليا": 3534,
      "صامتا": 3535,
      "مبتسما": 3536,
      "بارتياح": 3537,
      "ابا": 3538,
      "بوج": 3539,
      "تظن": 3540,
      "خفي": 3541,
      "زالت": 3542,
      "فرفع": 3543,
      "مغل": 3544,
      "همس": 3545,
      "يبلغ": 3546,
      "##دمة": 3547,
      "##مله": 3548,
      "##لبة": 3549,
      "##كينة": 3550,
      "اناس": 3551,
      "منى": 3552,
      "المطل": 3553,
      "المطر": 3554,
      "واصل": 3555,
      "العامة": 3556,
      "التالي": 3557,
      "##رتي": 3558,
      "الجدران": 3559,
      "البن": 3560,
      "البحر": 3561,
      "فتناول": 3562,
      "ايمان": 3563,
      "##حكمة": 3564,
      "اصل": 3565,
      "اصاب": 3566,
      "يشت": 3567,
      "افكاره": 3568,
      "##وضع": 3569,
      "يقبل": 3570,
      "##زعج": 3571,
      "المنظر": 3572,
      "اذنيه": 3573,
      "فضلك": 3574,
      "الوحيدة": 3575,
      "الانتظار": 3576,
      "فجاء": 3577,
      "مجهول": 3578,
      "خمسة": 3579,
      "تبدو": 3580,
      "جال": 3581,
      "ضم": 3582,
      "ملت": 3583,
      "مقهى": 3584,
      "يرد": 3585,
      "##اوية": 3586,
      "##طى": 3587,
      "##وحة": 3588,
      "##ثه": 3589,
      "##ثار": 3590,
      "##ثيل": 3591,
      "##صابه": 3592,
      "##كية": 3593,
      "##جهم": 3594,
      "##جبت": 3595,
      "انفع": 3596,
      "الامن": 3597,
      "الافق": 3598,
      "المك": 3599,
      "المفت": 3600,
      "بالاس": 3601,
      "التعب": 3602,
      "الشا": 3603,
      "واني": 3604,
      "استح": 3605,
      "اشبه": 3606,
      "تفهم": 3607,
      "اقبل": 3608,
      "فسالها": 3609,
      "الجدار": 3610,
      "حاج": 3611,
      "ابيض": 3612,
      "ذراعه": 3613,
      "خاطر": 3614,
      "وابتسم": 3615,
      "مشكلة": 3616,
      "جز": 3617,
      "زل": 3618,
      "سبق": 3619,
      "قطع": 3620,
      "ندت": 3621,
      "وعل": 3622,
      "##رقة": 3623,
      "##ساب": 3624,
      "الموظف": 3625,
      "##تهى": 3626,
      "##اديا": 3627,
      "معقول": 3628,
      "يترك": 3629,
      "الذهاب": 3630,
      "##وتر": 3631,
      "الصديق": 3632,
      "الفات": 3633,
      "الدهشة": 3634,
      "وسي": 3635,
      "فاقت": 3636,
      "الكت": 3637,
      "يدفع": 3638,
      "##يبها": 3639,
      "ويع": 3640,
      "##قبلت": 3641,
      "مسر": 3642,
      "رجاء": 3643,
      "لعين": 3644,
      "لعلك": 3645,
      "يخاطب": 3646,
      "##يارته": 3647,
      "شعرها": 3648,
      "لطيفة": 3649,
      "شهريار": 3650,
      "دكانه": 3651,
      "البكاء": 3652,
      "درجة": 3653,
      "الجامع": 3654,
      "ثقيل": 3655,
      "اعلى": 3656,
      "ثورة": 3657,
      "جريمة": 3658,
      "حيلة": 3659,
      "حصل": 3660,
      "حقيقية": 3661,
      "حكاية": 3662,
      "زهر": 3663,
      "طم": 3664,
      "##نج": 3665,
      "##ضط": 3666,
      "##زلة": 3667,
      "فيم": 3668,
      "منع": 3669,
      "مناق": 3670,
      "##راقب": 3671,
      "المشي": 3672,
      "لاحت": 3673,
      "الحمد": 3674,
      "الحمام": 3675,
      "مايدة": 3676,
      "السعيد": 3677,
      "الشرفة": 3678,
      "##احب": 3679,
      "الخاصة": 3680,
      "الصف": 3681,
      "للق": 3682,
      "محل": 3683,
      "وبال": 3684,
      "والاخر": 3685,
      "رجعت": 3686,
      "##ولاد": 3687,
      "الراحة": 3688,
      "تملك": 3689,
      "اعماقه": 3690,
      "خفيفة": 3691,
      "الجلوس": 3692,
      "طلبة": 3693,
      "النحاس": 3694,
      "باصرار": 3695,
      "عانوس": 3696,
      "##كاكين": 3697,
      "اردت": 3698,
      "بفت": 3699,
      "ببر": 3700,
      "تدر": 3701,
      "جمع": 3702,
      "خاص": 3703,
      "ذها": 3704,
      "ريي": 3705,
      "شقي": 3706,
      "عار": 3707,
      "كريم": 3708,
      "مشي": 3709,
      "مطم": 3710,
      "وبا": 3711,
      "يقل": 3712,
      "يرفع": 3713,
      "##ذين": 3714,
      "##حى": 3715,
      "##حها": 3716,
      "##صه": 3717,
      "##صاص": 3718,
      "##فعه": 3719,
      "##شهد": 3720,
      "##خله": 3721,
      "##زانة": 3722,
      "الود": 3723,
      "الوان": 3724,
      "فيت": 3725,
      "منهما": 3726,
      "الاصل": 3727,
      "الموس": 3728,
      "المعر": 3729,
      "لاحد": 3730,
      "الحاكم": 3731,
      "التفت": 3732,
      "التليفون": 3733,
      "##ورية": 3734,
      "##ايف": 3735,
      "الخيال": 3736,
      "ومتى": 3737,
      "فاعت": 3738,
      "##وسل": 3739,
      "تتكلم": 3740,
      "الانفعال": 3741,
      "محا": 3742,
      "الغام": 3743,
      "##يمان": 3744,
      "##ضيع": 3745,
      "اصدقاء": 3746,
      "##رقص": 3747,
      "عملا": 3748,
      "اقوى": 3749,
      "عاش": 3750,
      "تسال": 3751,
      "ذهول": 3752,
      "##وليس": 3753,
      "عادت": 3754,
      "تزال": 3755,
      "نعمة": 3756,
      "متهدج": 3757,
      "الادب": 3758,
      "الحاضر": 3759,
      "وهناك": 3760,
      "الثلاثة": 3761,
      "جر": 3762,
      "صدا": 3763,
      "صافية": 3764,
      "ضي": 3765,
      "عشر": 3766,
      "غاب": 3767,
      "كفا": 3768,
      "ووق": 3769,
      "ياي": 3770,
      "##نفس": 3771,
      "##ضاب": 3772,
      "##راتها": 3773,
      "الامت": 3774,
      "##املا": 3775,
      "##قاليد": 3776,
      "وتق": 3777,
      "الشارع": 3778,
      "##عتين": 3779,
      "##اهية": 3780,
      "لهذه": 3781,
      "##عاية": 3782,
      "##وتك": 3783,
      "الصحة": 3784,
      "فتحت": 3785,
      "الطا": 3786,
      "اسود": 3787,
      "##خلق": 3788,
      "يدخل": 3789,
      "تعرض": 3790,
      "##رضى": 3791,
      "تنتهي": 3792,
      "اليهم": 3793,
      "احدى": 3794,
      "اصبح": 3795,
      "تفضل": 3796,
      "##زاز": 3797,
      "بشارع": 3798,
      "الحكمة": 3799,
      "الفرصة": 3800,
      "ملابسه": 3801,
      "ذراعيه": 3802,
      "النقود": 3803,
      "بشر": 3804,
      "بقلب": 3805,
      "بغتة": 3806,
      "تث": 3807,
      "تفس": 3808,
      "دل": 3809,
      "زه": 3810,
      "طف": 3811,
      "قوية": 3812,
      "لين": 3813,
      "ميت": 3814,
      "مضت": 3815,
      "وبر": 3816,
      "وطال": 3817,
      "##ثرة": 3818,
      "##خفض": 3819,
      "الذا": 3820,
      "والدي": 3821,
      "السبيل": 3822,
      "التق": 3823,
      "الشوق": 3824,
      "الجرس": 3825,
      "القا": 3826,
      "##قتك": 3827,
      "##ذهبي": 3828,
      "##رباء": 3829,
      "الخض": 3830,
      "##يتك": 3831,
      "للز": 3832,
      "اسبوع": 3833,
      "غيرها": 3834,
      "اللعب": 3835,
      "لكم": 3836,
      "##طفال": 3837,
      "بسلام": 3838,
      "الماضية": 3839,
      "ودخل": 3840,
      "##طاع": 3841,
      "تشعر": 3842,
      "##جابة": 3843,
      "الباقي": 3844,
      "##واقع": 3845,
      "شعوره": 3846,
      "قصير": 3847,
      "##جتماع": 3848,
      "الاصيل": 3849,
      "اسمه": 3850,
      "يهمني": 3851,
      "خبرني": 3852,
      "درويش": 3853,
      "غامضة": 3854,
      "مباشرة": 3855,
      "الارتباك": 3856,
      "زيطة": 3857,
      "تجربة": 3858,
      "حوا": 3859,
      "ظروف": 3860,
      "قيمة": 3861,
      "قديما": 3862,
      "كعادته": 3863,
      "يته": 3864,
      "##قبة": 3865,
      "##ذل": 3866,
      "##ظى": 3867,
      "##ضبة": 3868,
      "##جيب": 3869,
      "المث": 3870,
      "الموا": 3871,
      "المكت": 3872,
      "المفا": 3873,
      "المجر": 3874,
      "المقاب": 3875,
      "##ياض": 3876,
      "والث": 3877,
      "##واها": 3878,
      "واين": 3879,
      "وهذه": 3880,
      "وهكذا": 3881,
      "العب": 3882,
      "الشهر": 3883,
      "##ربوش": 3884,
      "الطيبة": 3885,
      "##وسا": 3886,
      "تتساءل": 3887,
      "تتصور": 3888,
      "باط": 3889,
      "تنهد": 3890,
      "##وحي": 3891,
      "يحسن": 3892,
      "##طفه": 3893,
      "البيوت": 3894,
      "اقصى": 3895,
      "##ومات": 3896,
      "اعترف": 3897,
      "##بادي": 3898,
      "لكنها": 3899,
      "الحلواني": 3900,
      "##سمتي": 3901,
      "واتجه": 3902,
      "واقفا": 3903,
      "يقتل": 3904,
      "الاهتمام": 3905,
      "ثر": 3906,
      "كتف": 3907,
      "مهر": 3908,
      "نست": 3909,
      "وذات": 3910,
      "##رفت": 3911,
      "##قن": 3912,
      "##يذ": 3913,
      "##يجة": 3914,
      "##اخ": 3915,
      "##لين": 3916,
      "##لية": 3917,
      "##حات": 3918,
      "##سمة": 3919,
      "##مامة": 3920,
      "##راع": 3921,
      "لاخر": 3922,
      "واكثر": 3923,
      "الترام": 3924,
      "امرا": 3925,
      "##اهي": 3926,
      "##اهما": 3927,
      "انهما": 3928,
      "الفق": 3929,
      "احس": 3930,
      "استيقظ": 3931,
      "تتع": 3932,
      "بعناية": 3933,
      "الانظار": 3934,
      "تعال": 3935,
      "تعيش": 3936,
      "وكانها": 3937,
      "باقت": 3938,
      "بازدراء": 3939,
      "ويح": 3940,
      "##فرج": 3941,
      "وجهي": 3942,
      "بحزن": 3943,
      "اهو": 3944,
      "افكار": 3945,
      "الاستقبال": 3946,
      "تمضي": 3947,
      "شخصا": 3948,
      "هدف": 3949,
      "البلطي": 3950,
      "مظهر": 3951,
      "عقله": 3952,
      "قدميه": 3953,
      "نعيمة": 3954,
      "الخامسة": 3955,
      "بغضب": 3956,
      "ببساطة": 3957,
      "تيار": 3958,
      "حف": 3959,
      "حكم": 3960,
      "حديقة": 3961,
      "خان": 3962,
      "دند": 3963,
      "رقم": 3964,
      "شيت": 3965,
      "شبح": 3966,
      "ضيق": 3967,
      "قصة": 3968,
      "لشد": 3969,
      "مهد": 3970,
      "مبارك": 3971,
      "وسمع": 3972,
      "##اوه": 3973,
      "##طرة": 3974,
      "##واله": 3975,
      "##سرة": 3976,
      "##فخ": 3977,
      "##ظلم": 3978,
      "الاذ": 3979,
      "الاقت": 3980,
      "والاب": 3981,
      "##امنة": 3982,
      "السينما": 3983,
      "ولكننا": 3984,
      "##بيرا": 3985,
      "الشعب": 3986,
      "امور": 3987,
      "وجها": 3988,
      "##قيت": 3989,
      "متح": 3990,
      "وساد": 3991,
      "اعصابه": 3992,
      "انتظ": 3993,
      "##جاز": 3994,
      "الغر": 3995,
      "تحول": 3996,
      "اصبحت": 3997,
      "##شيخ": 3998,
      "بدور": 3999,
      "مسرح": 4000,
      "خطوات": 4001,
      "المحب": 4002,
      "بالاست": 4003,
      "انتهت": 4004,
      "عبيد": 4005,
      "نصيبي": 4006,
      "افت": 4007,
      "تاب": 4008,
      "تعل": 4009,
      "حرم": 4010,
      "خش": 4011,
      "داع": 4012,
      "ساب": 4013,
      "سلام": 4014,
      "سالت": 4015,
      "ضا": 4016,
      "ضمن": 4017,
      "قسمتي": 4018,
      "ونا": 4019,
      "وسم": 4020,
      "##دير": 4021,
      "##طه": 4022,
      "##طانة": 4023,
      "اليد": 4024,
      "الور": 4025,
      "الواج": 4026,
      "الينا": 4027,
      "اند": 4028,
      "الادارة": 4029,
      "##ارس": 4030,
      "لاي": 4031,
      "واغ": 4032,
      "السبب": 4033,
      "السعيدة": 4034,
      "العطار": 4035,
      "##متي": 4036,
      "##عتر": 4037,
      "يتردد": 4038,
      "يتفحص": 4039,
      "##قتل": 4040,
      "متاعب": 4041,
      "##قايه": 4042,
      "الدف": 4043,
      "الطويلة": 4044,
      "بيني": 4045,
      "##قلة": 4046,
      "اعمال": 4047,
      "وعن": 4048,
      "##نتها": 4049,
      "تتم": 4050,
      "يعجب": 4051,
      "##سيون": 4052,
      "هيهات": 4053,
      "مثال": 4054,
      "يشاء": 4055,
      "بدات": 4056,
      "رايه": 4057,
      "##بعض": 4058,
      "اعترض": 4059,
      "تستحق": 4060,
      "اثرا": 4061,
      "نظرت": 4062,
      "يعرفه": 4063,
      "نشوة": 4064,
      "##وافقة": 4065,
      "كتب": 4066,
      "رمضان": 4067,
      "الجامعة": 4068,
      "مسيول": 4069,
      "نافذة": 4070,
      "الوفد": 4071,
      "اللعنة": 4072,
      "المعاش": 4073,
      "بامتعاض": 4074,
      "بجد": 4075,
      "توقع": 4076,
      "جاه": 4077,
      "ربي": 4078,
      "سعاد": 4079,
      "شب": 4080,
      "طعام": 4081,
      "عدل": 4082,
      "كاملة": 4083,
      "للك": 4084,
      "مزا": 4085,
      "ناد": 4086,
      "نهض": 4087,
      "وفر": 4088,
      "يبر": 4089,
      "##قرت": 4090,
      "##ظه": 4091,
      "##خلت": 4092,
      "##لاوة": 4093,
      "المنت": 4094,
      "##ارها": 4095,
      "الحلاق": 4096,
      "##ريته": 4097,
      "العم": 4098,
      "##لهى": 4099,
      "##ورني": 4100,
      "وتل": 4101,
      "الشه": 4102,
      "الشعور": 4103,
      "امرك": 4104,
      "معنا": 4105,
      "يتقدم": 4106,
      "يتبادل": 4107,
      "##رفعت": 4108,
      "النوافذ": 4109,
      "##يتين": 4110,
      "فاض": 4111,
      "الكبيرة": 4112,
      "وعادت": 4113,
      "تتزوج": 4114,
      "قدمي": 4115,
      "بحنق": 4116,
      "هيية": 4117,
      "##ارتنا": 4118,
      "فاني": 4119,
      "المامور": 4120,
      "##راهية": 4121,
      "يخطر": 4122,
      "مثلها": 4123,
      "مكانه": 4124,
      "##جنب": 4125,
      "داعي": 4126,
      "مسكنه": 4127,
      "تبا": 4128,
      "رف": 4129,
      "شهد": 4130,
      "قوي": 4131,
      "##قظة": 4132,
      "##يبا": 4133,
      "##ويه": 4134,
      "##سح": 4135,
      "##صير": 4136,
      "##فجر": 4137,
      "##جتها": 4138,
      "الفس": 4139,
      "##هادة": 4140,
      "انقط": 4141,
      "##ماد": 4142,
      "##ينني": 4143,
      "الاثر": 4144,
      "المض": 4145,
      "المرت": 4146,
      "المعب": 4147,
      "##ابات": 4148,
      "لاحظ": 4149,
      "الحقيقية": 4150,
      "العق": 4151,
      "العف": 4152,
      "وتس": 4153,
      "امكن": 4154,
      "الجواب": 4155,
      "البصر": 4156,
      "##حتها": 4157,
      "ومال": 4158,
      "فتمتم": 4159,
      "الطرق": 4160,
      "استع": 4161,
      "##كتة": 4162,
      "يسته": 4163,
      "اهتما": 4164,
      "##شارة": 4165,
      "##مسك": 4166,
      "المدخل": 4167,
      "وانتظر": 4168,
      "تخف": 4169,
      "بالحياة": 4170,
      "صديقه": 4171,
      "##طارد": 4172,
      "##طبخ": 4173,
      "بثقة": 4174,
      "نسيت": 4175,
      "يحتمل": 4176,
      "##بيعية": 4177,
      "عزيزتي": 4178,
      "مشاعر": 4179,
      "اكان": 4180,
      "بقول": 4181,
      "جار": 4182,
      "دهش": 4183,
      "راحت": 4184,
      "زعتر": 4185,
      "سار": 4186,
      "سنة": 4187,
      "سالها": 4188,
      "سحر": 4189,
      "صال": 4190,
      "عشرين": 4191,
      "غادرت": 4192,
      "محد": 4193,
      "مشت": 4194,
      "نم": 4195,
      "هيا": 4196,
      "يبد": 4197,
      "##تبة": 4198,
      "##عرف": 4199,
      "##فير": 4200,
      "##الق": 4201,
      "##الب": 4202,
      "##ابل": 4203,
      "##اده": 4204,
      "بالث": 4205,
      "وهتفت": 4206,
      "وتنهد": 4207,
      "القاتل": 4208,
      "##احه": 4209,
      "##بهت": 4210,
      "البري": 4211,
      "الخلاء": 4212,
      "متش": 4213,
      "##سمية": 4214,
      "الدايم": 4215,
      "وسالها": 4216,
      "##وفيق": 4217,
      "اخبار": 4218,
      "##ويته": 4219,
      "باعت": 4220,
      "الغيب": 4221,
      "##صره": 4222,
      "##اطي": 4223,
      "تنبس": 4224,
      "ساعات": 4225,
      "يشق": 4226,
      "الاسبوع": 4227,
      "##جبيه": 4228,
      "والحب": 4229,
      "اركان": 4230,
      "تقف": 4231,
      "والتفت": 4232,
      "##وارع": 4233,
      "بيدها": 4234,
      "##سلل": 4235,
      "يكف": 4236,
      "صادقا": 4237,
      "شعرت": 4238,
      "##شفى": 4239,
      "اضطر": 4240,
      "بصرها": 4241,
      "حياتنا": 4242,
      "الرحمة": 4243,
      "وظل": 4244,
      "بالقياس": 4245,
      "جمالها": 4246,
      "وردة": 4247,
      "ميعاد": 4248,
      "دندان": 4249,
      "تها": 4250,
      "تكت": 4251,
      "تمتم": 4252,
      "جبين": 4253,
      "جعلت": 4254,
      "دوا": 4255,
      "رات": 4256,
      "شباب": 4257,
      "ضرب": 4258,
      "علاء": 4259,
      "عذاب": 4260,
      "فاه": 4261,
      "فنه": 4262,
      "لذة": 4263,
      "نخ": 4264,
      "##رقت": 4265,
      "##تني": 4266,
      "##ديد": 4267,
      "##يج": 4268,
      "##مقه": 4269,
      "##عيم": 4270,
      "##كشف": 4271,
      "##جلا": 4272,
      "اليا": 4273,
      "##مارس": 4274,
      "##لاط": 4275,
      "الاعلى": 4276,
      "المحد": 4277,
      "##ياط": 4278,
      "##ستها": 4279,
      "##ولى": 4280,
      "الحج": 4281,
      "##لمان": 4282,
      "العهد": 4283,
      "التالية": 4284,
      "##ايها": 4285,
      "##اسية": 4286,
      "معب": 4287,
      "##كرته": 4288,
      "الرس": 4289,
      "##علة": 4290,
      "##قافة": 4291,
      "الطب": 4292,
      "اسار": 4293,
      "انتظار": 4294,
      "محب": 4295,
      "بانك": 4296,
      "اللب": 4297,
      "اللط": 4298,
      "##قهقه": 4299,
      "##اطر": 4300,
      "اتذكر": 4301,
      "##دتك": 4302,
      "النار": 4303,
      "##وعي": 4304,
      "وكمال": 4305,
      "ساق": 4306,
      "بدوره": 4307,
      "ادنى": 4308,
      "والاخ": 4309,
      "تدور": 4310,
      "##غيير": 4311,
      "المنش": 4312,
      "الوحدة": 4313,
      "الحقوق": 4314,
      "رغبته": 4315,
      "تاجر": 4316,
      "بفضل": 4317,
      "ممكن": 4318,
      "موعد": 4319,
      "جاوز": 4320,
      "الثلاث": 4321,
      "الكرسي": 4322,
      "للرجل": 4323,
      "المسيول": 4324,
      "ازد": 4325,
      "بركة": 4326,
      "بذهول": 4327,
      "ثابت": 4328,
      "ثانية": 4329,
      "رز": 4330,
      "سهام": 4331,
      "شغ": 4332,
      "عيب": 4333,
      "عامة": 4334,
      "لدرجة": 4335,
      "يقدم": 4336,
      "##رمة": 4337,
      "##قصة": 4338,
      "##بنا": 4339,
      "##وبي": 4340,
      "##ذف": 4341,
      "##حني": 4342,
      "##ثله": 4343,
      "##عمة": 4344,
      "##ظع": 4345,
      "##خن": 4346,
      "الذهب": 4347,
      "الظروف": 4348,
      "الامان": 4349,
      "الاربعين": 4350,
      "المشر": 4351,
      "##ناع": 4352,
      "الحرية": 4353,
      "عنقه": 4354,
      "##واية": 4355,
      "واراد": 4356,
      "بالاي": 4357,
      "##امرة": 4358,
      "وهمس": 4359,
      "العلاقة": 4360,
      "التص": 4361,
      "##بارة": 4362,
      "ابوك": 4363,
      "يتغير": 4364,
      "يتحدث": 4365,
      "الخار": 4366,
      "الصدر": 4367,
      "ولع": 4368,
      "وعايشة": 4369,
      "انتباه": 4370,
      "وحسن": 4371,
      "بحزم": 4372,
      "##رحان": 4373,
      "بدير": 4374,
      "ودون": 4375,
      "بيضاء": 4376,
      "سيكون": 4377,
      "##شتمر": 4378,
      "ولماذا": 4379,
      "صوتا": 4380,
      "فراح": 4381,
      "تخاف": 4382,
      "##سبب": 4383,
      "##حلول": 4384,
      "بنفسي": 4385,
      "غضبا": 4386,
      "صدقت": 4387,
      "خياله": 4388,
      "لسانه": 4389,
      "خدمة": 4390,
      "فالتفت": 4391,
      "البحث": 4392,
      "انفسنا": 4393,
      "الاحداث": 4394,
      "وذهبت": 4395,
      "ببرود": 4396,
      "اانت": 4397,
      "باري": 4398,
      "تعا": 4399,
      "تبد": 4400,
      "تفر": 4401,
      "تاث": 4402,
      "جه": 4403,
      "حاس": 4404,
      "حارة": 4405,
      "درا": 4406,
      "رقيقة": 4407,
      "سيا": 4408,
      "ساد": 4409,
      "سام": 4410,
      "سقط": 4411,
      "شرف": 4412,
      "شقته": 4413,
      "عض": 4414,
      "عود": 4415,
      "غري": 4416,
      "مهل": 4417,
      "نتيجة": 4418,
      "ورح": 4419,
      "##مكن": 4420,
      "##نته": 4421,
      "##فال": 4422,
      "##جوم": 4423,
      "##جابت": 4424,
      "##جنون": 4425,
      "##زية": 4426,
      "##زعت": 4427,
      "انما": 4428,
      "انباء": 4429,
      "##ياك": 4430,
      "والمع": 4431,
      "واط": 4432,
      "##يلته": 4433,
      "##ريرة": 4434,
      "السرا": 4435,
      "السابق": 4436,
      "العودة": 4437,
      "##نيت": 4438,
      "امين": 4439,
      "البتة": 4440,
      "النف": 4441,
      "النظرة": 4442,
      "النسيان": 4443,
      "##سمين": 4444,
      "للص": 4445,
      "اسال": 4446,
      "اخاف": 4447,
      "اشهر": 4448,
      "لتح": 4449,
      "يقرا": 4450,
      "باستهانة": 4451,
      "كثب": 4452,
      "سيجارة": 4453,
      "تقبل": 4454,
      "##لبية": 4455,
      "حمدي": 4456,
      "##فكرا": 4457,
      "رحلة": 4458,
      "منكبيه": 4459,
      "العجيب": 4460,
      "تاثر": 4461,
      "ادركت": 4462,
      "يقترب": 4463,
      "المقعد": 4464,
      "وادرك": 4465,
      "موجود": 4466,
      "اهمية": 4467,
      "يتحرك": 4468,
      "صورته": 4469,
      "تزوجت": 4470,
      "ضحكت": 4471,
      "ادر": 4472,
      "بحكم": 4473,
      "جنا": 4474,
      "حوالي": 4475,
      "ده": 4476,
      "عذ": 4477,
      "غاي": 4478,
      "قاد": 4479,
      "كح": 4480,
      "لشيء": 4481,
      "ويه": 4482,
      "يظن": 4483,
      "##لح": 4484,
      "##وادة": 4485,
      "القد": 4486,
      "الضيق": 4487,
      "##انوية": 4488,
      "المجلس": 4489,
      "##ولته": 4490,
      "عنيفة": 4491,
      "السيدة": 4492,
      "العبث": 4493,
      "العالمة": 4494,
      "الجنا": 4495,
      "##احة": 4496,
      "يتزوج": 4497,
      "البواب": 4498,
      "الخريف": 4499,
      "##عاع": 4500,
      "##قاوم": 4501,
      "الطلبة": 4502,
      "للغ": 4503,
      "##مدت": 4504,
      "تنسى": 4505,
      "اتجه": 4506,
      "اشار": 4507,
      "##رجال": 4508,
      "بلسان": 4509,
      "يساله": 4510,
      "يشهد": 4511,
      "##وضوح": 4512,
      "وشع": 4513,
      "ستكون": 4514,
      "الظلمة": 4515,
      "##لاءة": 4516,
      "الوظ": 4517,
      "جنبا": 4518,
      "سيدنا": 4519,
      "راحة": 4520,
      "كالمعت": 4521,
      "حقيقي": 4522,
      "مناسبة": 4523,
      "الوداع": 4524,
      "ثال": 4525,
      "حاله": 4526,
      "حافة": 4527,
      "خطي": 4528,
      "ربع": 4529,
      "رفعت": 4530,
      "غز": 4531,
      "فري": 4532,
      "كادت": 4533,
      "كبيرا": 4534,
      "موت": 4535,
      "مفع": 4536,
      "موظ": 4537,
      "نض": 4538,
      "يعل": 4539,
      "##رص": 4540,
      "##طية": 4541,
      "##وخة": 4542,
      "الدرجة": 4543,
      "##لاوي": 4544,
      "الممت": 4545,
      "والض": 4546,
      "##يرته": 4547,
      "السور": 4548,
      "التد": 4549,
      "البوليس": 4550,
      "النجاة": 4551,
      "الدراسة": 4552,
      "الطمانينة": 4553,
      "اعجاب": 4554,
      "##ميذ": 4555,
      "##خلة": 4556,
      "يعاني": 4557,
      "يجعل": 4558,
      "ويش": 4559,
      "وجهك": 4560,
      "اصد": 4561,
      "افظع": 4562,
      "##ندس": 4563,
      "يقضي": 4564,
      "اذنه": 4565,
      "جلباب": 4566,
      "مصير": 4567,
      "وخيل": 4568,
      "فراغ": 4569,
      "يكد": 4570,
      "يكفي": 4571,
      "وفهمي": 4572,
      "بخط": 4573,
      "بالحب": 4574,
      "##ماتة": 4575,
      "يلقي": 4576,
      "خيرت": 4577,
      "وظيفة": 4578,
      "عشماوي": 4579,
      "وعيناه": 4580,
      "يسمح": 4581,
      "اختفى": 4582,
      "لعينيه": 4583,
      "بذرا": 4584,
      "تضحك": 4585,
      "ترامى": 4586,
      "جف": 4587,
      "جملة": 4588,
      "حادة": 4589,
      "خار": 4590,
      "سماء": 4591,
      "سحلول": 4592,
      "صبا": 4593,
      "عقل": 4594,
      "غيظ": 4595,
      "فناء": 4596,
      "نك": 4597,
      "يراه": 4598,
      "##رها": 4599,
      "##سير": 4600,
      "##صن": 4601,
      "##صول": 4602,
      "##ضيا": 4603,
      "##جون": 4604,
      "##شوة": 4605,
      "الوس": 4606,
      "المب": 4607,
      "المدق": 4608,
      "الحانة": 4609,
      "عنهم": 4610,
      "##واجا": 4611,
      "##يلي": 4612,
      "بالاح": 4613,
      "التم": 4614,
      "التجربة": 4615,
      "##جلوس": 4616,
      "كانك": 4617,
      "وتناول": 4618,
      "الجرا": 4619,
      "الجيران": 4620,
      "##ركات": 4621,
      "الخل": 4622,
      "الخلق": 4623,
      "الصامت": 4624,
      "الطاهر": 4625,
      "##وفق": 4626,
      "الانف": 4627,
      "تحقيق": 4628,
      "كالعادة": 4629,
      "##سارة": 4630,
      "الثق": 4631,
      "الثقة": 4632,
      "الاسباب": 4633,
      "##ندوق": 4634,
      "تفكير": 4635,
      "##طاق": 4636,
      "راها": 4637,
      "يومن": 4638,
      "خطير": 4639,
      "يخاف": 4640,
      "##بسط": 4641,
      "مدفو": 4642,
      "##شتراك": 4643,
      "حاجبيه": 4644,
      "مقام": 4645,
      "حولها": 4646,
      "##ياسية": 4647,
      "ارادت": 4648,
      "##فكار": 4649,
      "اقترب": 4650,
      "يزيد": 4651,
      "الجمعة": 4652,
      "وجاءت": 4653,
      "جسمه": 4654,
      "سريعة": 4655,
      "ابنتي": 4656,
      "حامد": 4657,
      "العواقب": 4658,
      "الشخصية": 4659,
      "محمود": 4660,
      "الهرم": 4661,
      "اياه": 4662,
      "بضيق": 4663,
      "تبادل": 4664,
      "دليل": 4665,
      "ذك": 4666,
      "راف": 4667,
      "سين": 4668,
      "سوداء": 4669,
      "صحة": 4670,
      "ضاق": 4671,
      "فف": 4672,
      "كمن": 4673,
      "لخ": 4674,
      "مها": 4675,
      "نفر": 4676,
      "نادرة": 4677,
      "هما": 4678,
      "وو": 4679,
      "يذ": 4680,
      "يفت": 4681,
      "##قع": 4682,
      "##برات": 4683,
      "##يث": 4684,
      "##يوم": 4685,
      "##نعت": 4686,
      "##طات": 4687,
      "##ثلة": 4688,
      "##شفت": 4689,
      "##خول": 4690,
      "##لاشى": 4691,
      "الاطلاق": 4692,
      "المخت": 4693,
      "##ياها": 4694,
      "##يدها": 4695,
      "العمي": 4696,
      "الجر": 4697,
      "الجحيم": 4698,
      "القضاء": 4699,
      "البال": 4700,
      "الره": 4701,
      "النبي": 4702,
      "الخمسين": 4703,
      "متحد": 4704,
      "متزوج": 4705,
      "ولد": 4706,
      "احبك": 4707,
      "##قلال": 4708,
      "##ميز": 4709,
      "استقر": 4710,
      "وعرف": 4711,
      "##جازي": 4712,
      "الغلي": 4713,
      "اتفق": 4714,
      "اتصور": 4715,
      "##ضيء": 4716,
      "بصوته": 4717,
      "ادم": 4718,
      "##ندباد": 4719,
      "البيضاء": 4720,
      "تقريبا": 4721,
      "رايي": 4722,
      "وحدك": 4723,
      "##غيظ": 4724,
      "يغني": 4725,
      "صادقة": 4726,
      "فصاحت": 4727,
      "مكتب": 4728,
      "مرتين": 4729,
      "محتجا": 4730,
      "صدري": 4731,
      "شهرزاد": 4732,
      "نجيب": 4733,
      "يديها": 4734,
      "شابا": 4735,
      "للعمل": 4736,
      "لبثت": 4737,
      "حكمة": 4738,
      "الجانب": 4739,
      "مفاجاة": 4740,
      "مسموع": 4741,
      "ارجع": 4742,
      "تمه": 4743,
      "ثبت": 4744,
      "حجازي": 4745,
      "خلاف": 4746,
      "سيت": 4747,
      "شاملة": 4748,
      "طرق": 4749,
      "كريمة": 4750,
      "لاني": 4751,
      "مسا": 4752,
      "نوم": 4753,
      "ناص": 4754,
      "هجر": 4755,
      "ويا": 4756,
      "وزوج": 4757,
      "وذاك": 4758,
      "يحد": 4759,
      "يبت": 4760,
      "يطل": 4761,
      "##قلت": 4762,
      "##ملت": 4763,
      "##ثور": 4764,
      "##عون": 4765,
      "##فعة": 4766,
      "##خف": 4767,
      "##رادة": 4768,
      "الاقدام": 4769,
      "المف": 4770,
      "المسا": 4771,
      "المثل": 4772,
      "لاس": 4773,
      "##ادسة": 4774,
      "الحكم": 4775,
      "الحوادث": 4776,
      "##يلها": 4777,
      "السيا": 4778,
      "السفر": 4779,
      "وتف": 4780,
      "وتمتمت": 4781,
      "القبر": 4782,
      "القصة": 4783,
      "القامة": 4784,
      "##ودد": 4785,
      "البلا": 4786,
      "البقاء": 4787,
      "ليح": 4788,
      "الصلاة": 4789,
      "الفرح": 4790,
      "##دره": 4791,
      "اليست": 4792,
      "ينس": 4793,
      "ينقطع": 4794,
      "ينطق": 4795,
      "##برياء": 4796,
      "محسن": 4797,
      "عليهما": 4798,
      "بحذر": 4799,
      "احدث": 4800,
      "يسر": 4801,
      "بصفة": 4802,
      "الثانوية": 4803,
      "تجمع": 4804,
      "##ندم": 4805,
      "المحامي": 4806,
      "مشغ": 4807,
      "حديثها": 4808,
      "هموم": 4809,
      "يضرب": 4810,
      "الخطاب": 4811,
      "بنفسها": 4812,
      "كثيرين": 4813,
      "حضرتك": 4814,
      "لنفسها": 4815,
      "ابنتها": 4816,
      "مقابلة": 4817,
      "اغل": 4818,
      "تهد": 4819,
      "ثقة": 4820,
      "جري": 4821,
      "جيبه": 4822,
      "رفض": 4823,
      "شاك": 4824,
      "قشتمر": 4825,
      "لون": 4826,
      "نمت": 4827,
      "هلا": 4828,
      "يغير": 4829,
      "##تام": 4830,
      "##حث": 4831,
      "##ضور": 4832,
      "##جعا": 4833,
      "##زى": 4834,
      "الدي": 4835,
      "مند": 4836,
      "##لاه": 4837,
      "والار": 4838,
      "##ادفة": 4839,
      "##واس": 4840,
      "##واك": 4841,
      "##ريكة": 4842,
      "التجار": 4843,
      "وتش": 4844,
      "وتست": 4845,
      "##قدمه": 4846,
      "##رتين": 4847,
      "يتذكر": 4848,
      "يتوقع": 4849,
      "##رفا": 4850,
      "الخش": 4851,
      "##وتي": 4852,
      "الصداقة": 4853,
      "الدفاع": 4854,
      "الطوار": 4855,
      "اسوا": 4856,
      "استرد": 4857,
      "تعمل": 4858,
      "عينا": 4859,
      "اتريد": 4860,
      "بحب": 4861,
      "بحنان": 4862,
      "##غمغمت": 4863,
      "اهله": 4864,
      "##وضاء": 4865,
      "تفيدة": 4866,
      "تدرك": 4867,
      "يخيل": 4868,
      "المحل": 4869,
      "ذهنه": 4870,
      "تكف": 4871,
      "يلزم": 4872,
      "مخاوف": 4873,
      "جانبها": 4874,
      "شعره": 4875,
      "حدثني": 4876,
      "خفية": 4877,
      "فكانت": 4878,
      "عشرات": 4879,
      "فلماذا": 4880,
      "غاضبة": 4881,
      "واشتد": 4882,
      "عاطفة": 4883,
      "اربع": 4884,
      "اربعة": 4885,
      "باحت": 4886,
      "بدران": 4887,
      "بياع": 4888,
      "تال": 4889,
      "تفت": 4890,
      "تراه": 4891,
      "حاد": 4892,
      "حدة": 4893,
      "خا": 4894,
      "ذنب": 4895,
      "سما": 4896,
      "سكر": 4897,
      "سناء": 4898,
      "سخرية": 4899,
      "سابق": 4900,
      "صبر": 4901,
      "علام": 4902,
      "قسم": 4903,
      "قرن": 4904,
      "كري": 4905,
      "نوعا": 4906,
      "ودا": 4907,
      "ووجدت": 4908,
      "يقط": 4909,
      "##بوط": 4910,
      "##حين": 4911,
      "##عمل": 4912,
      "##عرض": 4913,
      "##صال": 4914,
      "##زب": 4915,
      "منط": 4916,
      "##راعة": 4917,
      "الايمان": 4918,
      "الاجتماع": 4919,
      "المقد": 4920,
      "المجتمع": 4921,
      "والمس": 4922,
      "لاه": 4923,
      "##واع": 4924,
      "##واقب": 4925,
      "##ونك": 4926,
      "لمح": 4927,
      "السمع": 4928,
      "السراي": 4929,
      "العزاء": 4930,
      "التاك": 4931,
      "وتص": 4932,
      "وتخ": 4933,
      "وترا": 4934,
      "##قدت": 4935,
      "##فسد": 4936,
      "القران": 4937,
      "وجم": 4938,
      "##قتنا": 4939,
      "الخالية": 4940,
      "الخادم": 4941,
      "اليقظة": 4942,
      "الطرب": 4943,
      "وسيلة": 4944,
      "فاش": 4945,
      "فاشت": 4946,
      "##قلبت": 4947,
      "يعرض": 4948,
      "الغريبة": 4949,
      "الغداء": 4950,
      "وحل": 4951,
      "تحرك": 4952,
      "اتح": 4953,
      "بحركة": 4954,
      "##وحه": 4955,
      "راسك": 4956,
      "النادل": 4957,
      "الناحية": 4958,
      "اهذا": 4959,
      "فانا": 4960,
      "يقنع": 4961,
      "تفك": 4962,
      "##بكي": 4963,
      "والحمد": 4964,
      "يفهم": 4965,
      "يفقد": 4966,
      "فقدت": 4967,
      "الرابعة": 4968,
      "الراديو": 4969,
      "المنعم": 4970,
      "الابن": 4971,
      "بشدة": 4972,
      "لكنك": 4973,
      "والعمل": 4974,
      "بطريقة": 4975,
      "قررت": 4976,
      "يدعى": 4977,
      "سعيدا": 4978,
      "حضرة": 4979,
      "خوفا": 4980,
      "واخرى": 4981,
      "خرجت": 4982,
      "مشروع": 4983,
      "##ظاهرا": 4984,
      "العوامة": 4985,
      "فادرك": 4986,
      "النظرات": 4987,
      "بالامس": 4988,
      "بفتور": 4989,
      "باقتضاب": 4990,
      "الجريدة": 4991,
      "بسي": 4992,
      "تجر": 4993,
      "تسي": 4994,
      "تجلس": 4995,
      "تبتسم": 4996,
      "حذار": 4997,
      "دمت": 4998,
      "درج": 4999,
      "داره": 5000,
      "سهر": 5001,
      "صع": 5002,
      "عجيبة": 5003,
      "غال": 5004,
      "فوز": 5005,
      "قري": 5006,
      "قمر": 5007,
      "قضى": 5008,
      "قامت": 5009,
      "كلم": 5010,
      "نهار": 5011,
      "ومت": 5012,
      "وضح": 5013,
      "يلم": 5014,
      "يطلع": 5015,
      "##ربا": 5016,
      "##دايية": 5017,
      "##لط": 5018,
      "##وبه": 5019,
      "##ذية": 5020,
      "##حص": 5021,
      "##عنا": 5022,
      "##صفة": 5023,
      "##جعة": 5024,
      "الاطفال": 5025,
      "الافكار": 5026,
      "##اريت": 5027,
      "##اركة": 5028,
      "##ابد": 5029,
      "##ابعه": 5030,
      "##يدية": 5031,
      "##ستقبل": 5032,
      "##ادف": 5033,
      "الحمال": 5034,
      "##واح": 5035,
      "بالمع": 5036,
      "السحر": 5037,
      "السايق": 5038,
      "السادسة": 5039,
      "العريس": 5040,
      "##ورك": 5041,
      "الشرق": 5042,
      "القنا": 5043,
      "##وجة": 5044,
      "معجزة": 5045,
      "ابل": 5046,
      "يتناول": 5047,
      "الرقص": 5048,
      "النصر": 5049,
      "##عاف": 5050,
      "متج": 5051,
      "متظاهرا": 5052,
      "الصمد": 5053,
      "الفرج": 5054,
      "الفضل": 5055,
      "##قاها": 5056,
      "كلمات": 5057,
      "احاديث": 5058,
      "ينتهي": 5059,
      "الكلب": 5060,
      "##وفه": 5061,
      "اعصاب": 5062,
      "اخيه": 5063,
      "الغا": 5064,
      "وحيدة": 5065,
      "اشك": 5066,
      "##ياتي": 5067,
      "يقولون": 5068,
      "المتع": 5069,
      "بمثل": 5070,
      "بسوء": 5071,
      "ودعا": 5072,
      "مجال": 5073,
      "صاحبة": 5074,
      "ابتسمت": 5075,
      "ابتسام": 5076,
      "بتحد": 5077,
      "يصيح": 5078,
      "فراشه": 5079,
      "اختفت": 5080,
      "والديه": 5081,
      "بنات": 5082,
      "الانتقام": 5083,
      "يعتبر": 5084,
      "ظهرها": 5085,
      "##جاهل": 5086,
      "اولاد": 5087,
      "جنونية": 5088,
      "الصحراء": 5089,
      "احلامه": 5090,
      "بريء": 5091,
      "شاربه": 5092,
      "العزيز": 5093,
      "الكبرى": 5094,
      "الثالثة": 5095,
      "غليظ": 5096,
      "##ضطراب": 5097,
      "تبر": 5098,
      "تفتح": 5099,
      "خفق": 5100,
      "ذر": 5101,
      "ذق": 5102,
      "سج": 5103,
      "ساء": 5104,
      "سرحان": 5105,
      "صميم": 5106,
      "عطف": 5107,
      "علاق": 5108,
      "فظ": 5109,
      "فست": 5110,
      "فضيحة": 5111,
      "قه": 5112,
      "قات": 5113,
      "قايما": 5114,
      "وطا": 5115,
      "وياسين": 5116,
      "يطال": 5117,
      "يعلن": 5118,
      "##طوي": 5119,
      "##ذك": 5120,
      "##ذهاب": 5121,
      "##سف": 5122,
      "##سمات": 5123,
      "##ضار": 5124,
      "##جرد": 5125,
      "##شاه": 5126,
      "##زز": 5127,
      "انقطع": 5128,
      "##ينها": 5129,
      "الامس": 5130,
      "المشك": 5131,
      "##نام": 5132,
      "##واة": 5133,
      "واكت": 5134,
      "بالط": 5135,
      "##امن": 5136,
      "##امته": 5137,
      "العالية": 5138,
      "##حدر": 5139,
      "وتد": 5140,
      "وتبادلا": 5141,
      "الجز": 5142,
      "الجسم": 5143,
      "الجنة": 5144,
      "القريب": 5145,
      "##بهة": 5146,
      "##مره": 5147,
      "اليقين": 5148,
      "الطف": 5149,
      "ينقص": 5150,
      "للان": 5151,
      "فاق": 5152,
      "الكاس": 5153,
      "اعوذ": 5154,
      "انتبه": 5155,
      "يدل": 5156,
      "عينين": 5157,
      "وبخ": 5158,
      "باك": 5159,
      "وحمل": 5160,
      "اصح": 5161,
      "اهت": 5162,
      "فهذا": 5163,
      "مستقبل": 5164,
      "يقصد": 5165,
      "##وكل": 5166,
      "عملي": 5167,
      "بيوت": 5168,
      "تشت": 5169,
      "فلاح": 5170,
      "ابيك": 5171,
      "فكرت": 5172,
      "اراك": 5173,
      "للمرة": 5174,
      "عمرو": 5175,
      "فاجابه": 5176,
      "والخوف": 5177,
      "عصبية": 5178,
      "يرتدي": 5179,
      "الواس": 5180,
      "رءوس": 5181,
      "جسمها": 5182,
      "ريقه": 5183,
      "انفسهم": 5184,
      "ولعلها": 5185,
      "بالايجاب": 5186,
      "جرس": 5187,
      "ره": 5188,
      "سبي": 5189,
      "صلاة": 5190,
      "طرا": 5191,
      "طبيب": 5192,
      "عناء": 5193,
      "عدم": 5194,
      "عتاب": 5195,
      "قرار": 5196,
      "كس": 5197,
      "مجل": 5198,
      "مغم": 5199,
      "مسمع": 5200,
      "مداع": 5201,
      "ورك": 5202,
      "ووض": 5203,
      "ياب": 5204,
      "يثير": 5205,
      "١٢": 5206,
      "##بش": 5207,
      "##هور": 5208,
      "##طلة": 5209,
      "##ءوس": 5210,
      "##حبة": 5211,
      "##ضيت": 5212,
      "##شاط": 5213,
      "##غية": 5214,
      "الري": 5215,
      "الدر": 5216,
      "##انين": 5217,
      "الاولاد": 5218,
      "المجد": 5219,
      "الحيرة": 5220,
      "ماما": 5221,
      "##واته": 5222,
      "السنة": 5223,
      "التف": 5224,
      "التقت": 5225,
      "##نيهات": 5226,
      "وتقدم": 5227,
      "الجارية": 5228,
      "القى": 5229,
      "##متين": 5230,
      "##داه": 5231,
      "يتنا": 5232,
      "يتطلع": 5233,
      "وجرى": 5234,
      "النس": 5235,
      "##مرض": 5236,
      "##قيها": 5237,
      "متفكرا": 5238,
      "ومرة": 5239,
      "ومهما": 5240,
      "شيطان": 5241,
      "##افظة": 5242,
      "ينم": 5243,
      "فاشار": 5244,
      "الزيني": 5245,
      "وبعض": 5246,
      "باطن": 5247,
      "نحوي": 5248,
      "يحلم": 5249,
      "يحلو": 5250,
      "يموت": 5251,
      "باسف": 5252,
      "وصمت": 5253,
      "اليومية": 5254,
      "الاحساس": 5255,
      "والحياة": 5256,
      "اقرا": 5257,
      "خطيرة": 5258,
      "الهوى": 5259,
      "تسير": 5260,
      "فقام": 5261,
      "شديدا": 5262,
      "يلوح": 5263,
      "بلهفة": 5264,
      "شخصية": 5265,
      "نجاح": 5266,
      "حظه": 5267,
      "عميقا": 5268,
      "التعليم": 5269,
      "الاشياء": 5270,
      "باردة": 5271,
      "ثقيلة": 5272,
      "البحيري": 5273,
      "وجلست": 5274,
      "القصرين": 5275,
      "المطلة": 5276,
      "الوطنية": 5277,
      "الكتب": 5278,
      "زهران": 5279,
      "النحاسين": 5280,
      "باطنه": 5281,
      "الوظيفة": 5282,
      "بطن": 5283,
      "توج": 5284,
      "تلت": 5285,
      "جها": 5286,
      "جادا": 5287,
      "حقيق": 5288,
      "حنق": 5289,
      "حتما": 5290,
      "سه": 5291,
      "شغل": 5292,
      "شقيق": 5293,
      "صاف": 5294,
      "ضابط": 5295,
      "ظلمة": 5296,
      "قوته": 5297,
      "مطر": 5298,
      "مرارة": 5299,
      "وشر": 5300,
      "يسي": 5301,
      "يطلب": 5302,
      "##بض": 5303,
      "##مرار": 5304,
      "##نياء": 5305,
      "##ولك": 5306,
      "##وشة": 5307,
      "##وثة": 5308,
      "##عو": 5309,
      "##صيل": 5310,
      "##صلة": 5311,
      "##كمة": 5312,
      "##فور": 5313,
      "##فقت": 5314,
      "##ظرا": 5315,
      "##شرات": 5316,
      "##غرق": 5317,
      "##خور": 5318,
      "انفه": 5319,
      "فين": 5320,
      "منخفض": 5321,
      "##رابي": 5322,
      "##لاته": 5323,
      "المشت": 5324,
      "الحكاية": 5325,
      "ماية": 5326,
      "واجب": 5327,
      "بالل": 5328,
      "##ريحة": 5329,
      "العفو": 5330,
      "التك": 5331,
      "وتك": 5332,
      "وترك": 5333,
      "يتابع": 5334,
      "##رفه": 5335,
      "متولي": 5336,
      "فتنة": 5337,
      "##افظ": 5338,
      "ولاحت": 5339,
      "للج": 5340,
      "اسفل": 5341,
      "اعط": 5342,
      "يداري": 5343,
      "##قهوة": 5344,
      "تنطق": 5345,
      "بحال": 5346,
      "اشعر": 5347,
      "##ساول": 5348,
      "المتاعب": 5349,
      "اكراما": 5350,
      "حالك": 5351,
      "خطاب": 5352,
      "خطورة": 5353,
      "لعنة": 5354,
      "تشك": 5355,
      "فرحة": 5356,
      "يخفق": 5357,
      "وحدة": 5358,
      "ارتفع": 5359,
      "حيوان": 5360,
      "الابصار": 5361,
      "والدك": 5362,
      "الاصوات": 5363,
      "عامر": 5364,
      "الرحلة": 5365,
      "عيناهما": 5366,
      "##سكي": 5367,
      "مظاهرة": 5368,
      "بايع": 5369,
      "موجة": 5370,
      "فليس": 5371,
      "مزيد": 5372,
      "يتعرض": 5373,
      "القبو": 5374,
      "ذاهب": 5375,
      "الاعتراف": 5376,
      "مجهولة": 5377,
      "فبدا": 5378,
      "حاملا": 5379,
      "الدعوة": 5380,
      "بالزواج": 5381,
      "النشوة": 5382,
      "تقدير": 5383,
      "الفقراء": 5384,
      "اوا": 5385,
      "اقدم": 5386,
      "جيل": 5387,
      "جوان": 5388,
      "خواطر": 5389,
      "ذن": 5390,
      "ذوي": 5391,
      "رفي": 5392,
      "رزق": 5393,
      "سوس": 5394,
      "سلامة": 5395,
      "سعادته": 5396,
      "صغ": 5397,
      "عدت": 5398,
      "ففي": 5399,
      "فرق": 5400,
      "قوم": 5401,
      "نبا": 5402,
      "هتفت": 5403,
      "وصل": 5404,
      "يله": 5405,
      "##قله": 5406,
      "##يان": 5407,
      "##هى": 5408,
      "##ذبه": 5409,
      "##حوظ": 5410,
      "##ثم": 5411,
      "##جية": 5412,
      "##غد": 5413,
      "##خين": 5414,
      "##خلي": 5415,
      "الراه": 5416,
      "الورد": 5417,
      "##لاما": 5418,
      "الامال": 5419,
      "الاهل": 5420,
      "##يابه": 5421,
      "والقى": 5422,
      "الحاد": 5423,
      "الحادث": 5424,
      "##ريه": 5425,
      "السوق": 5426,
      "الساح": 5427,
      "العطف": 5428,
      "العتي": 5429,
      "العشرين": 5430,
      "التراب": 5431,
      "وتردد": 5432,
      "وتتاب": 5433,
      "الشوارع": 5434,
      "معرفة": 5435,
      "##عتك": 5436,
      "يتمالك": 5437,
      "وجمال": 5438,
      "البو": 5439,
      "الرضا": 5440,
      "##مرح": 5441,
      "ليالي": 5442,
      "ولاول": 5443,
      "ولاحظ": 5444,
      "فاخذ": 5445,
      "##وفا": 5446,
      "الزاوية": 5447,
      "محله": 5448,
      "##رضه": 5449,
      "##عهما": 5450,
      "اتخذ": 5451,
      "يحاول": 5452,
      "بلغت": 5453,
      "كالمت": 5454,
      "وكث": 5455,
      "مثلي": 5456,
      "يشك": 5457,
      "##ماني": 5458,
      "بمرارة": 5459,
      "بسخرية": 5460,
      "تجيء": 5461,
      "مستع": 5462,
      "فرغ": 5463,
      "تستطع": 5464,
      "يصح": 5465,
      "زوجا": 5466,
      "حسنية": 5467,
      "تخطر": 5468,
      "تخاطب": 5469,
      "وغادرت": 5470,
      "الاعمال": 5471,
      "الاعوام": 5472,
      "مقص": 5473,
      "يهتف": 5474,
      "تلوح": 5475,
      "حماس": 5476,
      "سرعة": 5477,
      "المصاب": 5478,
      "وقتا": 5479,
      "وقتذاك": 5480,
      "حزينة": 5481,
      "مضطر": 5482,
      "اخذت": 5483,
      "يودي": 5484,
      "بالكلام": 5485,
      "العاشرة": 5486,
      "النجاح": 5487,
      "بالرغم": 5488,
      "وقلبه": 5489,
      "انفاسه": 5490,
      "رسالة": 5491,
      "الهموم": 5492,
      "الكلمات": 5493,
      "اراه": 5494,
      "تاف": 5495,
      "تبين": 5496,
      "تمنى": 5497,
      "جرت": 5498,
      "جادة": 5499,
      "داف": 5500,
      "ربه": 5501,
      "سف": 5502,
      "سات": 5503,
      "شجرة": 5504,
      "ضغط": 5505,
      "عه": 5506,
      "فمد": 5507,
      "فمه": 5508,
      "فواصل": 5509,
      "قن": 5510,
      "قان": 5511,
      "قمق": 5512,
      "كافة": 5513,
      "مود": 5514,
      "مرك": 5515,
      "نن": 5516,
      "وبه": 5517,
      "وبد": 5518,
      "وغل": 5519,
      "يفر": 5520,
      "يلق": 5521,
      "يزل": 5522,
      "يلقى": 5523,
      "يصلح": 5524,
      "##رقا": 5525,
      "##ييه": 5526,
      "##يعة": 5527,
      "##ذيب": 5528,
      "##حمة": 5529,
      "##سبه": 5530,
      "##صراف": 5531,
      "##غيب": 5532,
      "##زمة": 5533,
      "##زلت": 5534,
      "الوسط": 5535,
      "انطلقت": 5536,
      "##يابة": 5537,
      "##لكة": 5538,
      "##نادق": 5539,
      "##وايح": 5540,
      "##لمت": 5541,
      "السما": 5542,
      "امث": 5543,
      "القادر": 5544,
      "##فتة": 5545,
      "##ربين": 5546,
      "##حتي": 5547,
      "الفضيحة": 5548,
      "فتراجع": 5549,
      "##درد": 5550,
      "كلنا": 5551,
      "استد": 5552,
      "وعيه": 5553,
      "##وسه": 5554,
      "تتغير": 5555,
      "محن": 5556,
      "محز": 5557,
      "محطة": 5558,
      "##فاهم": 5559,
      "يعنيه": 5560,
      "باخ": 5561,
      "ويم": 5562,
      "وحب": 5563,
      "وحيدا": 5564,
      "تحفظ": 5565,
      "##وانه": 5566,
      "##رجيلة": 5567,
      "ونهض": 5568,
      "##شيقة": 5569,
      "##ارتك": 5570,
      "تجري": 5571,
      "##عيان": 5572,
      "مستطل": 5573,
      "مجم": 5574,
      "جلسة": 5575,
      "اولى": 5576,
      "تدل": 5577,
      "فلس": 5578,
      "##سلما": 5579,
      "##اذبة": 5580,
      "برغبة": 5581,
      "وفض": 5582,
      "مقر": 5583,
      "حمودة": 5584,
      "دعاه": 5585,
      "مخيف": 5586,
      "سرورا": 5587,
      "دايرة": 5588,
      "تغني": 5589,
      "ابنها": 5590,
      "الرجاء": 5591,
      "##رنح": 5592,
      "عامين": 5593,
      "المالوف": 5594,
      "يديك": 5595,
      "##ذنب": 5596,
      "للحياة": 5597,
      "العاشق": 5598,
      "اياما": 5599,
      "دخلت": 5600,
      "اطل": 5601,
      "اجلس": 5602,
      "اوقات": 5603,
      "تشي": 5604,
      "جثة": 5605,
      "حبل": 5606,
      "حارتنا": 5607,
      "خمس": 5608,
      "زيادة": 5609,
      "عقد": 5610,
      "فث": 5611,
      "فمال": 5612,
      "قضاء": 5613,
      "كبار": 5614,
      "لوجه": 5615,
      "موم": 5616,
      "نساء": 5617,
      "وقلب": 5618,
      "وبلغ": 5619,
      "يرض": 5620,
      "يليق": 5621,
      "##رقب": 5622,
      "##بني": 5623,
      "##ارا": 5624,
      "##طمت": 5625,
      "##ذوبة": 5626,
      "##سعت": 5627,
      "##عال": 5628,
      "##شط": 5629,
      "##شها": 5630,
      "##غص": 5631,
      "##خب": 5632,
      "الثر": 5633,
      "انط": 5634,
      "انطلق": 5635,
      "##ماية": 5636,
      "##رافه": 5637,
      "المته": 5638,
      "المنتظر": 5639,
      "المطبخ": 5640,
      "الحماس": 5641,
      "##واعث": 5642,
      "بالذات": 5643,
      "##امه": 5644,
      "السح": 5645,
      "التلا": 5646,
      "التفات": 5647,
      "##باقة": 5648,
      "##ايح": 5649,
      "كانا": 5650,
      "الشجاعة": 5651,
      "##اتم": 5652,
      "##وقها": 5653,
      "##ودها": 5654,
      "وانتهى": 5655,
      "الخص": 5656,
      "الفض": 5657,
      "الفضاء": 5658,
      "وملا": 5659,
      "##سمه": 5660,
      "الدكاكين": 5661,
      "الطبيعة": 5662,
      "وسار": 5663,
      "ايما": 5664,
      "##بتني": 5665,
      "##خلى": 5666,
      "استسلم": 5667,
      "وعم": 5668,
      "وعجب": 5669,
      "انتقل": 5670,
      "بعص": 5671,
      "اخته": 5672,
      "##مدة": 5673,
      "وقام": 5674,
      "بانت": 5675,
      "##عهد": 5676,
      "عندنا": 5677,
      "اليهما": 5678,
      "بكف": 5679,
      "يسعه": 5680,
      "يشرب": 5681,
      "الثامنة": 5682,
      "##عيها": 5683,
      "مستقب": 5684,
      "الضخم": 5685,
      "مسالة": 5686,
      "ستجد": 5687,
      "حالة": 5688,
      "والاص": 5689,
      "الاخضر": 5690,
      "حسنين": 5691,
      "الابواب": 5692,
      "سمراء": 5693,
      "ارايت": 5694,
      "ارادة": 5695,
      "##وراق": 5696,
      "ناحيته": 5697,
      "اثره": 5698,
      "الحساب": 5699,
      "اطمان": 5700,
      "يخلق": 5701,
      "كرسي": 5702,
      "براي": 5703,
      "براسه": 5704,
      "##واجهة": 5705,
      "واشار": 5706,
      "عميقة": 5707,
      "منظره": 5708,
      "ذاهلا": 5709,
      "السرير": 5710,
      "واخذت": 5711,
      "حجرتها": 5712,
      "العليا": 5713,
      "الهدف": 5714,
      "الاكبر": 5715,
      "فقاطع": 5716,
      "جسده": 5717,
      "المعهود": 5718,
      "الموظفين": 5719,
      "مسرعا": 5720,
      "بقب": 5721,
      "بوضوح": 5722,
      "ترب": 5723,
      "تطلع": 5724,
      "تخرج": 5725,
      "ترفع": 5726,
      "تعلق": 5727,
      "جيدا": 5728,
      "جفن": 5729,
      "حار": 5730,
      "حصر": 5731,
      "حرارة": 5732,
      "دهم": 5733,
      "دمه": 5734,
      "زجاجة": 5735,
      "سور": 5736,
      "سكرت": 5737,
      "صمته": 5738,
      "طظ": 5739,
      "ظلام": 5740,
      "عثر": 5741,
      "فجلس": 5742,
      "قرات": 5743,
      "موف": 5744,
      "مدة": 5745,
      "مطال": 5746,
      "مركز": 5747,
      "نشا": 5748,
      "هادي": 5749,
      "يمد": 5750,
      "يولي": 5751,
      "يكتب": 5752,
      "يراها": 5753,
      "##يما": 5754,
      "##يون": 5755,
      "##يقة": 5756,
      "##طوبة": 5757,
      "##وشك": 5758,
      "##جاح": 5759,
      "##شل": 5760,
      "##زال": 5761,
      "##زيد": 5762,
      "القدر": 5763,
      "منش": 5764,
      "المحا": 5765,
      "والطرب": 5766,
      "##ابرة": 5767,
      "##ولها": 5768,
      "الحسن": 5769,
      "الحذاء": 5770,
      "##واي": 5771,
      "وهن": 5772,
      "العظ": 5773,
      "العاط": 5774,
      "العواطف": 5775,
      "التن": 5776,
      "وتج": 5777,
      "وتفكر": 5778,
      "##وقا": 5779,
      "القضية": 5780,
      "القراءة": 5781,
      "##كرك": 5782,
      "يتبعه": 5783,
      "اوشك": 5784,
      "وانح": 5785,
      "البعيد": 5786,
      "الفول": 5787,
      "وسر": 5788,
      "احبها": 5789,
      "للف": 5790,
      "فاخت": 5791,
      "اسالك": 5792,
      "##خلف": 5793,
      "استدع": 5794,
      "استطرد": 5795,
      "بعيدة": 5796,
      "الزفاف": 5797,
      "##فاظ": 5798,
      "##فاية": 5799,
      "يعثر": 5800,
      "يجمع": 5801,
      "بحسن": 5802,
      "يسا": 5803,
      "وكما": 5804,
      "##وزع": 5805,
      "يشغل": 5806,
      "فهزت": 5807,
      "وفيما": 5808,
      "الاحوال": 5809,
      "##دهش": 5810,
      "ارملة": 5811,
      "تقرا": 5812,
      "الهانم": 5813,
      "الظهر": 5814,
      "تصرف": 5815,
      "الاخوان": 5816,
      "##وارى": 5817,
      "##زاع": 5818,
      "اثاث": 5819,
      "##يقى": 5820,
      "عمارة": 5821,
      "دعوة": 5822,
      "قصد": 5823,
      "اقترح": 5824,
      "جنب": 5825,
      "وارتفع": 5826,
      "واقفة": 5827,
      "قطعة": 5828,
      "يبدا": 5829,
      "حظي": 5830,
      "الجلسة": 5831,
      "اكتراث": 5832,
      "كلامه": 5833,
      "كنبة": 5834,
      "دنيازاد": 5835,
      "واضحة": 5836,
      "ماتت": 5837,
      "ظننت": 5838,
      "صدقني": 5839,
      "##ظاهرات": 5840,
      "قولها": 5841,
      "الهدوء": 5842,
      "##واصلت": 5843,
      "الثالث": 5844,
      "فقاط": 5845,
      "الذاكرة": 5846,
      "عدلية": 5847,
      "الخارجي": 5848,
      "حمديس": 5849,
      "وبخاصة": 5850,
      "تراءى": 5851,
      "حادث": 5852,
      "خليق": 5853,
      "زجاج": 5854,
      "سيل": 5855,
      "ساف": 5856,
      "صل": 5857,
      "صبي": 5858,
      "صداقة": 5859,
      "ضخ": 5860,
      "طبق": 5861,
      "غار": 5862,
      "غلب": 5863,
      "فاف": 5864,
      "كعاد": 5865,
      "لذ": 5866,
      "لعب": 5867,
      "نقطة": 5868,
      "هباء": 5869,
      "يقدر": 5870,
      "##رث": 5871,
      "##يض": 5872,
      "##لفت": 5873,
      "##طقت": 5874,
      "##سلة": 5875,
      "##فين": 5876,
      "##جح": 5877,
      "##شرت": 5878,
      "##زاح": 5879,
      "الولا": 5880,
      "القدم": 5881,
      "##انيا": 5882,
      "انقلب": 5883,
      "فيهما": 5884,
      "##راسي": 5885,
      "المياه": 5886,
      "المراقب": 5887,
      "##نار": 5888,
      "##ادره": 5889,
      "##يلية": 5890,
      "وهز": 5891,
      "السخرية": 5892,
      "السياسية": 5893,
      "العشاء": 5894,
      "##باق": 5895,
      "##جلال": 5896,
      "##ايعة": 5897,
      "وتب": 5898,
      "##بيعي": 5899,
      "الشحا": 5900,
      "##وقعة": 5901,
      "القط": 5902,
      "معار": 5903,
      "يتلقى": 5904,
      "واندفع": 5905,
      "##رفق": 5906,
      "الخطر": 5907,
      "ليلا": 5908,
      "متوس": 5909,
      "متمه": 5910,
      "الفلس": 5911,
      "فتمتمت": 5912,
      "الدهر": 5913,
      "الطرف": 5914,
      "للحب": 5915,
      "اعاد": 5916,
      "وعي": 5917,
      "##بدة": 5918,
      "تتردد": 5919,
      "بعث": 5920,
      "##جاير": 5921,
      "يجت": 5922,
      "##هربا": 5923,
      "الغورية": 5924,
      "باني": 5925,
      "اللون": 5926,
      "اللسان": 5927,
      "ترجع": 5928,
      "احداث": 5929,
      "ونظرت": 5930,
      "يسري": 5931,
      "يملا": 5932,
      "##شاقة": 5933,
      "ودار": 5934,
      "رافت": 5935,
      "اعتاد": 5936,
      "##سلية": 5937,
      "##باركة": 5938,
      "يهبط": 5939,
      "الشيخوخة": 5940,
      "يلعب": 5941,
      "اغلق": 5942,
      "تلقي": 5943,
      "وثب": 5944,
      "المصري": 5945,
      "##طاردة": 5946,
      "شرط": 5947,
      "ذاكرته": 5948,
      "امتد": 5949,
      "طريقها": 5950,
      "الخطير": 5951,
      "الستين": 5952,
      "##سكري": 5953,
      "موضوع": 5954,
      "اشتد": 5955,
      "فشعر": 5956,
      "عصاه": 5957,
      "ركبت": 5958,
      "متهكما": 5959,
      "الحاجة": 5960,
      "عزيزي": 5961,
      "كاسا": 5962,
      "خصاص": 5963,
      "لديه": 5964,
      "البارد": 5965,
      "القتل": 5966,
      "الايمن": 5967,
      "باشفاق": 5968,
      "الفاتحة": 5969,
      "رييس": 5970,
      "المجرم": 5971,
      "النفوس": 5972,
      "اظ": 5973,
      "توت": 5974,
      "جث": 5975,
      "جزاء": 5976,
      "حفظ": 5977,
      "ذكرت": 5978,
      "سالم": 5979,
      "سهرة": 5980,
      "شمل": 5981,
      "شابة": 5982,
      "عجلة": 5983,
      "غني": 5984,
      "فرض": 5985,
      "فصل": 5986,
      "قف": 5987,
      "قضي": 5988,
      "قادر": 5989,
      "قاتل": 5990,
      "لحق": 5991,
      "مرج": 5992,
      "مرور": 5993,
      "نو": 5994,
      "هه": 5995,
      "هاديا": 5996,
      "يرج": 5997,
      "يبحث": 5998,
      "##دخل": 5999,
      "##نقه": 6000,
      "##حرف": 6001,
      "##فاس": 6002,
      "##ظت": 6003,
      "##ظلام": 6004,
      "##جى": 6005,
      "##شح": 6006,
      "##شيد": 6007,
      "##خبر": 6008,
      "##خاوف": 6009,
      "الاله": 6010,
      "##اليف": 6011,
      "##انق": 6012,
      "انش": 6013,
      "انفعال": 6014,
      "##مادي": 6015,
      "المظ": 6016,
      "##ياتها": 6017,
      "والما": 6018,
      "ماساة": 6019,
      "واذن": 6020,
      "السعد": 6021,
      "السوداء": 6022,
      "العص": 6023,
      "العجيبة": 6024,
      "التر": 6025,
      "التردد": 6026,
      "##ايرا": 6027,
      "امري": 6028,
      "##لتك": 6029,
      "يتن": 6030,
      "النقطة": 6031,
      "##ربدة": 6032,
      "الخطا": 6033,
      "الفكرة": 6034,
      "فتقول": 6035,
      "ولقد": 6036,
      "ولاح": 6037,
      "وسكت": 6038,
      "وسالت": 6039,
      "اسرار": 6040,
      "استط": 6041,
      "انتم": 6042,
      "بعيني": 6043,
      "الزحام": 6044,
      "اختي": 6045,
      "ويوما": 6046,
      "بحيرة": 6047,
      "يحل": 6048,
      "كالن": 6049,
      "كالح": 6050,
      "احدهما": 6051,
      "النايم": 6052,
      "يسلم": 6053,
      "بصورة": 6054,
      "##سايل": 6055,
      "تجار": 6056,
      "مستسلما": 6057,
      "##بابة": 6058,
      "والحزن": 6059,
      "والاع": 6060,
      "تقصد": 6061,
      "الهرب": 6062,
      "##ضحكة": 6063,
      "##كايات": 6064,
      "يخف": 6065,
      "امامها": 6066,
      "ورقة": 6067,
      "زوجي": 6068,
      "زوجتي": 6069,
      "بدافع": 6070,
      "والسلام": 6071,
      "نظير": 6072,
      "المستشار": 6073,
      "حماسه": 6074,
      "عربة": 6075,
      "وزارة": 6076,
      "ابنك": 6077,
      "للاست": 6078,
      "نفوس": 6079,
      "الحيوان": 6080,
      "عجبا": 6081,
      "وضع": 6082,
      "الخطبة": 6083,
      "##اركه": 6084,
      "نعرف": 6085,
      "حزنا": 6086,
      "##سامح": 6087,
      "تراجع": 6088,
      "ارادته": 6089,
      "القبض": 6090,
      "صامتة": 6091,
      "الابتسامة": 6092,
      "مطلقا": 6093,
      "بوشي": 6094,
      "عبثا": 6095,
      "مجرى": 6096,
      "القصيرة": 6097,
      "باعجاب": 6098,
      "البهو": 6099,
      "طبيعي": 6100,
      "جوابا": 6101,
      "البنسيون": 6102,
      "المعروف": 6103,
      "##ربوشه": 6104,
      "تباعا": 6105,
      "فنهض": 6106,
      "الرسالة": 6107,
      "وشعرت": 6108,
      "ابلغ": 6109,
      "وكثيرا": 6110,
      "بناء": 6111,
      "توه": 6112,
      "تزل": 6113,
      "جاد": 6114,
      "حلا": 6115,
      "حبها": 6116,
      "حوادث": 6117,
      "دين": 6118,
      "دحر": 6119,
      "سمي": 6120,
      "سواه": 6121,
      "شق": 6122,
      "شرب": 6123,
      "صاي": 6124,
      "صحتك": 6125,
      "ضعف": 6126,
      "غد": 6127,
      "لكان": 6128,
      "نداء": 6129,
      "هواء": 6130,
      "ويف": 6131,
      "ويب": 6132,
      "وواصل": 6133,
      "يلا": 6134,
      "يعا": 6135,
      "يواصل": 6136,
      "يطمين": 6137,
      "##رعت": 6138,
      "##قضي": 6139,
      "##بن": 6140,
      "##يقا": 6141,
      "##لع": 6142,
      "##لوب": 6143,
      "##وصا": 6144,
      "##عقد": 6145,
      "##ضرة": 6146,
      "##جعت": 6147,
      "##شم": 6148,
      "##خار": 6149,
      "##زيا": 6150,
      "الولد": 6151,
      "منكم": 6152,
      "##رافة": 6153,
      "المنع": 6154,
      "الملاءة": 6155,
      "والعا": 6156,
      "والارت": 6157,
      "والالم": 6158,
      "الحذر": 6159,
      "الحنق": 6160,
      "واعاد": 6161,
      "##قالة": 6162,
      "وهلة": 6163,
      "السمر": 6164,
      "السهرة": 6165,
      "العجل": 6166,
      "العود": 6167,
      "التحية": 6168,
      "التوفيق": 6169,
      "الشديد": 6170,
      "الجيش": 6171,
      "##فتاة": 6172,
      "##وجب": 6173,
      "##ودات": 6174,
      "##لتي": 6175,
      "##اهل": 6176,
      "اوت": 6177,
      "وانك": 6178,
      "##ليز": 6179,
      "فتور": 6180,
      "شيون": 6181,
      "الطفل": 6182,
      "وسه": 6183,
      "احوال": 6184,
      "اسرع": 6185,
      "الكابة": 6186,
      "الكذب": 6187,
      "الكهل": 6188,
      "اعقاب": 6189,
      "اعظم": 6190,
      "استث": 6191,
      "استعداد": 6192,
      "تتنهد": 6193,
      "الزم": 6194,
      "الزجاجة": 6195,
      "محذرا": 6196,
      "##تهام": 6197,
      "يجود": 6198,
      "##ويسكي": 6199,
      "باذن": 6200,
      "الغطاء": 6201,
      "وحس": 6202,
      "تند": 6203,
      "تحلم": 6204,
      "وقدم": 6205,
      "يحفظ": 6206,
      "بلد": 6207,
      "جدية": 6208,
      "بصحبة": 6209,
      "يسترد": 6210,
      "قبلة": 6211,
      "ادخل": 6212,
      "يرغب": 6213,
      "##فقات": 6214,
      "##والد": 6215,
      "وصاحت": 6216,
      "الهزيمة": 6217,
      "رايته": 6218,
      "الظل": 6219,
      "الفترة": 6220,
      "الفتور": 6221,
      "يهون": 6222,
      "يهتم": 6223,
      "##طعام": 6224,
      "والسرور": 6225,
      "جانبي": 6226,
      "صديقي": 6227,
      "تعرفه": 6228,
      "طالب": 6229,
      "جنيه": 6230,
      "تاخذ": 6231,
      "عهده": 6232,
      "قرر": 6233,
      "الجندي": 6234,
      "اعماقها": 6235,
      "الافضل": 6236,
      "تبدا": 6237,
      "يعترف": 6238,
      "خيال": 6239,
      "المغلق": 6240,
      "كاسه": 6241,
      "الملل": 6242,
      "دفعة": 6243,
      "تدعو": 6244,
      "بريية": 6245,
      "صرخة": 6246,
      "يمنة": 6247,
      "سلوكه": 6248,
      "كاتب": 6249,
      "السابقة": 6250,
      "خليقة": 6251,
      "جديرة": 6252,
      "ومحمد": 6253,
      "مناقشة": 6254,
      "##ورنيش": 6255,
      "باعتبار": 6256,
      "اساريره": 6257,
      "اصدقايه": 6258,
      "السياسي": 6259,
      "دحروج": 6260,
      "اخل": 6261,
      "برح": 6262,
      "بطي": 6263,
      "تقيم": 6264,
      "جزع": 6265,
      "روية": 6266,
      "ريق": 6267,
      "زار": 6268,
      "زواجه": 6269,
      "سد": 6270,
      "سكان": 6271,
      "شريف": 6272,
      "صارت": 6273,
      "ظفر": 6274,
      "غر": 6275,
      "فجل": 6276,
      "فامت": 6277,
      "فرفعت": 6278,
      "قيد": 6279,
      "لال": 6280,
      "ملام": 6281,
      "مره": 6282,
      "موقع": 6283,
      "نذهب": 6284,
      "نجد": 6285,
      "يطيق": 6286,
      "١٠": 6287,
      "##تا": 6288,
      "##قوط": 6289,
      "##بدا": 6290,
      "##ييا": 6291,
      "##ممت": 6292,
      "##طو": 6293,
      "##طنة": 6294,
      "##صلا": 6295,
      "##فاد": 6296,
      "##غله": 6297,
      "##غني": 6298,
      "##خا": 6299,
      "##خض": 6300,
      "الذهبي": 6301,
      "اندفع": 6302,
      "الاما": 6303,
      "المبا": 6304,
      "المغل": 6305,
      "المظاهرات": 6306,
      "##ابيع": 6307,
      "الحرارة": 6308,
      "التقل": 6309,
      "التحر": 6310,
      "التسليم": 6311,
      "##باتها": 6312,
      "##ورته": 6313,
      "##عدها": 6314,
      "الشاحب": 6315,
      "##رتنا": 6316,
      "الجهد": 6317,
      "القوي": 6318,
      "وانهم": 6319,
      "النتيجة": 6320,
      "الخم": 6321,
      "الخال": 6322,
      "متجاه": 6323,
      "الصاد": 6324,
      "الده": 6325,
      "احز": 6326,
      "الكشك": 6327,
      "##برته": 6328,
      "اعز": 6329,
      "اعمل": 6330,
      "اعمى": 6331,
      "استعد": 6332,
      "تتحدث": 6333,
      "الانس": 6334,
      "##مالها": 6335,
      "##فارة": 6336,
      "قلقا": 6337,
      "عينيك": 6338,
      "وبن": 6339,
      "باعلى": 6340,
      "ترين": 6341,
      "##اطير": 6342,
      "كالش": 6343,
      "راسا": 6344,
      "يسبق": 6345,
      "##وزة": 6346,
      "##شيش": 6347,
      "##شاعر": 6348,
      "الضاح": 6349,
      "المعين": 6350,
      "وشت": 6351,
      "الاحياء": 6352,
      "ستت": 6353,
      "##بعين": 6354,
      "جلبابه": 6355,
      "مصباح": 6356,
      "خطة": 6357,
      "لعبة": 6358,
      "##حايا": 6359,
      "##املها": 6360,
      "وخديجة": 6361,
      "##زعجا": 6362,
      "وفكر": 6363,
      "يغب": 6364,
      "الفتات": 6365,
      "دعابة": 6366,
      "مكانا": 6367,
      "##اجيل": 6368,
      "نظام": 6369,
      "اختار": 6370,
      "قبضة": 6371,
      "مرتفع": 6372,
      "اطراف": 6373,
      "امرها": 6374,
      "مهلا": 6375,
      "الرحمن": 6376,
      "المشربية": 6377,
      "تركت": 6378,
      "فاتجه": 6379,
      "نسمة": 6380,
      "قرشا": 6381,
      "خاطفة": 6382,
      "عابر": 6383,
      "##طمينان": 6384,
      "لسانها": 6385,
      "ناظري": 6386,
      "فعادت": 6387,
      "واقترب": 6388,
      "مناسب": 6389,
      "ابنايه": 6390,
      "الشكوى": 6391,
      "الاتفاق": 6392,
      "الايسر": 6393,
      "الخروج": 6394,
      "ووقفت": 6395,
      "يايسا": 6396,
      "بجدية": 6397,
      "الفساد": 6398,
      "الذهبية": 6399,
      "باريس": 6400,
      "صباحا": 6401,
      "الجرايد": 6402,
      "مدفوعا": 6403,
      "صغيرا": 6404,
      "اور": 6405,
      "اطلع": 6406,
      "اطلب": 6407,
      "ازداد": 6408,
      "بدر": 6409,
      "بسا": 6410,
      "تطال": 6411,
      "تبلغ": 6412,
      "جوار": 6413,
      "حري": 6414,
      "حذاء": 6415,
      "خبرة": 6416,
      "دامت": 6417,
      "رق": 6418,
      "رن": 6419,
      "راك": 6420,
      "سمارة": 6421,
      "شاي": 6422,
      "شركة": 6423,
      "شعاع": 6424,
      "طبع": 6425,
      "فاب": 6426,
      "قدرية": 6427,
      "كار": 6428,
      "كاف": 6429,
      "مدر": 6430,
      "مريض": 6431,
      "نومه": 6432,
      "هلم": 6433,
      "هزة": 6434,
      "هادية": 6435,
      "وغمغم": 6436,
      "يرك": 6437,
      "يفرق": 6438,
      "يمارس": 6439,
      "##قرار": 6440,
      "##يسر": 6441,
      "##مرت": 6442,
      "##ذرت": 6443,
      "##سول": 6444,
      "##سرت": 6445,
      "##صاح": 6446,
      "##فعل": 6447,
      "##ضرب": 6448,
      "##جو": 6449,
      "##جله": 6450,
      "##غف": 6451,
      "##زته": 6452,
      "##الج": 6453,
      "##ينو": 6454,
      "##رايز": 6455,
      "المعل": 6456,
      "المفر": 6457,
      "المرات": 6458,
      "المدرس": 6459,
      "والقلق": 6460,
      "والغضب": 6461,
      "ماكرة": 6462,
      "واك": 6463,
      "بالضحك": 6464,
      "لمقاب": 6465,
      "وهد": 6466,
      "السادة": 6467,
      "السحب": 6468,
      "العن": 6469,
      "##عدام": 6470,
      "##ايفة": 6471,
      "ثمل": 6472,
      "الشرف": 6473,
      "الشقاء": 6474,
      "الجوع": 6475,
      "الجثة": 6476,
      "##فترق": 6477,
      "معذرة": 6478,
      "##داة": 6479,
      "##دافع": 6480,
      "يتعلق": 6481,
      "يتمتع": 6482,
      "وانق": 6483,
      "##علان": 6484,
      "الصار": 6485,
      "قالوا": 6486,
      "وسرور": 6487,
      "ينعم": 6488,
      "فاجابت": 6489,
      "الكفاية": 6490,
      "اختها": 6491,
      "اخطات": 6492,
      "##فاض": 6493,
      "##لامه": 6494,
      "الغيرة": 6495,
      "وحيد": 6496,
      "وحنق": 6497,
      "تحر": 6498,
      "تحاول": 6499,
      "##فرس": 6500,
      "بحق": 6501,
      "اشرب": 6502,
      "ونف": 6503,
      "يسام": 6504,
      "اهلك": 6505,
      "##وعها": 6506,
      "يسترق": 6507,
      "يستيقظ": 6508,
      "يمس": 6509,
      "##شاش": 6510,
      "بمثله": 6511,
      "ادب": 6512,
      "بسب": 6513,
      "بساطة": 6514,
      "الاسى": 6515,
      "تجعل": 6516,
      "وراءك": 6517,
      "عملك": 6518,
      "##رعية": 6519,
      "يومه": 6520,
      "يفطن": 6521,
      "سيي": 6522,
      "خطبة": 6523,
      "الهجرة": 6524,
      "تدخل": 6525,
      "تدفع": 6526,
      "فرن": 6527,
      "صاحبها": 6528,
      "وخطر": 6529,
      "الراحل": 6530,
      "##رامته": 6531,
      "المحطة": 6532,
      "عزاء": 6533,
      "فرايت": 6534,
      "تخيل": 6535,
      "وغضب": 6536,
      "الاعجاب": 6537,
      "حملت": 6538,
      "سمعه": 6539,
      "صفوت": 6540,
      "صفوه": 6541,
      "##زيون": 6542,
      "وثبت": 6543,
      "الحلوى": 6544,
      "حديثا": 6545,
      "بالسعادة": 6546,
      "هدية": 6547,
      "عيون": 6548,
      "تريدين": 6549,
      "واحيانا": 6550,
      "بالعمل": 6551,
      "##ذيذ": 6552,
      "ازمة": 6553,
      "الجنس": 6554,
      "عدد": 6555,
      "خفيف": 6556,
      "حزنه": 6557,
      "راحته": 6558,
      "موضعه": 6559,
      "المقام": 6560,
      "الهادي": 6561,
      "الجلباب": 6562,
      "باستياء": 6563,
      "الازهر": 6564,
      "سريعا": 6565,
      "مليية": 6566,
      "فواده": 6567,
      "الابتدايية": 6568,
      "مطلقة": 6569,
      "الجانبين": 6570,
      "النشاط": 6571,
      "تسمح": 6572,
      "كهذا": 6573,
      "يلتفت": 6574,
      "الليالي": 6575,
      "مذهلة": 6576,
      "حانقا": 6577,
      "جالسا": 6578,
      "المقابلة": 6579,
      "الواجب": 6580,
      "بقوله": 6581,
      "ساقيه": 6582,
      "كالمعتذر": 6583,
      "مجموعة": 6584,
      "وفضلا": 6585,
      "ايد": 6586,
      "ارح": 6587,
      "اره": 6588,
      "بفر": 6589,
      "تمن": 6590,
      "جعله": 6591,
      "جماعة": 6592,
      "حجرت": 6593,
      "خذ": 6594,
      "خادم": 6595,
      "دلت": 6596,
      "دعي": 6597,
      "رسمية": 6598,
      "زيا": 6599,
      "زقاق": 6600,
      "سفر": 6601,
      "سنه": 6602,
      "ستي": 6603,
      "سيارته": 6604,
      "شجا": 6605,
      "شامل": 6606,
      "شانه": 6607,
      "شحات": 6608,
      "صالح": 6609,
      "طعم": 6610,
      "طيبا": 6611,
      "عك": 6612,
      "عودة": 6613,
      "عطفة": 6614,
      "عودته": 6615,
      "عتبة": 6616,
      "غاص": 6617,
      "فذه": 6618,
      "فزع": 6619,
      "فطال": 6620,
      "فقهقه": 6621,
      "كش": 6622,
      "كرم": 6623,
      "ليد": 6624,
      "مكر": 6625,
      "موه": 6626,
      "نية": 6627,
      "هواه": 6628,
      "وضا": 6629,
      "وقلق": 6630,
      "يزداد": 6631,
      "ياتي": 6632,
      "##اين": 6633,
      "##لما": 6634,
      "##طاني": 6635,
      "##صبح": 6636,
      "##جات": 6637,
      "##شاد": 6638,
      "##غض": 6639,
      "##غما": 6640,
      "##غاء": 6641,
      "##زول": 6642,
      "##هارة": 6643,
      "انور": 6644,
      "انسى": 6645,
      "##رابا": 6646,
      "الموم": 6647,
      "المصر": 6648,
      "علوان": 6649,
      "والامل": 6650,
      "والدم": 6651,
      "##ابها": 6652,
      "واقبل": 6653,
      "بالغضب": 6654,
      "##يهة": 6655,
      "العريض": 6656,
      "التش": 6657,
      "وتر": 6658,
      "وتلا": 6659,
      "وتبادل": 6660,
      "الشفاء": 6661,
      "الشاطي": 6662,
      "امان": 6663,
      "املا": 6664,
      "##اتك": 6665,
      "الجا": 6666,
      "الجملة": 6667,
      "##وقفه": 6668,
      "##فتي": 6669,
      "معالم": 6670,
      "ابر": 6671,
      "يتاح": 6672,
      "يتنهد": 6673,
      "ياكل": 6674,
      "الخفي": 6675,
      "الخاص": 6676,
      "##يفي": 6677,
      "الصافية": 6678,
      "الفك": 6679,
      "##قاذ": 6680,
      "ومرت": 6681,
      "فتن": 6682,
      "ايق": 6683,
      "فاغ": 6684,
      "اسن": 6685,
      "اساء": 6686,
      "##وفي": 6687,
      "##بتين": 6688,
      "وعبد": 6689,
      "##بدى": 6690,
      "الانا": 6691,
      "اخطر": 6692,
      "امامي": 6693,
      "وقامت": 6694,
      "وحدي": 6695,
      "بنظ": 6696,
      "الرجلين": 6697,
      "يحق": 6698,
      "يحظى": 6699,
      "جدار": 6700,
      "يستقبل": 6701,
      "##ساير": 6702,
      "##ذكريات": 6703,
      "##شاق": 6704,
      "اجن": 6705,
      "يقين": 6706,
      "المارة": 6707,
      "كثرة": 6708,
      "والاش": 6709,
      "جميلا": 6710,
      "مصادفة": 6711,
      "فسرعان": 6712,
      "تشير": 6713,
      "بتح": 6714,
      "جاءه": 6715,
      "##لاءتها": 6716,
      "المحم": 6717,
      "زوجك": 6718,
      "كلاهما": 6719,
      "الباكر": 6720,
      "بعضهم": 6721,
      "سنجام": 6722,
      "المسكن": 6723,
      "بالحقيقة": 6724,
      "##طمح": 6725,
      "فنظرت": 6726,
      "تهز": 6727,
      "اختيا": 6728,
      "##اقبة": 6729,
      "المصير": 6730,
      "يعرفها": 6731,
      "بطبيعة": 6732,
      "حلما": 6733,
      "الحسيني": 6734,
      "فضرب": 6735,
      "بالنسبة": 6736,
      "وابراهيم": 6737,
      "اهلها": 6738,
      "يدعوه": 6739,
      "نظره": 6740,
      "طريقة": 6741,
      "بالقوة": 6742,
      "خبريني": 6743,
      "تغيرت": 6744,
      "قاسم": 6745,
      "تمتد": 6746,
      "مليء": 6747,
      "فقطب": 6748,
      "الفندق": 6749,
      "لديك": 6750,
      "اجتاح": 6751,
      "السابعة": 6752,
      "عواطفه": 6753,
      "اعلان": 6754,
      "ووجهه": 6755,
      "الغامضة": 6756,
      "الامتحان": 6757,
      "المفاجاة": 6758,
      "جبينه": 6759,
      "##ياطين": 6760,
      "انتباهه": 6761,
      "درجات": 6762,
      "القناطر": 6763,
      "سبيلا": 6764,
      "سوسن": 6765,
      "التلاميذ": 6766,
      "شحاتة": 6767,
      "ارد": 6768,
      "افر": 6769,
      "باف": 6770,
      "ببعض": 6771,
      "جع": 6772,
      "جهد": 6773,
      "حانة": 6774,
      "حرية": 6775,
      "حاكم": 6776,
      "خدم": 6777,
      "سخر": 6778,
      "سماع": 6779,
      "سراي": 6780,
      "صدى": 6781,
      "ضحية": 6782,
      "ضخم": 6783,
      "طاب": 6784,
      "عمال": 6785,
      "فوج": 6786,
      "كرة": 6787,
      "كشف": 6788,
      "لطف": 6789,
      "لغير": 6790,
      "ميل": 6791,
      "مهمة": 6792,
      "ناج": 6793,
      "هف": 6794,
      "ونت": 6795,
      "وشي": 6796,
      "وزن": 6797,
      "وخرج": 6798,
      "يواجه": 6799,
      "يبعث": 6800,
      "يوكد": 6801,
      "يظفر": 6802,
      "##تز": 6803,
      "##قان": 6804,
      "##بري": 6805,
      "##دون": 6806,
      "##دفق": 6807,
      "##يوان": 6808,
      "##طوع": 6809,
      "##طورة": 6810,
      "##سيا": 6811,
      "##ثما": 6812,
      "##عية": 6813,
      "##شات": 6814,
      "##خفي": 6815,
      "##زون": 6816,
      "انكر": 6817,
      "##راره": 6818,
      "الامة": 6819,
      "الاشتراك": 6820,
      "##نافس": 6821,
      "##اركا": 6822,
      "والمد": 6823,
      "والمن": 6824,
      "الحيلة": 6825,
      "##ريث": 6826,
      "##ريفة": 6827,
      "##لمه": 6828,
      "وهرع": 6829,
      "السقف": 6830,
      "العادة": 6831,
      "التاس": 6832,
      "##باته": 6833,
      "##ايين": 6834,
      "##همه": 6835,
      "وتحد": 6836,
      "وتحت": 6837,
      "وترد": 6838,
      "الجالس": 6839,
      "##دايا": 6840,
      "##اهب": 6841,
      "وجرت": 6842,
      "البرق": 6843,
      "الربيع": 6844,
      "الخي": 6845,
      "فتفكر": 6846,
      "الطبيعية": 6847,
      "الطبيعي": 6848,
      "احاط": 6849,
      "احمق": 6850,
      "للط": 6851,
      "استه": 6852,
      "اسفا": 6853,
      "##برني": 6854,
      "اعود": 6855,
      "استياء": 6856,
      "استقبل": 6857,
      "استقرت": 6858,
      "عليكم": 6859,
      "الزباين": 6860,
      "اخشى": 6861,
      "وقته": 6862,
      "##هرع": 6863,
      "##يبك": 6864,
      "##يبته": 6865,
      "اتزوج": 6866,
      "بحياة": 6867,
      "بحيث": 6868,
      "كالا": 6869,
      "اصيل": 6870,
      "يمين": 6871,
      "##مانين": 6872,
      "افلت": 6873,
      "تجن": 6874,
      "عبدون": 6875,
      "الضوء": 6876,
      "فوقف": 6877,
      "مسك": 6878,
      "##وكب": 6879,
      "مصم": 6880,
      "##ضبط": 6881,
      "##فهوم": 6882,
      "##ولاتة": 6883,
      "وحدته": 6884,
      "ارتاح": 6885,
      "يصنع": 6886,
      "##رامية": 6887,
      "الاستطلاع": 6888,
      "المحقق": 6889,
      "حاول": 6890,
      "الفتيات": 6891,
      "صفاء": 6892,
      "اغت": 6893,
      "مخيلته": 6894,
      "والسعادة": 6895,
      "المستشفى": 6896,
      "اخترت": 6897,
      "صديقا": 6898,
      "الحلال": 6899,
      "عمرها": 6900,
      "ابنته": 6901,
      "ويتساءل": 6902,
      "بالسلامة": 6903,
      "نفعل": 6904,
      "اسمها": 6905,
      "حلوة": 6906,
      "سلوى": 6907,
      "##طباء": 6908,
      "بعينيها": 6909,
      "الخطوة": 6910,
      "بالنظر": 6911,
      "المناسبة": 6912,
      "وهمست": 6913,
      "نظرته": 6914,
      "الالام": 6915,
      "حزين": 6916,
      "راحتها": 6917,
      "والجمال": 6918,
      "صديقنا": 6919,
      "اعداء": 6920,
      "فخفق": 6921,
      "المخبر": 6922,
      "زبون": 6923,
      "وتحول": 6924,
      "معتذرا": 6925,
      "عفريت": 6926,
      "ظهور": 6927,
      "السكرية": 6928,
      "كبرياء": 6929,
      "مجنونة": 6930,
      "اضطراب": 6931,
      "مقاومة": 6932,
      "بادب": 6933,
      "ماضيه": 6934,
      "ضعيف": 6935,
      "ليرى": 6936,
      "مقطبا": 6937,
      "حاجبيها": 6938,
      "مظهره": 6939,
      "المعبودة": 6940,
      "الحجرات": 6941,
      "يعلو": 6942,
      "التمثيل": 6943,
      "الثقيل": 6944,
      "العميق": 6945,
      "سهرته": 6946,
      "فوزي": 6947,
      "قمقام": 6948,
      "افاق": 6949,
      "بطل": 6950,
      "تقطع": 6951,
      "جرح": 6952,
      "جنيها": 6953,
      "جنيهات": 6954,
      "خيبة": 6955,
      "دعت": 6956,
      "رقيق": 6957,
      "زفاف": 6958,
      "شبابه": 6959,
      "ضد": 6960,
      "طار": 6961,
      "عذب": 6962,
      "فغمغم": 6963,
      "قار": 6964,
      "قريبة": 6965,
      "كدت": 6966,
      "مجا": 6967,
      "نار": 6968,
      "ناس": 6969,
      "ناط": 6970,
      "نشر": 6971,
      "ودق": 6972,
      "يقبض": 6973,
      "١٥": 6974,
      "##رحت": 6975,
      "##بو": 6976,
      "##يسة": 6977,
      "##هي": 6978,
      "##ملا": 6979,
      "##نوط": 6980,
      "##جين": 6981,
      "##جبا": 6982,
      "##شوق": 6983,
      "##شرب": 6984,
      "الدرس": 6985,
      "##انس": 6986,
      "انقبض": 6987,
      "انقلبت": 6988,
      "##رايا": 6989,
      "الاكل": 6990,
      "الممر": 6991,
      "المدر": 6992,
      "المقص": 6993,
      "الموافقة": 6994,
      "##ناقض": 6995,
      "##ارى": 6996,
      "والاد": 6997,
      "لات": 6998,
      "##ستي": 6999,
      "السنين": 7000,
      "العدل": 7001,
      "##عدم": 7002,
      "##قدا": 7003,
      "الشرك": 7004,
      "الشبان": 7005,
      "الجاه": 7006,
      "الجسد": 7007,
      "الجيزة": 7008,
      "القي": 7009,
      "القايمة": 7010,
      "معان": 7011,
      "ابنة": 7012,
      "وجدي": 7013,
      "وجده": 7014,
      "البط": 7015,
      "الرمال": 7016,
      "الرءوس": 7017,
      "الخفية": 7018,
      "متبا": 7019,
      "متتاب": 7020,
      "الصد": 7021,
      "الفقر": 7022,
      "فتت": 7023,
      "ولست": 7024,
      "##ملها": 7025,
      "##ملته": 7026,
      "الدواء": 7027,
      "##افح": 7028,
      "وساء": 7029,
      "وسعه": 7030,
      "ينذر": 7031,
      "ينطلق": 7032,
      "ايوب": 7033,
      "فازداد": 7034,
      "اساس": 7035,
      "الكه": 7036,
      "الكورنيش": 7037,
      "##وفان": 7038,
      "استقب": 7039,
      "##راءات": 7040,
      "تتحقق": 7041,
      "تعجب": 7042,
      "تعبير": 7043,
      "الغبار": 7044,
      "حسبي": 7045,
      "ويق": 7046,
      "##وبها": 7047,
      "يحرك": 7048,
      "وندت": 7049,
      "النادي": 7050,
      "النارجيلة": 7051,
      "##رحمة": 7052,
      "اهي": 7053,
      "وكاد": 7054,
      "##مهور": 7055,
      "الثمن": 7056,
      "الثياب": 7057,
      "##صلحة": 7058,
      "بدلة": 7059,
      "بمفرد": 7060,
      "اجله": 7061,
      "##عيش": 7062,
      "المعجزة": 7063,
      "راجع": 7064,
      "جليل": 7065,
      "اقصد": 7066,
      "##تفض": 7067,
      "##تفكير": 7068,
      "عاود": 7069,
      "تشهد": 7070,
      "##ادرها": 7071,
      "وحدث": 7072,
      "الاخبار": 7073,
      "المدع": 7074,
      "فهمس": 7075,
      "الابدي": 7076,
      "##ضحية": 7077,
      "سمح": 7078,
      "وجدانه": 7079,
      "نظرتها": 7080,
      "اختيار": 7081,
      "بجراة": 7082,
      "بجنون": 7083,
      "بالاض": 7084,
      "للاسف": 7085,
      "الفراق": 7086,
      "المناق": 7087,
      "محترم": 7088,
      "والشراب": 7089,
      "يهمس": 7090,
      "الملايين": 7091,
      "شعورها": 7092,
      "لسانك": 7093,
      "الاشجار": 7094,
      "يوثر": 7095,
      "جلسته": 7096,
      "الداخلية": 7097,
      "لصق": 7098,
      "بالدور": 7099,
      "الاركان": 7100,
      "تمتمت": 7101,
      "مليما": 7102,
      "صورتها": 7103,
      "الاثاث": 7104,
      "رشيدة": 7105,
      "الابتسام": 7106,
      "معدودات": 7107,
      "نعيش": 7108,
      "صرخ": 7109,
      "##طايرت": 7110,
      "اللاتي": 7111,
      "السمعة": 7112,
      "توقعت": 7113,
      "بقليل": 7114,
      "زهيرة": 7115,
      "انتظاره": 7116,
      "المحبوب": 7117,
      "انقطاع": 7118,
      "اللطيف": 7119,
      "علاقته": 7120,
      "الجزار": 7121,
      "يلهث": 7122,
      "متمهلا": 7123,
      "اجر": 7124,
      "اكره": 7125,
      "اعلن": 7126,
      "بسم": 7127,
      "بخل": 7128,
      "تام": 7129,
      "تصر": 7130,
      "تامل": 7131,
      "تغيير": 7132,
      "جماع": 7133,
      "جولي": 7134,
      "حلت": 7135,
      "حوار": 7136,
      "دوره": 7137,
      "سكت": 7138,
      "سكون": 7139,
      "شاع": 7140,
      "صراخ": 7141,
      "ضجة": 7142,
      "ضبط": 7143,
      "طع": 7144,
      "طاق": 7145,
      "عريضة": 7146,
      "غناء": 7147,
      "فوجدت": 7148,
      "قمة": 7149,
      "قايم": 7150,
      "كون": 7151,
      "لث": 7152,
      "لسبب": 7153,
      "مان": 7154,
      "مراة": 7155,
      "ماري": 7156,
      "يال": 7157,
      "يرفض": 7158,
      "١١": 7159,
      "##ازة": 7160,
      "##لقي": 7161,
      "##لفة": 7162,
      "##نكار": 7163,
      "##حول": 7164,
      "##صان": 7165,
      "##كوت": 7166,
      "##ضمن": 7167,
      "##جف": 7168,
      "##جرا": 7169,
      "##جور": 7170,
      "##جذب": 7171,
      "##خبط": 7172,
      "##خابات": 7173,
      "الذهول": 7174,
      "اللتين": 7175,
      "الوعي": 7176,
      "##انب": 7177,
      "##ماغ": 7178,
      "##ماته": 7179,
      "##لاج": 7180,
      "الاعيان": 7181,
      "المودة": 7182,
      "المالية": 7183,
      "##ياضة": 7184,
      "والمت": 7185,
      "والياس": 7186,
      "##ابعت": 7187,
      "لاخ": 7188,
      "##ستر": 7189,
      "الحرام": 7190,
      "بالجد": 7191,
      "بالامر": 7192,
      "لمع": 7193,
      "السرعة": 7194,
      "السندباد": 7195,
      "التاثر": 7196,
      "##ديت": 7197,
      "##ديها": 7198,
      "##ايز": 7199,
      "##حدى": 7200,
      "وتقول": 7201,
      "اموال": 7202,
      "امثال": 7203,
      "الجبل": 7204,
      "الجبار": 7205,
      "الجهل": 7206,
      "##ودك": 7207,
      "##احبه": 7208,
      "ابوها": 7209,
      "وانني": 7210,
      "البني": 7211,
      "الرعب": 7212,
      "النهر": 7213,
      "الخليل": 7214,
      "##مرد": 7215,
      "##علها": 7216,
      "الصبي": 7217,
      "ومص": 7218,
      "فتوة": 7219,
      "الطلاق": 7220,
      "وسل": 7221,
      "فاز": 7222,
      "اسنان": 7223,
      "الكدر": 7224,
      "استطاع": 7225,
      "وعقب": 7226,
      "تتوقع": 7227,
      "اخفاء": 7228,
      "اللهو": 7229,
      "تعب": 7230,
      "محام": 7231,
      "هوى": 7232,
      "يعيد": 7233,
      "يعبر": 7234,
      "باغ": 7235,
      "الغيظ": 7236,
      "حسبك": 7237,
      "ويص": 7238,
      "وحق": 7239,
      "عندها": 7240,
      "تنطلق": 7241,
      "تحل": 7242,
      "بنبرات": 7243,
      "##قبته": 7244,
      "اتم": 7245,
      "اترك": 7246,
      "اتساءل": 7247,
      "##وحشة": 7248,
      "اشفاق": 7249,
      "لكي": 7250,
      "##اكل": 7251,
      "اصله": 7252,
      "بصراحة": 7253,
      "يستح": 7254,
      "##وزارة": 7255,
      "بمح": 7256,
      "يره": 7257,
      "مستحيل": 7258,
      "الضجر": 7259,
      "##نهدا": 7260,
      "المعرفة": 7261,
      "عمرك": 7262,
      "وشد": 7263,
      "##دهور": 7264,
      "اقر": 7265,
      "الامراء": 7266,
      "رايتك": 7267,
      "فرص": 7268,
      "##ولات": 7269,
      "بتوسل": 7270,
      "والموت": 7271,
      "والتح": 7272,
      "##غيث": 7273,
      "فلاحت": 7274,
      "وانتبه": 7275,
      "فراش": 7276,
      "خلف": 7277,
      "فصمت": 7278,
      "يعرفون": 7279,
      "مغامرة": 7280,
      "ساخطا": 7281,
      "الخطيرة": 7282,
      "تركه": 7283,
      "نعود": 7284,
      "واتخذ": 7285,
      "بالصبر": 7286,
      "المالوفة": 7287,
      "فجعل": 7288,
      "التحدي": 7289,
      "خدها": 7290,
      "ضرورة": 7291,
      "بوجهه": 7292,
      "زميل": 7293,
      "اجتماع": 7294,
      "مختلف": 7295,
      "عظيمة": 7296,
      "##صافحا": 7297,
      "قبضته": 7298,
      "فايقة": 7299,
      "##تهتار": 7300,
      "الضرورة": 7301,
      "##غاريد": 7302,
      "الاختفاء": 7303,
      "وفاة": 7304,
      "المعهودة": 7305,
      "مطمينة": 7306,
      "مطمينا": 7307,
      "الياسمين": 7308,
      "ادرى": 7309,
      "قادما": 7310,
      "الغليظ": 7311,
      "وترامت": 7312,
      "اصحابه": 7313,
      "الراهنة": 7314,
      "مرجان": 7315,
      "وسهلا": 7316,
      "المغلقة": 7317,
      "يسامحك": 7318,
      "اكر": 7319,
      "افتح": 7320,
      "اطلق": 7321,
      "بره": 7322,
      "تعلن": 7323,
      "جوه": 7324,
      "جارية": 7325,
      "حية": 7326,
      "حرب": 7327,
      "خبير": 7328,
      "درية": 7329,
      "زاد": 7330,
      "سوق": 7331,
      "شاه": 7332,
      "طربوشه": 7333,
      "ظاهر": 7334,
      "فتى": 7335,
      "فمر": 7336,
      "فسا": 7337,
      "فذهب": 7338,
      "قمي": 7339,
      "كام": 7340,
      "محدث": 7341,
      "مدرس": 7342,
      "ملهى": 7343,
      "هبط": 7344,
      "وبي": 7345,
      "وبات": 7346,
      "يطرق": 7347,
      "١٤": 7348,
      "##بطة": 7349,
      "##درة": 7350,
      "##اعدا": 7351,
      "##نز": 7352,
      "##حون": 7353,
      "##سال": 7354,
      "##سلي": 7355,
      "##ثرت": 7356,
      "##عق": 7357,
      "##كام": 7358,
      "##فرت": 7359,
      "##فهر": 7360,
      "##جال": 7361,
      "##شوات": 7362,
      "##شونة": 7363,
      "##زمت": 7364,
      "##زنه": 7365,
      "انزعاج": 7366,
      "فيلم": 7367,
      "المجا": 7368,
      "المحكمة": 7369,
      "##يابها": 7370,
      "والناس": 7371,
      "لاذ": 7372,
      "##ستقرا": 7373,
      "##يرك": 7374,
      "عنف": 7375,
      "وازد": 7376,
      "بالاص": 7377,
      "##امع": 7378,
      "السودا": 7379,
      "العسل": 7380,
      "التوبة": 7381,
      "##عدني": 7382,
      "##قده": 7383,
      "امنة": 7384,
      "امونة": 7385,
      "##وقت": 7386,
      "القرب": 7387,
      "القاسية": 7388,
      "##وجي": 7389,
      "##ودية": 7390,
      "##كنون": 7391,
      "##داعي": 7392,
      "ابحث": 7393,
      "يتج": 7394,
      "يتوقف": 7395,
      "يتحقق": 7396,
      "الرزق": 7397,
      "الخيبة": 7398,
      "الخلف": 7399,
      "الخاطر": 7400,
      "##وتين": 7401,
      "الفواد": 7402,
      "بهيجة": 7403,
      "فتر": 7404,
      "الدرب": 7405,
      "الدولة": 7406,
      "وسلم": 7407,
      "احبه": 7408,
      "للب": 7409,
      "اسماء": 7410,
      "الكرة": 7411,
      "اعيش": 7412,
      "استقل": 7413,
      "##رددة": 7414,
      "وعينا": 7415,
      "##راءت": 7416,
      "##فيذ": 7417,
      "تتطلع": 7418,
      "الزعيم": 7419,
      "اختك": 7420,
      "اللهجة": 7421,
      "تعاني": 7422,
      "محس": 7423,
      "##فاة": 7424,
      "حسرة": 7425,
      "اللحم": 7426,
      "اللذين": 7427,
      "ويجب": 7428,
      "ولكنهما": 7429,
      "قدرة": 7430,
      "##وحا": 7431,
      "يحبها": 7432,
      "يحضر": 7433,
      "كالر": 7434,
      "كالس": 7435,
      "جده": 7436,
      "##اكد": 7437,
      "##اكي": 7438,
      "##ياتك": 7439,
      "الناظر": 7440,
      "يسيرة": 7441,
      "بمس": 7442,
      "بمدرسة": 7443,
      "افراد": 7444,
      "الاسر": 7445,
      "الاسف": 7446,
      "يرمق": 7447,
      "لتت": 7448,
      "اذني": 7449,
      "وددت": 7450,
      "ودارت": 7451,
      "وشك": 7452,
      "وشهد": 7453,
      "انكار": 7454,
      "راضيا": 7455,
      "مصدر": 7456,
      "الهتاف": 7457,
      "رايعة": 7458,
      "بتسليم": 7459,
      "يصدر": 7460,
      "ورم": 7461,
      "الاستقلال": 7462,
      "##سلى": 7463,
      "ذهل": 7464,
      "ذهوله": 7465,
      "يغضب": 7466,
      "والعشرين": 7467,
      "مرس": 7468,
      "مكانها": 7469,
      "ملحوظ": 7470,
      "تهكم": 7471,
      "قصدت": 7472,
      "عادته": 7473,
      "فعلا": 7474,
      "فالقى": 7475,
      "فاستطرد": 7476,
      "السلطانة": 7477,
      "بطنه": 7478,
      "سلطان": 7479,
      "المعلمين": 7480,
      "انتهيت": 7481,
      "##بالاة": 7482,
      "واسماعيل": 7483,
      "عرفته": 7484,
      "البلخي": 7485,
      "طريقا": 7486,
      "قتلت": 7487,
      "يهمك": 7488,
      "صديقك": 7489,
      "##وذن": 7490,
      "عزيزة": 7491,
      "فارق": 7492,
      "الحدود": 7493,
      "جنوني": 7494,
      "خصوصا": 7495,
      "##راقبة": 7496,
      "سالني": 7497,
      "##راجعة": 7498,
      "بالفعل": 7499,
      "مخاطبة": 7500,
      "توافق": 7501,
      "تواخذ": 7502,
      "وجوههم": 7503,
      "الدعابة": 7504,
      "مرارا": 7505,
      "شريك": 7506,
      "الممكن": 7507,
      "النظام": 7508,
      "حركته": 7509,
      "المقاعد": 7510,
      "للدفاع": 7511,
      "الكثيرين": 7512,
      "انفعاله": 7513,
      "الخضراء": 7514,
      "يستهان": 7515,
      "جاوزت": 7516,
      "الثلاثين": 7517,
      "ثابتة": 7518,
      "السرايات": 7519,
      "مفعمة": 7520,
      "الرهيب": 7521,
      "الاجتماعية": 7522,
      "التاكسي": 7523,
      "العتيق": 7524,
      "البوابة": 7525,
      "العاطفة": 7526,
      "متوسطة": 7527,
      "فجلست": 7528,
      "التاسعة": 7529,
      "برق": 7530,
      "بزوج": 7531,
      "بامر": 7532,
      "برفق": 7533,
      "تبت": 7534,
      "تمد": 7535,
      "تمس": 7536,
      "تورد": 7537,
      "ثوان": 7538,
      "جي": 7539,
      "حرج": 7540,
      "حنان": 7541,
      "خلت": 7542,
      "دارت": 7543,
      "رع": 7544,
      "راب": 7545,
      "رقي": 7546,
      "ريري": 7547,
      "رعاية": 7548,
      "زا": 7549,
      "شرا": 7550,
      "شهادة": 7551,
      "صينية": 7552,
      "ضجر": 7553,
      "طارية": 7554,
      "فدا": 7555,
      "فقل": 7556,
      "فوض": 7557,
      "فوره": 7558,
      "فورا": 7559,
      "فغمغمت": 7560,
      "قم": 7561,
      "قلا": 7562,
      "قادم": 7563,
      "كرس": 7564,
      "كشك": 7565,
      "ليه": 7566,
      "مبر": 7567,
      "مقدم": 7568,
      "مالك": 7569,
      "نفي": 7570,
      "ناع": 7571,
      "نطقت": 7572,
      "هامة": 7573,
      "هالة": 7574,
      "هزت": 7575,
      "وطن": 7576,
      "يرا": 7577,
      "يرف": 7578,
      "يفيق": 7579,
      "يوحي": 7580,
      "##بون": 7581,
      "##مني": 7582,
      "##وجل": 7583,
      "##ويت": 7584,
      "##ثمان": 7585,
      "##صله": 7586,
      "##صلت": 7587,
      "##ظته": 7588,
      "##جبة": 7589,
      "##غى": 7590,
      "##غال": 7591,
      "##زعه": 7592,
      "اللام": 7593,
      "الضي": 7594,
      "الوجد": 7595,
      "انز": 7596,
      "##مادى": 7597,
      "##لاع": 7598,
      "الاط": 7599,
      "الاض": 7600,
      "المخل": 7601,
      "المثال": 7602,
      "علبة": 7603,
      "##اربه": 7604,
      "والاف": 7605,
      "والاط": 7606,
      "والشر": 7607,
      "والارض": 7608,
      "واليوم": 7609,
      "ماز": 7610,
      "##واتها": 7611,
      "واجت": 7612,
      "بالمد": 7613,
      "بالمس": 7614,
      "بالغة": 7615,
      "##ريزة": 7616,
      "##امله": 7617,
      "السماعة": 7618,
      "العجب": 7619,
      "العامل": 7620,
      "العكس": 7621,
      "##باحة": 7622,
      "##وريا": 7623,
      "##ايك": 7624,
      "ثمرة": 7625,
      "وتبعه": 7626,
      "الشكر": 7627,
      "امنا": 7628,
      "##وقي": 7629,
      "القوى": 7630,
      "##فتك": 7631,
      "##فتين": 7632,
      "##وجس": 7633,
      "معهم": 7634,
      "##داية": 7635,
      "##ومية": 7636,
      "##احبة": 7637,
      "##خروج": 7638,
      "##رفته": 7639,
      "البق": 7640,
      "النض": 7641,
      "النقي": 7642,
      "##ربص": 7643,
      "الخجل": 7644,
      "الخاط": 7645,
      "##وتة": 7646,
      "متمت": 7647,
      "مترن": 7648,
      "متنهدا": 7649,
      "الفرد": 7650,
      "الفزع": 7651,
      "##قاش": 7652,
      "ومست": 7653,
      "ولل": 7654,
      "اليمين": 7655,
      "كلب": 7656,
      "ينف": 7657,
      "ينفذ": 7658,
      "اسير": 7659,
      "الكواء": 7660,
      "اعياء": 7661,
      "##ميس": 7662,
      "استغل": 7663,
      "استحق": 7664,
      "تتابع": 7665,
      "بعطف": 7666,
      "الزين": 7667,
      "الانزعاج": 7668,
      "##ماله": 7669,
      "##مالات": 7670,
      "يعبث": 7671,
      "وقط": 7672,
      "وقرر": 7673,
      "يجيب": 7674,
      "يجهل": 7675,
      "باق": 7676,
      "باحد": 7677,
      "باعين": 7678,
      "حسنا": 7679,
      "حسونة": 7680,
      "اللف": 7681,
      "وحن": 7682,
      "وحياة": 7683,
      "تنقطع": 7684,
      "تحا": 7685,
      "اخرون": 7686,
      "اشارة": 7687,
      "اشكرك": 7688,
      "يحيا": 7689,
      "يحول": 7690,
      "بلطف": 7691,
      "جدير": 7692,
      "ونظرة": 7693,
      "##رحيب": 7694,
      "يسكن": 7695,
      "يستقر": 7696,
      "يستسلم": 7697,
      "بلاد": 7698,
      "الثراء": 7699,
      "الثقافة": 7700,
      "بمجلس": 7701,
      "الاستهانة": 7702,
      "تجود": 7703,
      "لتكن": 7704,
      "تفقد": 7705,
      "وشرب": 7706,
      "مصاب": 7707,
      "سيية": 7708,
      "تحتمل": 7709,
      "الهند": 7710,
      "لعلي": 7711,
      "الظنون": 7712,
      "يخوض": 7713,
      "اعتبر": 7714,
      "واستد": 7715,
      "واستح": 7716,
      "تستقر": 7717,
      "ارتك": 7718,
      "صوتك": 7719,
      "##جيال": 7720,
      "جمعت": 7721,
      "بشخص": 7722,
      "شعورا": 7723,
      "##فكرة": 7724,
      "بجسمه": 7725,
      "سبيلها": 7726,
      "مجلسها": 7727,
      "باهتة": 7728,
      "بطرف": 7729,
      "الساخرة": 7730,
      "امتعاض": 7731,
      "تخلق": 7732,
      "##ذيان": 7733,
      "الافراح": 7734,
      "يحتاج": 7735,
      "الانجليزي": 7736,
      "الملابس": 7737,
      "تلاشت": 7738,
      "##جزات": 7739,
      "ضربة": 7740,
      "لنفسك": 7741,
      "الازهار": 7742,
      "تقترب": 7743,
      "المهيني": 7744,
      "النحيل": 7745,
      "غمضة": 7746,
      "انسيت": 7747,
      "تذكرت": 7748,
      "الاغنياء": 7749,
      "الارتياح": 7750,
      "الاحدب": 7751,
      "المزاح": 7752,
      "وامتلا": 7753,
      "سحابة": 7754,
      "كهذه": 7755,
      "مبعدة": 7756,
      "اعلنت": 7757,
      "##ضاعفة": 7758,
      "موسى": 7759,
      "انفعالا": 7760,
      "جزء": 7761,
      "ذهابه": 7762,
      "الجرسون": 7763,
      "العبادة": 7764,
      "احسنت": 7765,
      "العفاريت": 7766,
      "راحتيه": 7767,
      "موظفا": 7768,
      "تفكيره": 7769,
      "التفاتة": 7770,
      "فقاطعه": 7771,
      "الدهليز": 7772,
      "ايهما": 7773,
      "بور": 7774,
      "بوق": 7775,
      "بغل": 7776,
      "تجا": 7777,
      "تقاليد": 7778,
      "تبكي": 7779,
      "تاركا": 7780,
      "ثار": 7781,
      "ثياب": 7782,
      "جذب": 7783,
      "جسد": 7784,
      "حير": 7785,
      "خض": 7786,
      "خفة": 7787,
      "دفا": 7788,
      "رص": 7789,
      "رقص": 7790,
      "سان": 7791,
      "ساك": 7792,
      "سينما": 7793,
      "صراحة": 7794,
      "صندوق": 7795,
      "طبيعية": 7796,
      "ظنون": 7797,
      "ظاهرة": 7798,
      "عيد": 7799,
      "عجل": 7800,
      "غنى": 7801,
      "غبار": 7802,
      "غرابة": 7803,
      "فدع": 7804,
      "فكره": 7805,
      "قانون": 7806,
      "كفى": 7807,
      "لوح": 7808,
      "ملق": 7809,
      "موث": 7810,
      "مجلة": 7811,
      "نسمع": 7812,
      "نطاق": 7813,
      "همه": 7814,
      "وطر": 7815,
      "يجل": 7816,
      "يهد": 7817,
      "يضيق": 7818,
      "يفسد": 7819,
      "١٣": 7820,
      "##رسل": 7821,
      "##قش": 7822,
      "##قامة": 7823,
      "##بعد": 7824,
      "##ديا": 7825,
      "##ديه": 7826,
      "##ييها": 7827,
      "##مية": 7828,
      "##مول": 7829,
      "##اض": 7830,
      "##اعد": 7831,
      "##وير": 7832,
      "##وون": 7833,
      "##وبر": 7834,
      "##ذكرت": 7835,
      "##حار": 7836,
      "##سلت": 7837,
      "##ثى": 7838,
      "##ثها": 7839,
      "##عاب": 7840,
      "##عيه": 7841,
      "##كاء": 7842,
      "##ظرك": 7843,
      "##ضعة": 7844,
      "##جري": 7845,
      "##جمة": 7846,
      "##خرت": 7847,
      "##زاب": 7848,
      "الول": 7849,
      "##الوريا": 7850,
      "انغام": 7851,
      "انواع": 7852,
      "منف": 7853,
      "##رابه": 7854,
      "##رايب": 7855,
      "الاكت": 7856,
      "الملي": 7857,
      "المزا": 7858,
      "والعب": 7859,
      "##يدته": 7860,
      "##ادرا": 7861,
      "الحين": 7862,
      "عنهما": 7863,
      "عنقها": 7864,
      "##ذارة": 7865,
      "واحب": 7866,
      "وهب": 7867,
      "السف": 7868,
      "السكرت": 7869,
      "العناء": 7870,
      "العاص": 7871,
      "العطفة": 7872,
      "وتفحص": 7873,
      "##اسي": 7874,
      "امله": 7875,
      "##رتقال": 7876,
      "##فسير": 7877,
      "##اتب": 7878,
      "##وقعها": 7879,
      "القر": 7880,
      "القادمة": 7881,
      "يترامى": 7882,
      "وجوده": 7883,
      "وانف": 7884,
      "البركة": 7885,
      "النداء": 7886,
      "##ربد": 7887,
      "الخدمة": 7888,
      "##يفته": 7889,
      "متا": 7890,
      "متفح": 7891,
      "الصور": 7892,
      "الصالح": 7893,
      "الصغار": 7894,
      "بهو": 7895,
      "بهجة": 7896,
      "فتل": 7897,
      "##سمها": 7898,
      "ولح": 7899,
      "الدجاج": 7900,
      "احياء": 7901,
      "ينهض": 7902,
      "اسكت": 7903,
      "##ميمة": 7904,
      "وعبث": 7905,
      "##فيض": 7906,
      "بعمق": 7907,
      "##مالة": 7908,
      "##تهاء": 7909,
      "بانفعال": 7910,
      "وحش": 7911,
      "تنفس": 7912,
      "وهيهات": 7913,
      "تحزن": 7914,
      "نحب": 7915,
      "بحا": 7916,
      "##وانين": 7917,
      "##فعله": 7918,
      "اشباح": 7919,
      "يحزن": 7920,
      "احدنا": 7921,
      "##طفل": 7922,
      "##ذكرى": 7923,
      "##سانس": 7924,
      "##شيق": 7925,
      "بمكر": 7926,
      "##نديل": 7927,
      "مسند": 7928,
      "مسهل": 7929,
      "منهن": 7930,
      "يفصل": 7931,
      "تقنع": 7932,
      "تشرب": 7933,
      "فرمق": 7934,
      "فلوح": 7935,
      "يخفى": 7936,
      "تصدر": 7937,
      "تصنع": 7938,
      "سبحان": 7939,
      "الاخلاق": 7940,
      "وخفق": 7941,
      "##وارب": 7942,
      "##بادلة": 7943,
      "ومنهم": 7944,
      "وغدا": 7945,
      "رغمه": 7946,
      "##جيبا": 7947,
      "حاولت": 7948,
      "##سلطان": 7949,
      "الوطني": 7950,
      "برغ": 7951,
      "خلقت": 7952,
      "يغلق": 7953,
      "حمله": 7954,
      "##تكلم": 7955,
      "اغنية": 7956,
      "##واقف": 7957,
      "بجفاء": 7958,
      "صديقة": 7959,
      "##نقود": 7960,
      "عادية": 7961,
      "المصعد": 7962,
      "مغر": 7963,
      "مغام": 7964,
      "اقتحم": 7965,
      "تغضب": 7966,
      "تعرفين": 7967,
      "اضعاف": 7968,
      "وليست": 7969,
      "سلسلة": 7970,
      "حنقا": 7971,
      "والنساء": 7972,
      "واحس": 7973,
      "##صاعد": 7974,
      "وابن": 7975,
      "الستار": 7976,
      "الالوان": 7977,
      "سمعته": 7978,
      "المقاهي": 7979,
      "الفرص": 7980,
      "كالمجنون": 7981,
      "عناد": 7982,
      "الواحدة": 7983,
      "البشرية": 7984,
      "صحته": 7985,
      "موقفها": 7986,
      "توهم": 7987,
      "سريع": 7988,
      "الذكرى": 7989,
      "الجمالية": 7990,
      "زملا": 7991,
      "مسيو": 7992,
      "اياها": 7993,
      "بارتياب": 7994,
      "ريثما": 7995,
      "##ثاءب": 7996,
      "نشاطه": 7997,
      "هاتفا": 7998,
      "تتحول": 7999,
      "ورجعت": 8000,
      "يمتد": 8001,
      "##يادس": 8002,
      "فسالتها": 8003,
      "فحدجه": 8004,
      "فتنهدت": 8005,
      "قلوبنا": 8006,
      "وخليل": 8007,
      "مقبولة": 8008,
      "وفتحت": 8009,
      "يرحم": 8010,
      "استغفر": 8011,
      "##سكرية": 8012,
      "سعادتك": 8013,
      "انقطعت": 8014,
      "مشاعره": 8015,
      "فريسة": 8016,
      "ذقنه": 8017,
      "المشكلة": 8018,
      "الطفولة": 8019,
      "الواسعة": 8020,
      "يوليو": 8021,
      "الفلسفة": 8022,
      "ركبتيه": 8023,
      "صايحا": 8024,
      "باعتباره": 8025,
      "المومنين": 8026,
      "ماريانا": 8027,
      "الخليلي": 8028,
      "اقطع": 8029,
      "ادارة": 8030,
      "بجل": 8031,
      "بضر": 8032,
      "بديع": 8033,
      "بواعث": 8034,
      "تور": 8035,
      "تارة": 8036,
      "تثير": 8037,
      "تقبض": 8038,
      "تابع": 8039,
      "تهمة": 8040,
      "تمالك": 8041,
      "تبحث": 8042,
      "تبادلا": 8043,
      "تطيق": 8044,
      "تجاوز": 8045,
      "ثغ": 8046,
      "حلي": 8047,
      "حبك": 8048,
      "حايرة": 8049,
      "خاد": 8050,
      "درب": 8051,
      "سق": 8052,
      "سجل": 8053,
      "سرت": 8054,
      "صن": 8055,
      "طلق": 8056,
      "طاري": 8057,
      "ظنه": 8058,
      "عوا": 8059,
      "عامل": 8060,
      "عذر": 8061,
      "غابت": 8062,
      "فوا": 8063,
      "فوه": 8064,
      "ففتح": 8065,
      "فاحت": 8066,
      "قي": 8067,
      "قض": 8068,
      "قلة": 8069,
      "قولي": 8070,
      "كيي": 8071,
      "لفظ": 8072,
      "ملم": 8073,
      "مغي": 8074,
      "نال": 8075,
      "نجا": 8076,
      "نغمة": 8077,
      "هار": 8078,
      "هجرت": 8079,
      "هتاف": 8080,
      "وطلب": 8081,
      "يخر": 8082,
      "يرام": 8083,
      "يكره": 8084,
      "يصرخ": 8085,
      "##قذ": 8086,
      "##يلاء": 8087,
      "##يكة": 8088,
      "##نوا": 8089,
      "##طفت": 8090,
      "##طنع": 8091,
      "##واري": 8092,
      "##ذبت": 8093,
      "##حو": 8094,
      "##حسر": 8095,
      "##كث": 8096,
      "##كور": 8097,
      "##فقة": 8098,
      "##فعا": 8099,
      "##فحل": 8100,
      "##ضاح": 8101,
      "##جعه": 8102,
      "##غادر": 8103,
      "##خلا": 8104,
      "##زقة": 8105,
      "##زمه": 8106,
      "الريف": 8107,
      "الويسكي": 8108,
      "##الى": 8109,
      "##انى": 8110,
      "##هاة": 8111,
      "انجليز": 8112,
      "منزلة": 8113,
      "##ينب": 8114,
      "##رارا": 8115,
      "الاهم": 8116,
      "الاوان": 8117,
      "الاعم": 8118,
      "الاوراق": 8119,
      "المول": 8120,
      "الميت": 8121,
      "المغر": 8122,
      "المومن": 8123,
      "والال": 8124,
      "والمل": 8125,
      "والدتك": 8126,
      "##وايا": 8127,
      "وامن": 8128,
      "وامه": 8129,
      "واجاب": 8130,
      "بالبيت": 8131,
      "بالجلوس": 8132,
      "السخ": 8133,
      "السود": 8134,
      "السهر": 8135,
      "السيارات": 8136,
      "العما": 8137,
      "العمال": 8138,
      "العناية": 8139,
      "التجارة": 8140,
      "التفتت": 8141,
      "التاجر": 8142,
      "وتلك": 8143,
      "وتنا": 8144,
      "الشجرة": 8145,
      "الشوك": 8146,
      "امال": 8147,
      "##اتبة": 8148,
      "##وقعه": 8149,
      "القرية": 8150,
      "القسمات": 8151,
      "معين": 8152,
      "معاذ": 8153,
      "##ودع": 8154,
      "##متنا": 8155,
      "##داف": 8156,
      "ابى": 8157,
      "يتص": 8158,
      "وانطلق": 8159,
      "البراءة": 8160,
      "الرسم": 8161,
      "النوع": 8162,
      "النطق": 8163,
      "النيابة": 8164,
      "##قيته": 8165,
      "##قيمة": 8166,
      "متال": 8167,
      "الصبا": 8168,
      "الصبح": 8169,
      "الفلاح": 8170,
      "وسن": 8171,
      "احق": 8172,
      "ينال": 8173,
      "فاقبل": 8174,
      "اسيلة": 8175,
      "الكث": 8176,
      "##خلها": 8177,
      "استمر": 8178,
      "استطلاع": 8179,
      "وعما": 8180,
      "##فيها": 8181,
      "##كتاب": 8182,
      "تعبث": 8183,
      "محيط": 8184,
      "بعدم": 8185,
      "بعدها": 8186,
      "وقر": 8187,
      "وقب": 8188,
      "وقار": 8189,
      "##ويها": 8190,
      "##هره": 8191,
      "حسنة": 8192,
      "##جره": 8193,
      "وحي": 8194,
      "وحاول": 8195,
      "ترقص": 8196,
      "تنسي": 8197,
      "تحبه": 8198,
      "تحبين": 8199,
      "تحقق": 8200,
      "كالخ": 8201,
      "ونب": 8202,
      "ونص": 8203,
      "بصدق": 8204,
      "##وعك": 8205,
      "##وعود": 8206,
      "مثير": 8207,
      "مثيرة": 8208,
      "بميدان": 8209,
      "ادراك": 8210,
      "الاسيلة": 8211,
      "##وءة": 8212,
      "مستوى": 8213,
      "الضرب": 8214,
      "اذنيها": 8215,
      "##وكيد": 8216,
      "##والم": 8217,
      "الاحاديث": 8218,
      "##دهشة": 8219,
      "حالها": 8220,
      "راقصة": 8221,
      "بيتا": 8222,
      "يفوق": 8223,
      "اقصر": 8224,
      "الامواج": 8225,
      "عاجلا": 8226,
      "تسلم": 8227,
      "تسليم": 8228,
      "تسلية": 8229,
      "##بثق": 8230,
      "بتاثر": 8231,
      "##بسطت": 8232,
      "واستيقظ": 8233,
      "سببا": 8234,
      "جاءوا": 8235,
      "تستسلم": 8236,
      "##زعجة": 8237,
      "الجدد": 8238,
      "الاستسلام": 8239,
      "##زوجة": 8240,
      "وانتظرت": 8241,
      "مشقة": 8242,
      "تملا": 8243,
      "##جيع": 8244,
      "##اذب": 8245,
      "الاعصاب": 8246,
      "وفجاة": 8247,
      "بخلاف": 8248,
      "خلقه": 8249,
      "##رورقت": 8250,
      "بالمراة": 8251,
      "وبينها": 8252,
      "##حرر": 8253,
      "المستحيل": 8254,
      "##سرته": 8255,
      "الحلقة": 8256,
      "الرجوع": 8257,
      "امتلا": 8258,
      "يضع": 8259,
      "مهنة": 8260,
      "##وثبة": 8261,
      "فاترة": 8262,
      "##ونات": 8263,
      "واسع": 8264,
      "واسعة": 8265,
      "الانسانية": 8266,
      "حزب": 8267,
      "يطمع": 8268,
      "##كارى": 8269,
      "عشاء": 8270,
      "يحدثني": 8271,
      "التعارف": 8272,
      "##جاهله": 8273,
      "بالخبر": 8274,
      "##ناسبة": 8275,
      "القللي": 8276,
      "واجما": 8277,
      "نهاييا": 8278,
      "ممتازة": 8279,
      "غمغم": 8280,
      "غمغمت": 8281,
      "مخلوق": 8282,
      "اسفاه": 8283,
      "طاقة": 8284,
      "مولانا": 8285,
      "مفتاح": 8286,
      "الدعاء": 8287,
      "وذكرت": 8288,
      "لزيارة": 8289,
      "مجرم": 8290,
      "تتحرك": 8291,
      "فحدجته": 8292,
      "##راسته": 8293,
      "وعليك": 8294,
      "الرفيع": 8295,
      "المطلقة": 8296,
      "يشترك": 8297,
      "منعطف": 8298,
      "الحاضرين": 8299,
      "تفسير": 8300,
      "طفلا": 8301,
      "وطالما": 8302,
      "حواسه": 8303,
      "واتجهت": 8304,
      "ثروة": 8305,
      "داعيا": 8306,
      "ضاقت": 8307,
      "مسيولية": 8308,
      "اهتمامه": 8309,
      "معبودته": 8310,
      "تاثير": 8311,
      "متحدية": 8312,
      "مشغول": 8313,
      "الشرقية": 8314,
      "وتتابعت": 8315,
      "المصابيح": 8316,
      "عهدا": 8317,
      "##نادقية": 8318,
      "الثروة": 8319,
      "ناظريه": 8320,
      "المناقشة": 8321,
      "جوليون": 8322,
      "تواخذني": 8323,
      "اتى": 8324,
      "اهد": 8325,
      "اطمين": 8326,
      "بقد": 8327,
      "ترف": 8328,
      "تقط": 8329,
      "تبق": 8330,
      "جعدة": 8331,
      "جدران": 8332,
      "حرا": 8333,
      "خاب": 8334,
      "زباين": 8335,
      "سيره": 8336,
      "شمس": 8337,
      "طن": 8338,
      "عباد": 8339,
      "عقاب": 8340,
      "عارية": 8341,
      "عباء": 8342,
      "فز": 8343,
      "فعا": 8344,
      "فرات": 8345,
      "فضل": 8346,
      "قرب": 8347,
      "قطب": 8348,
      "قراءة": 8349,
      "قادمة": 8350,
      "قويا": 8351,
      "كع": 8352,
      "كابة": 8353,
      "لفت": 8354,
      "مري": 8355,
      "مبك": 8356,
      "ميز": 8357,
      "مطمين": 8358,
      "نزع": 8359,
      "نقص": 8360,
      "هربت": 8361,
      "ووج": 8362,
      "وكر": 8363,
      "وغم": 8364,
      "وياس": 8365,
      "ورفعت": 8366,
      "يقلب": 8367,
      "يغمغم": 8368,
      "يقاوم": 8369,
      "١٧": 8370,
      "##بغ": 8371,
      "##معت": 8372,
      "##لج": 8373,
      "##طير": 8374,
      "##طيب": 8375,
      "##وتهم": 8376,
      "##ذوق": 8377,
      "##ذره": 8378,
      "##ذوذ": 8379,
      "##حمه": 8380,
      "##سس": 8381,
      "##سيل": 8382,
      "##عطف": 8383,
      "##صم": 8384,
      "##فضل": 8385,
      "##ضوا": 8386,
      "##شين": 8387,
      "##شدا": 8388,
      "##خان": 8389,
      "##زام": 8390,
      "##التها": 8391,
      "##انك": 8392,
      "منزعجا": 8393,
      "الاقد": 8394,
      "الاربعة": 8395,
      "الاضطراب": 8396,
      "المجم": 8397,
      "المجيء": 8398,
      "الملهى": 8399,
      "##يايه": 8400,
      "##ارح": 8401,
      "##ارقه": 8402,
      "والمال": 8403,
      "والظاهر": 8404,
      "لاقت": 8405,
      "لاخت": 8406,
      "ماوى": 8407,
      "واز": 8408,
      "وامر": 8409,
      "وامها": 8410,
      "واغمض": 8411,
      "##يلم": 8412,
      "بالاع": 8413,
      "##ريك": 8414,
      "##ريها": 8415,
      "##لمس": 8416,
      "السكون": 8417,
      "العقد": 8418,
      "العنف": 8419,
      "العوادة": 8420,
      "التعي": 8421,
      "التساول": 8422,
      "##ديعة": 8423,
      "وتابع": 8424,
      "الشرب": 8425,
      "اماله": 8426,
      "##اتية": 8427,
      "الجمع": 8428,
      "الجبهة": 8429,
      "##كنة": 8430,
      "##احظ": 8431,
      "ابلة": 8432,
      "ابعاد": 8433,
      "##اهدة": 8434,
      "يتصل": 8435,
      "واند": 8436,
      "وانته": 8437,
      "البسي": 8438,
      "الرقيقة": 8439,
      "لهفة": 8440,
      "لهجته": 8441,
      "##ركه": 8442,
      "النقل": 8443,
      "النخلة": 8444,
      "##ربون": 8445,
      "الخواطر": 8446,
      "الخواجا": 8447,
      "متك": 8448,
      "متاب": 8449,
      "الفل": 8450,
      "فتردد": 8451,
      "اليسر": 8452,
      "كلية": 8453,
      "كلانا": 8454,
      "وسرت": 8455,
      "وسخرية": 8456,
      "احضان": 8457,
      "فاك": 8458,
      "الكمال": 8459,
      "الكاملة": 8460,
      "##بتنا": 8461,
      "اعراض": 8462,
      "استقبال": 8463,
      "##رددا": 8464,
      "وعلم": 8465,
      "وعرض": 8466,
      "بعجلة": 8467,
      "يدك": 8468,
      "اخف": 8469,
      "تعلي": 8470,
      "محكمة": 8471,
      "##فاقا": 8472,
      "بعده": 8473,
      "قلبا": 8474,
      "قلقه": 8475,
      "وقرا": 8476,
      "وبالت": 8477,
      "ويخ": 8478,
      "وحما": 8479,
      "##قهقر": 8480,
      "اخرين": 8481,
      "قدما": 8482,
      "اتمنى": 8483,
      "##عروس": 8484,
      "##دتي": 8485,
      "اشجار": 8486,
      "يحادث": 8487,
      "لكني": 8488,
      "بكثير": 8489,
      "كالص": 8490,
      "ونه": 8491,
      "##وعيد": 8492,
      "##وزه": 8493,
      "##وزيع": 8494,
      "مثالا": 8495,
      "يمسك": 8496,
      "انيقة": 8497,
      "بدء": 8498,
      "##شاشة": 8499,
      "اكاد": 8500,
      "لوال": 8501,
      "يرسل": 8502,
      "مستح": 8503,
      "##وضة": 8504,
      "الضحى": 8505,
      "فوقه": 8506,
      "تفوق": 8507,
      "تفحص": 8508,
      "##جبين": 8509,
      "##بكة": 8510,
      "رجاله": 8511,
      "جلجلة": 8512,
      "مصح": 8513,
      "ارسل": 8514,
      "اقسم": 8515,
      "اقوال": 8516,
      "تحتها": 8517,
      "تحتاج": 8518,
      "تسل": 8519,
      "بتص": 8520,
      "لانك": 8521,
      "اعتراض": 8522,
      "يصيب": 8523,
      "حييت": 8524,
      "فقبل": 8525,
      "اثنين": 8526,
      "فهمست": 8527,
      "وانتقل": 8528,
      "بابه": 8529,
      "##اذن": 8530,
      "برجل": 8531,
      "الاعياء": 8532,
      "يكذب": 8533,
      "وفوق": 8534,
      "الباقية": 8535,
      "الباطني": 8536,
      "خلع": 8537,
      "يغيب": 8538,
      "##جدد": 8539,
      "##وظيفة": 8540,
      "تلعب": 8541,
      "##فكرت": 8542,
      "رحب": 8543,
      "سرها": 8544,
      "تغيب": 8545,
      "تغادر": 8546,
      "##وهام": 8547,
      "اسمك": 8548,
      "امتحان": 8549,
      "##لفزيون": 8550,
      "حقق": 8551,
      "صاحبنا": 8552,
      "بالنساء": 8553,
      "لطيفا": 8554,
      "محتجة": 8555,
      "##حفز": 8556,
      "##غرها": 8557,
      "عدو": 8558,
      "يطيب": 8559,
      "وجدتني": 8560,
      "اشترك": 8561,
      "نبذ": 8562,
      "الواحد": 8563,
      "ترامت": 8564,
      "المغيب": 8565,
      "المغامرة": 8566,
      "ينادي": 8567,
      "##بعثت": 8568,
      "الازمة": 8569,
      "دقات": 8570,
      "بزيارة": 8571,
      "فغادر": 8572,
      "نهايته": 8573,
      "الاعتذار": 8574,
      "اياك": 8575,
      "نافذ": 8576,
      "غامض": 8577,
      "مقابلته": 8578,
      "ويسرة": 8579,
      "فوجدها": 8580,
      "المزيد": 8581,
      "بقيت": 8582,
      "رددت": 8583,
      "كرهت": 8584,
      "جالسة": 8585,
      "ضميره": 8586,
      "التعبير": 8587,
      "يتبادلان": 8588,
      "رفضت": 8589,
      "ثالثة": 8590,
      "التدخين": 8591,
      "البلاد": 8592,
      "سكران": 8593,
      "بسيط": 8594,
      "مداعبا": 8595,
      "فلسفة": 8596,
      "الالهية": 8597,
      "حجرتي": 8598,
      "اضحك": 8599,
      "اومن": 8600,
      "اقبلت": 8601,
      "اريكة": 8602,
      "بمد": 8603,
      "بطا": 8604,
      "بفض": 8605,
      "ببط": 8606,
      "بضحكة": 8607,
      "تواصل": 8608,
      "تكتب": 8609,
      "تبدت": 8610,
      "توتر": 8611,
      "تضيع": 8612,
      "جدر": 8613,
      "جاف": 8614,
      "دفعت": 8615,
      "دفاع": 8616,
      "داهية": 8617,
      "رواد": 8618,
      "زعب": 8619,
      "سيف": 8620,
      "سحب": 8621,
      "شعب": 8622,
      "شرفة": 8623,
      "صلة": 8624,
      "صابر": 8625,
      "طرد": 8626,
      "طاع": 8627,
      "طفل": 8628,
      "عشت": 8629,
      "عريس": 8630,
      "عجيبا": 8631,
      "غفلة": 8632,
      "فته": 8633,
      "ففت": 8634,
      "فسي": 8635,
      "فراه": 8636,
      "فجع": 8637,
      "فايق": 8638,
      "قسوة": 8639,
      "لحظ": 8640,
      "ممر": 8641,
      "موك": 8642,
      "مومن": 8643,
      "ملاءتها": 8644,
      "نلت": 8645,
      "نحت": 8646,
      "نقل": 8647,
      "نذير": 8648,
      "نفترق": 8649,
      "هب": 8650,
      "هاج": 8651,
      "هزيمة": 8652,
      "وقا": 8653,
      "وطل": 8654,
      "ووقع": 8655,
      "وضحكت": 8656,
      "وضاعف": 8657,
      "يور": 8658,
      "يجاوز": 8659,
      "يراقب": 8660,
      "يرضى": 8661,
      "##رول": 8662,
      "##تل": 8663,
      "##قبه": 8664,
      "##برك": 8665,
      "##دري": 8666,
      "##نح": 8667,
      "##نس": 8668,
      "##نونا": 8669,
      "##طاف": 8670,
      "##وضا": 8671,
      "##وطي": 8672,
      "##وطن": 8673,
      "##ذون": 8674,
      "##حمل": 8675,
      "##سرب": 8676,
      "##صرت": 8677,
      "##جنة": 8678,
      "##غراب": 8679,
      "##خاء": 8680,
      "##انيه": 8681,
      "انص": 8682,
      "انضم": 8683,
      "انقض": 8684,
      "فيمن": 8685,
      "منصور": 8686,
      "منفرد": 8687,
      "الايدي": 8688,
      "الامارة": 8689,
      "الاوقات": 8690,
      "المي": 8691,
      "المقط": 8692,
      "المخرج": 8693,
      "المجلة": 8694,
      "##ناجر": 8695,
      "والته": 8696,
      "والواقع": 8697,
      "الحوار": 8698,
      "الحبيب": 8699,
      "واوشك": 8700,
      "##يليادس": 8701,
      "بالاف": 8702,
      "بالفر": 8703,
      "بالانت": 8704,
      "بالذهاب": 8705,
      "لمحت": 8706,
      "السقاء": 8707,
      "الساق": 8708,
      "العيش": 8709,
      "الترك": 8710,
      "##باع": 8711,
      "##وردي": 8712,
      "##حديد": 8713,
      "##بيح": 8714,
      "الشم": 8715,
      "الشان": 8716,
      "امرة": 8717,
      "امسك": 8718,
      "##فساد": 8719,
      "الجزع": 8720,
      "القريبة": 8721,
      "القليل": 8722,
      "القرافة": 8723,
      "معاني": 8724,
      "##كنه": 8725,
      "يتفق": 8726,
      "وانس": 8727,
      "وانتهت": 8728,
      "البنات": 8729,
      "النها": 8730,
      "النفي": 8731,
      "الخف": 8732,
      "الخدم": 8733,
      "الخلاف": 8734,
      "الختام": 8735,
      "ليش": 8736,
      "ليتك": 8737,
      "متجهم": 8738,
      "الفاس": 8739,
      "فتم": 8740,
      "##ملق": 8741,
      "اليمنى": 8742,
      "##افل": 8743,
      "وسع": 8744,
      "وسعها": 8745,
      "ينه": 8746,
      "للناس": 8747,
      "ايقا": 8748,
      "فاط": 8749,
      "فاما": 8750,
      "الكف": 8751,
      "الكاب": 8752,
      "اعرض": 8753,
      "استمع": 8754,
      "وعثمان": 8755,
      "##بدد": 8756,
      "انتظرت": 8757,
      "انتهاء": 8758,
      "تتوسط": 8759,
      "الانصراف": 8760,
      "محاك": 8761,
      "وقطع": 8762,
      "وبط": 8763,
      "وبص": 8764,
      "##ويح": 8765,
      "باكية": 8766,
      "الغلاء": 8767,
      "الغرفة": 8768,
      "الغلمان": 8769,
      "بانكار": 8770,
      "حسناء": 8771,
      "وحياء": 8772,
      "عندكم": 8773,
      "تنعم": 8774,
      "##هدوء": 8775,
      "اخرج": 8776,
      "قدمت": 8777,
      "اشهد": 8778,
      "كالاخر": 8779,
      "جدال": 8780,
      "يسكت": 8781,
      "ساوي": 8782,
      "كيفما": 8783,
      "##قطعة": 8784,
      "يميل": 8785,
      "يمينه": 8786,
      "##ذكره": 8787,
      "##طيبة": 8788,
      "اجابت": 8789,
      "يروم": 8790,
      "فانقبض": 8791,
      "##مسار": 8792,
      "##مسون": 8793,
      "مستدرك": 8794,
      "فوقها": 8795,
      "##بهات": 8796,
      "المعلمة": 8797,
      "المعاملة": 8798,
      "عمري": 8799,
      "عمياء": 8800,
      "##طارة": 8801,
      "يومين": 8802,
      "الشيون": 8803,
      "خطاه": 8804,
      "عاصفة": 8805,
      "رايها": 8806,
      "تسلل": 8807,
      "فريد": 8808,
      "##حاق": 8809,
      "بتلك": 8810,
      "يخفي": 8811,
      "مدين": 8812,
      "لانسان": 8813,
      "واستسلم": 8814,
      "والتع": 8815,
      "وخاطب": 8816,
      "امامك": 8817,
      "##زعزع": 8818,
      "يصغي": 8819,
      "حيوية": 8820,
      "المحيط": 8821,
      "##خذة": 8822,
      "بيدي": 8823,
      "بابها": 8824,
      "بخبث": 8825,
      "بخشونة": 8826,
      "بعضها": 8827,
      "الفتاح": 8828,
      "الاباء": 8829,
      "اغا": 8830,
      "اغض": 8831,
      "اغراء": 8832,
      "مخال": 8833,
      "فصار": 8834,
      "هاما": 8835,
      "احترام": 8836,
      "احتجاج": 8837,
      "دايم": 8838,
      "تكوني": 8839,
      "فاستدرك": 8840,
      "وليكن": 8841,
      "مكتبي": 8842,
      "اسمح": 8843,
      "بالتالي": 8844,
      "##قابل": 8845,
      "عجز": 8846,
      "الشرطي": 8847,
      "حنقه": 8848,
      "حنظل": 8849,
      "واحمد": 8850,
      "تاخر": 8851,
      "تعلمين": 8852,
      "نتبادل": 8853,
      "محترمة": 8854,
      "بثمن": 8855,
      "ازعا": 8856,
      "الجنسية": 8857,
      "الافطار": 8858,
      "شيخون": 8859,
      "يهمه": 8860,
      "برايه": 8861,
      "يبعد": 8862,
      "يبالي": 8863,
      "حظك": 8864,
      "الفران": 8865,
      "الهام": 8866,
      "عقلك": 8867,
      "عقلي": 8868,
      "العينان": 8869,
      "يذكره": 8870,
      "حضوره": 8871,
      "##ونيو": 8872,
      "زينهم": 8873,
      "حلمه": 8874,
      "واصلت": 8875,
      "ببراءة": 8876,
      "ببصره": 8877,
      "نبرات": 8878,
      "نبراته": 8879,
      "تلاشى": 8880,
      "رمى": 8881,
      "للحديث": 8882,
      "انسانا": 8883,
      "والرجل": 8884,
      "واضط": 8885,
      "يتحول": 8886,
      "وينت": 8887,
      "تقتل": 8888,
      "##ازينو": 8889,
      "العالمين": 8890,
      "يختفي": 8891,
      "حكاي": 8892,
      "زمنا": 8893,
      "نصيب": 8894,
      "الصحافة": 8895,
      "مخلوف": 8896,
      "الاثنين": 8897,
      "دفعا": 8898,
      "زواجها": 8899,
      "معلقا": 8900,
      "لديها": 8901,
      "انفاسها": 8902,
      "بضعة": 8903,
      "احساسه": 8904,
      "الوكيل": 8905,
      "حبيبتي": 8906,
      "صبري": 8907,
      "دعاها": 8908,
      "١٩٢": 8909,
      "باتت": 8910,
      "فاسيليادس": 8911,
      "المعتاد": 8912,
      "القصص": 8913,
      "كاتم": 8914,
      "بامتنان": 8915,
      "ارتباكه": 8916,
      "المقاومة": 8917,
      "للدنيا": 8918,
      "ندري": 8919,
      "قلوبهم": 8920,
      "تكلمت": 8921,
      "تاكسي": 8922,
      "يجرو": 8923,
      "مغلقة": 8924,
      "المحبوبة": 8925,
      "ضاعت": 8926,
      "فاضطر": 8927,
      "قدميها": 8928,
      "الطرقات": 8929,
      "ثالث": 8930,
      "الممتلي": 8931,
      "الخلفي": 8932,
      "النبيذ": 8933,
      "متحديا": 8934,
      "قريبه": 8935,
      "بعصبية": 8936,
      "استطعت": 8937,
      "اسنانه": 8938,
      "خدمته": 8939,
      "المدعوين": 8940,
      "بالاضافة": 8941,
      "طنطا": 8942,
      "مستدركا": 8943,
      "ارق": 8944,
      "افرغ": 8945,
      "بته": 8946,
      "بغيظ": 8947,
      "تضيق": 8948,
      "تكره": 8949,
      "تومن": 8950,
      "تمسك": 8951,
      "ثقل": 8952,
      "جافة": 8953,
      "خفت": 8954,
      "خالي": 8955,
      "ذهاب": 8956,
      "روا": 8957,
      "رجب": 8958,
      "ربك": 8959,
      "رهن": 8960,
      "شف": 8961,
      "شرك": 8962,
      "شهوة": 8963,
      "شاهد": 8964,
      "شقتي": 8965,
      "صقر": 8966,
      "طمانينة": 8967,
      "طفلة": 8968,
      "عس": 8969,
      "غي": 8970,
      "فنا": 8971,
      "فجر": 8972,
      "فستان": 8973,
      "قس": 8974,
      "مقال": 8975,
      "مقل": 8976,
      "مادة": 8977,
      "ممتع": 8978,
      "مريضة": 8979,
      "مباركة": 8980,
      "مفهوم": 8981,
      "مضاعفة": 8982,
      "نكون": 8983,
      "وود": 8984,
      "وبدت": 8985,
      "ووضع": 8986,
      "يكر": 8987,
      "يرب": 8988,
      "يزا": 8989,
      "يظهر": 8990,
      "يوفق": 8991,
      "١٦": 8992,
      "##قلا": 8993,
      "##برا": 8994,
      "##براء": 8995,
      "##دوا": 8996,
      "##درات": 8997,
      "##لعب": 8998,
      "##نقة": 8999,
      "##طوة": 9000,
      "##ذبا": 9001,
      "##ذور": 9002,
      "##ثين": 9003,
      "##عار": 9004,
      "##صده": 9005,
      "##ضدة": 9006,
      "##شيا": 9007,
      "##شيت": 9008,
      "##زنة": 9009,
      "##انته": 9010,
      "##هاق": 9011,
      "##راط": 9012,
      "##لابة": 9013,
      "الاور": 9014,
      "الاجابة": 9015,
      "الاطمينان": 9016,
      "المقت": 9017,
      "المهد": 9018,
      "المقب": 9019,
      "المرم": 9020,
      "##نادي": 9021,
      "لاص": 9022,
      "لامر": 9023,
      "الحان": 9024,
      "الحفل": 9025,
      "الحزب": 9026,
      "ماضي": 9027,
      "عنيد": 9028,
      "##ذاجة": 9029,
      "##ذاكرة": 9030,
      "##ونته": 9031,
      "وازداد": 9032,
      "بالحق": 9033,
      "بالدم": 9034,
      "بالناس": 9035,
      "##امين": 9036,
      "##امتها": 9037,
      "##املات": 9038,
      "السكة": 9039,
      "العاج": 9040,
      "العشق": 9041,
      "العطلة": 9042,
      "التس": 9043,
      "وتبين": 9044,
      "املك": 9045,
      "امواج": 9046,
      "##اتا": 9047,
      "الجري": 9048,
      "الجزاء": 9049,
      "معاملة": 9050,
      "##ودين": 9051,
      "##داها": 9052,
      "##عترف": 9053,
      "##اهتمام": 9054,
      "يتها": 9055,
      "يترنح": 9056,
      "##خرين": 9057,
      "##خرجت": 9058,
      "البناء": 9059,
      "البعيدة": 9060,
      "البزاز": 9061,
      "الرثاء": 9062,
      "الرصاص": 9063,
      "لهجة": 9064,
      "النسوة": 9065,
      "الخراب": 9066,
      "الصفاء": 9067,
      "الصاخ": 9068,
      "الفم": 9069,
      "الفاك": 9070,
      "##قاته": 9071,
      "فتش": 9072,
      "نفسا": 9073,
      "وسارت": 9074,
      "احلم": 9075,
      "احفظ": 9076,
      "بينكما": 9077,
      "اسر": 9078,
      "الكي": 9079,
      "الكاذبة": 9080,
      "اعوا": 9081,
      "اعجز": 9082,
      "وعلا": 9083,
      "الزفة": 9084,
      "الانباء": 9085,
      "تعالي": 9086,
      "محر": 9087,
      "يعن": 9088,
      "يعجز": 9089,
      "غيرت": 9090,
      "يجدر": 9091,
      "الغرام": 9092,
      "##حكا": 9093,
      "وحر": 9094,
      "وحزن": 9095,
      "تراني": 9096,
      "ترحب": 9097,
      "ترنو": 9098,
      "تحبها": 9099,
      "قدماه": 9100,
      "##يمته": 9101,
      "##كونة": 9102,
      "##عران": 9103,
      "##وبته": 9104,
      "يحا": 9105,
      "بلباقة": 9106,
      "وكال": 9107,
      "وكيل": 9108,
      "ساعد": 9109,
      "الثناء": 9110,
      "بدلا": 9111,
      "لونا": 9112,
      "بسر": 9113,
      "تجهم": 9114,
      "تجرب": 9115,
      "يرم": 9116,
      "مستن": 9117,
      "يقظة": 9118,
      "فوقع": 9119,
      "مسد": 9120,
      "مسكينة": 9121,
      "الماوردي": 9122,
      "تفلت": 9123,
      "المعارف": 9124,
      "##وكة": 9125,
      "وصف": 9126,
      "ستار": 9127,
      "##بكاء": 9128,
      "مجالس": 9129,
      "مجنونا": 9130,
      "##بقاء": 9131,
      "جلسا": 9132,
      "فسر": 9133,
      "فساد": 9134,
      "الامكان": 9135,
      "عاشق": 9136,
      "الهي": 9137,
      "تدب": 9138,
      "فرمقه": 9139,
      "حينما": 9140,
      "والمراة": 9141,
      "فلعله": 9142,
      "يخشى": 9143,
      "##بسه": 9144,
      "واستمر": 9145,
      "الاخرون": 9146,
      "امامنا": 9147,
      "ورث": 9148,
      "فقامت": 9149,
      "بيديه": 9150,
      "تموت": 9151,
      "تمثل": 9152,
      "الوث": 9153,
      "تكد": 9154,
      "تكذب": 9155,
      "دعنا": 9156,
      "دعيني": 9157,
      "دعوتك": 9158,
      "سنها": 9159,
      "بالموت": 9160,
      "بالحديث": 9161,
      "وبينه": 9162,
      "صادف": 9163,
      "مرشد": 9164,
      "والسماء": 9165,
      "تهتم": 9166,
      "المستدير": 9167,
      "##ليمون": 9168,
      "##فلس": 9169,
      "الحلوة": 9170,
      "مغزى": 9171,
      "رغبتها": 9172,
      "اقتربت": 9173,
      "تغلق": 9174,
      "والدنيا": 9175,
      "##وهات": 9176,
      "مرتبه": 9177,
      "بطول": 9178,
      "الحسد": 9179,
      "الحسناء": 9180,
      "##دعاء": 9181,
      "وضرب": 9182,
      "الوحشة": 9183,
      "داخله": 9184,
      "الداعي": 9185,
      "##صيحة": 9186,
      "الواقعة": 9187,
      "وجاءه": 9188,
      "تبعا": 9189,
      "قطعت": 9190,
      "سمعها": 9191,
      "سمعنا": 9192,
      "مظاهر": 9193,
      "موضة": 9194,
      "البكالوريا": 9195,
      "الانجليزية": 9196,
      "حظها": 9197,
      "الهاوية": 9198,
      "وادركت": 9199,
      "خاليا": 9200,
      "وتحركت": 9201,
      "كنز": 9202,
      "##ليقات": 9203,
      "ضربا": 9204,
      "موافق": 9205,
      "مواخذة": 9206,
      "تحبني": 9207,
      "للسيد": 9208,
      "عثرت": 9209,
      "شهيد": 9210,
      "عجرمة": 9211,
      "سروره": 9212,
      "مقدمة": 9213,
      "اجتمع": 9214,
      "عفوا": 9215,
      "عفيفي": 9216,
      "مناسبا": 9217,
      "ولبثت": 9218,
      "شاعر": 9219,
      "##غاثة": 9220,
      "ترددت": 9221,
      "##زحزح": 9222,
      "الكونياك": 9223,
      "المقاول": 9224,
      "تجاهل": 9225,
      "تختار": 9226,
      "خروج": 9227,
      "ايمانه": 9228,
      "الموسكي": 9229,
      "الغامض": 9230,
      "الطاولة": 9231,
      "للزواج": 9232,
      "الموايد": 9233,
      "افكارها": 9234,
      "الغروب": 9235,
      "مزايا": 9236,
      "العفريت": 9237,
      "بالثقة": 9238,
      "اللبلاب": 9239,
      "السرادق": 9240,
      "مخاوفه": 9241,
      "المقدسة": 9242,
      "يابى": 9243,
      "سفينة": 9244,
      "جفنيه": 9245,
      "وهنالك": 9246,
      "معارفه": 9247,
      "والعافية": 9248,
      "الزملاء": 9249,
      "ريقها": 9250,
      "متجاهلا": 9251,
      "وبنطل": 9252,
      "وضاق": 9253,
      "ناطقة": 9254,
      "المدرسية": 9255,
      "مانولي": 9256,
      "الاعمى": 9257,
      "اليسرى": 9258,
      "زعبلاوي": 9259,
      "الفاكهة": 9260,
      "اربعين": 9261,
      "برد": 9262,
      "تغل": 9263,
      "تمام": 9264,
      "تقلب": 9265,
      "توكد": 9266,
      "تجلت": 9267,
      "توحي": 9268,
      "ثقي": 9269,
      "جرا": 9270,
      "حمام": 9271,
      "حرام": 9272,
      "حفل": 9273,
      "حاملة": 9274,
      "حيرته": 9275,
      "خسر": 9276,
      "ذاب": 9277,
      "رفيق": 9278,
      "رويته": 9279,
      "زاي": 9280,
      "شم": 9281,
      "شراب": 9282,
      "شاطي": 9283,
      "صفة": 9284,
      "صلب": 9285,
      "صمم": 9286,
      "طرب": 9287,
      "عت": 9288,
      "عمه": 9289,
      "فرك": 9290,
      "فواصلت": 9291,
      "قواد": 9292,
      "قضية": 9293,
      "كذاب": 9294,
      "كاملا": 9295,
      "لعم": 9296,
      "لزوج": 9297,
      "مور": 9298,
      "مباد": 9299,
      "مودة": 9300,
      "مارج": 9301,
      "مواف": 9302,
      "مطالب": 9303,
      "مواجهة": 9304,
      "نيته": 9305,
      "نوافذ": 9306,
      "نريد": 9307,
      "هدي": 9308,
      "هدى": 9309,
      "وول": 9310,
      "ورف": 9311,
      "وغمغمت": 9312,
      "يلي": 9313,
      "يصل": 9314,
      "يطار": 9315,
      "يعلق": 9316,
      "يكرم": 9317,
      "يرقص": 9318,
      "يطمح": 9319,
      "يونيو": 9320,
      "##دني": 9321,
      "##هولة": 9322,
      "##لطت": 9323,
      "##وعد": 9324,
      "##وذي": 9325,
      "##صاد": 9326,
      "##صيرة": 9327,
      "##فز": 9328,
      "##فيا": 9329,
      "##ظلمة": 9330,
      "##جادة": 9331,
      "##شري": 9332,
      "##غفر": 9333,
      "##خال": 9334,
      "الية": 9335,
      "##هاز": 9336,
      "انض": 9337,
      "انوار": 9338,
      "فيكون": 9339,
      "##مايل": 9340,
      "##لاطم": 9341,
      "الاريكة": 9342,
      "الاجيال": 9343,
      "الملت": 9344,
      "المطم": 9345,
      "الملته": 9346,
      "المريض": 9347,
      "المبادي": 9348,
      "والقت": 9349,
      "والوف": 9350,
      "والبر": 9351,
      "والضحك": 9352,
      "والذي": 9353,
      "والرجال": 9354,
      "لاع": 9355,
      "##ستور": 9356,
      "##ولز": 9357,
      "الحالة": 9358,
      "الحضور": 9359,
      "##ذاكر": 9360,
      "##واكب": 9361,
      "وايا": 9362,
      "وامس": 9363,
      "واجه": 9364,
      "بالعب": 9365,
      "لمس": 9366,
      "السري": 9367,
      "العني": 9368,
      "العربية": 9369,
      "العتبة": 9370,
      "العبارة": 9371,
      "##لهف": 9372,
      "##بارات": 9373,
      "##ورين": 9374,
      "##ديرة": 9375,
      "##ايقه": 9376,
      "وتغ": 9377,
      "وتطلع": 9378,
      "وترامى": 9379,
      "وتوثب": 9380,
      "وتاوه": 9381,
      "الشع": 9382,
      "الجهن": 9383,
      "القايم": 9384,
      "##فتاح": 9385,
      "يتخذ": 9386,
      "يتمتم": 9387,
      "يتراجع": 9388,
      "البس": 9389,
      "البدر": 9390,
      "البشرة": 9391,
      "البياض": 9392,
      "الرسمية": 9393,
      "الرواية": 9394,
      "النع": 9395,
      "النقاش": 9396,
      "##ربما": 9397,
      "الذعر": 9398,
      "ليال": 9399,
      "##وترة": 9400,
      "متود": 9401,
      "متفر": 9402,
      "متجها": 9403,
      "متوقعة": 9404,
      "الصينية": 9405,
      "الصراخ": 9406,
      "الصندوق": 9407,
      "الفنان": 9408,
      "الفيلا": 9409,
      "الفستان": 9410,
      "ومنا": 9411,
      "ولان": 9412,
      "ولدى": 9413,
      "ولانه": 9414,
      "الطفلة": 9415,
      "احذر": 9416,
      "ايمكن": 9417,
      "فاخ": 9418,
      "اسى": 9419,
      "الكشف": 9420,
      "الكريم": 9421,
      "الكاين": 9422,
      "##برها": 9423,
      "##وسع": 9424,
      "تتل": 9425,
      "بعناد": 9426,
      "يدخن": 9427,
      "محض": 9428,
      "محال": 9429,
      "##فاها": 9430,
      "##فاقه": 9431,
      "##فاصيل": 9432,
      "يعالج": 9433,
      "##تهاج": 9434,
      "باصاب": 9435,
      "ولمح": 9436,
      "بانفس": 9437,
      "حسبنا": 9438,
      "تحضر": 9439,
      "بنور": 9440,
      "الرجلان": 9441,
      "بحر": 9442,
      "بحجرة": 9443,
      "##وحشية": 9444,
      "اشفق": 9445,
      "يحيط": 9446,
      "##سيس": 9447,
      "كالك": 9448,
      "النادر": 9449,
      "اصلاح": 9450,
      "اهة": 9451,
      "وكنا": 9452,
      "##شرق": 9453,
      "##ساكر": 9454,
      "يمض": 9455,
      "يمثل": 9456,
      "بدورها": 9457,
      "اكد": 9458,
      "بمعا": 9459,
      "اجدر": 9460,
      "اجمع": 9461,
      "بسط": 9462,
      "الاسلام": 9463,
      "الاسرار": 9464,
      "تجت": 9465,
      "يرنو": 9466,
      "فانني": 9467,
      "##عيشة": 9468,
      "لتست": 9469,
      "مستغر": 9470,
      "مسح": 9471,
      "مسكين": 9472,
      "##فقر": 9473,
      "##ابتسام": 9474,
      "تفارق": 9475,
      "باسمه": 9476,
      "##غلقت": 9477,
      "ودفع": 9478,
      "ودخلت": 9479,
      "الاحذية": 9480,
      "الاحزاب": 9481,
      "ستة": 9482,
      "##دهة": 9483,
      "راضية": 9484,
      "##بكا": 9485,
      "مصيره": 9486,
      "الشيوخ": 9487,
      "سيس": 9488,
      "تسته": 9489,
      "تساله": 9490,
      "تشغل": 9491,
      "حينه": 9492,
      "تسترد": 9493,
      "يصعد": 9494,
      "ورغ": 9495,
      "##وارد": 9496,
      "##وارير": 9497,
      "الراوي": 9498,
      "الاستعداد": 9499,
      "اثرت": 9500,
      "اثنان": 9501,
      "فرارا": 9502,
      "تخفي": 9503,
      "مشرب": 9504,
      "وغاب": 9505,
      "كلاما": 9506,
      "الويل": 9507,
      "ذهبا": 9508,
      "الباعث": 9509,
      "يغطي": 9510,
      "يغرق": 9511,
      "الفتوات": 9512,
      "يهرب": 9513,
      "حمراء": 9514,
      "يعدل": 9515,
      "##لاقات": 9516,
      "تلحظ": 9517,
      "فصاعدا": 9518,
      "نظري": 9519,
      "الليلية": 9520,
      "بجزع": 9521,
      "بجمالها": 9522,
      "##نقها": 9523,
      "ملاحظة": 9524,
      "ذكره": 9525,
      "ذكرياته": 9526,
      "يدهش": 9527,
      "احتفظ": 9528,
      "مغال": 9529,
      "مغادرة": 9530,
      "وزاد": 9531,
      "فالح": 9532,
      "لحساب": 9533,
      "والدته": 9534,
      "##اثرا": 9535,
      "بالسياسة": 9536,
      "السلوك": 9537,
      "السلولي": 9538,
      "العربي": 9539,
      "اليسار": 9540,
      "ينتبه": 9541,
      "شرطي": 9542,
      "اطول": 9543,
      "فاجابته": 9544,
      "الرحيل": 9545,
      "##وثبت": 9546,
      "اعرفك": 9547,
      "فمضت": 9548,
      "##سكع": 9549,
      "غضبها": 9550,
      "واخلاص": 9551,
      "وظيفته": 9552,
      "واقعة": 9553,
      "يقتحم": 9554,
      "يعترض": 9555,
      "الفرماني": 9556,
      "اعداد": 9557,
      "تنام": 9558,
      "جوعا": 9559,
      "باشارة": 9560,
      "كلامها": 9561,
      "التعاسة": 9562,
      "فدعا": 9563,
      "تراها": 9564,
      "مزاح": 9565,
      "مزيدا": 9566,
      "منظرها": 9567,
      "حقيبة": 9568,
      "بارد": 9569,
      "والرغبة": 9570,
      "القبلي": 9571,
      "فارس": 9572,
      "فارغ": 9573,
      "الارمل": 9574,
      "واختفى": 9575,
      "الحسينية": 9576,
      "طاغية": 9577,
      "والهواء": 9578,
      "احساسا": 9579,
      "عظيما": 9580,
      "فادركت": 9581,
      "شريفة": 9582,
      "لاستقبال": 9583,
      "الملكة": 9584,
      "اتعس": 9585,
      "لجنة": 9586,
      "يثبت": 9587,
      "اختفاء": 9588,
      "اصحابها": 9589,
      "توفيق": 9590,
      "الفرنسية": 9591,
      "نهضت": 9592,
      "بوسعه": 9593,
      "خافق": 9594,
      "تاكل": 9595,
      "يرحب": 9596,
      "المطلوب": 9597,
      "وعليه": 9598,
      "ميتة": 9599,
      "المقابر": 9600,
      "تابى": 9601,
      "وسمعت": 9602,
      "اندفعت": 9603,
      "للكلام": 9604,
      "يتبادلون": 9605,
      "المعبود": 9606,
      "اهتماما": 9607,
      "وتنهدت": 9608,
      "يتحدثون": 9609,
      "سقطت": 9610,
      "جناح": 9611,
      "دهرا": 9612,
      "فريك": 9613,
      "بذراعه": 9614,
      "اتفقنا": 9615,
      "المفضي": 9616,
      "احدثك": 9617,
      "فاشتد": 9618,
      "غالبا": 9619,
      "متجهما": 9620,
      "محنقا": 9621,
      "محزونا": 9622,
      "مستطلعا": 9623,
      "بانتباه": 9624,
      "وانحنى": 9625,
      "غارقا": 9626,
      "كارثة": 9627,
      "سخربوط": 9628,
      "هفوة": 9629,
      "افلتت": 9630,
      "متفحصة": 9631,
      "فجعلت": 9632,
      "##تلر": 9633,
      "اعواما": 9634,
      "ثقيلا": 9635,
      "مارجريت": 9636,
      "اصر": 9637,
      "اطار": 9638,
      "اكتب": 9639,
      "اوافق": 9640,
      "بياس": 9641,
      "تراب": 9642,
      "تزداد": 9643,
      "تضاعف": 9644,
      "تليفون": 9645,
      "تظفر": 9646,
      "تجلى": 9647,
      "جب": 9648,
      "جيش": 9649,
      "جعران": 9650,
      "حدا": 9651,
      "حملة": 9652,
      "خبي": 9653,
      "ختام": 9654,
      "دبت": 9655,
      "رسم": 9656,
      "رضا": 9657,
      "ردد": 9658,
      "رياض": 9659,
      "زاوية": 9660,
      "زيارته": 9661,
      "سلا": 9662,
      "سخط": 9663,
      "سواله": 9664,
      "شراء": 9665,
      "شباك": 9666,
      "شفته": 9667,
      "شجاعة": 9668,
      "شعلة": 9669,
      "صوان": 9670,
      "طق": 9671,
      "عشق": 9672,
      "عمتي": 9673,
      "عواقب": 9674,
      "غيب": 9675,
      "غرام": 9676,
      "فالم": 9677,
      "فعلى": 9678,
      "فبدت": 9679,
      "قوت": 9680,
      "كرا": 9681,
      "كفر": 9682,
      "لول": 9683,
      "لنت": 9684,
      "مرف": 9685,
      "مبادي": 9686,
      "وذا": 9687,
      "ورق": 9688,
      "وظن": 9689,
      "وديع": 9690,
      "يما": 9691,
      "يول": 9692,
      "يطلق": 9693,
      "يوافق": 9694,
      "١٨": 9695,
      "٢٠": 9696,
      "##تت": 9697,
      "##بيدة": 9698,
      "##دال": 9699,
      "##مير": 9700,
      "##نفه": 9701,
      "##طول": 9702,
      "##طردت": 9703,
      "##ومت": 9704,
      "##ويتها": 9705,
      "##ذاني": 9706,
      "##حيب": 9707,
      "##ثي": 9708,
      "##عجب": 9709,
      "##كافي": 9710,
      "##فنا": 9711,
      "##ظنه": 9712,
      "##جول": 9713,
      "##شاب": 9714,
      "##شاف": 9715,
      "##شفه": 9716,
      "##خاص": 9717,
      "##خفف": 9718,
      "##زينة": 9719,
      "الرفض": 9720,
      "##انع": 9721,
      "انظري": 9722,
      "منفر": 9723,
      "منتف": 9724,
      "منظرا": 9725,
      "##راغ": 9726,
[...]
