{
  "version": "1.0",
  "truncation": null,
  "padding": null,
  "added_tokens": [
    {
      "id": 0,
      "content": "[UNK]",
      "single_word": false,
      "lstrip": false,
      "rstrip": false,
      "normalized": false,
      "special": true
    },
    {
      "id": 1,
      "content": "[PAD]",
      "single_word": false,
      "lstrip": false,
      "rstrip": false,
      "normalized": false,
      "special": true
    },
    {
      "id": 2,
      "content": "[CLS]",
      "single_word": false,
      "lstrip": false,
      "rstrip": false,
      "normalized": false,
      "special": true
    },
    {
      "id": 3,
      "content": "[SEP]",
      "single_word": false,
      "lstrip": false,
      "rstrip": false,
      "normalized": false,
      "special": true
    },
    {
      "id": 4,
      "content": "[MASK]",
      "single_word": false,
      "lstrip": false,
      "rstrip": false,
      "normalized": false,
      "special": true
    }
  ],
  "normalizer": {
    "type": "BertNormalizer",
    "clean_text": true,
    "handle_chinese_chars": true,
    "strip_accents": null,
    "lowercase": true
  },
  "pre_tokenizer": {
    "type": "BertPreTokenizer"
  },
  "post_processor": null,
  "decoder": {
    "type": "WordPiece",
    "prefix": "##",
    "cleanup": true
  },
  "model": {
    "type": "WordPiece",
    "unk_token": "[UNK]",
    "continuing_subword_prefix": "##",
    "max_input_chars_per_word": 100,
    "vocab": {
      "[UNK]": 0,
      "[PAD]": 1,
      "[CLS]": 2,
      "[SEP]": 3,
      "[MASK]": 4,
      "،": 5,
      "؛": 6,
      "؟": 7,
      "ء": 8,
      "ا": 9,
      "ب": 10,
      "ة": 11,
      "ت": 12,
      "ث": 13,
      "ج": 14,
      "ح": 15,
      "خ": 16,
      "د": 17,
      "ذ": 18,
      "ر": 19,
      "ز": 20,
      "س": 21,
      "ش": 22,
      "ص": 23,
      "ض": 24,
      "ط": 25,
      "ظ": 26,
      "ع": 27,
      "غ": 28,
      "ـ": 29,
      "ف": 30,
      "ق": 31,
      "ك": 32,
      "ل": 33,
      "م": 34,
      "ن": 35,
      "ه": 36,
      "و": 37,
      "ى": 38,
      "ي": 39,
      "٠": 40,
      "١": 41,
      "٢": 42,
      "٣": 43,
      "٤": 44,
      "٥": 45,
      "٦": 46,
      "٧": 47,
      "٨": 48,
      "٩": 49,
      "٪": 50,
      "ک": 51,
      "ی": 52,
      "۰": 53,
      "۱": 54,
      "۲": 55,
      "۳": 56,
      "۷": 57,
      "۹": 58,
      "##م": 59,
      "##ح": 60,
      "##ب": 61,
      "##و": 62,
      "##ا": 63,
      "##ر": 64,
      "##ي": 65,
      "##خ": 66,
      "##ط": 67,
      "##ث": 68,
      "##ن": 69,
      "##ت": 70,
      "##ه": 71,
      "##د": 72,
      "##ظ": 73,
      "##ة": 74,
      "##ل": 75,
      "##ف": 76,
      "##ج": 77,
      "##ز": 78,
      "##س": 79,
      "##ذ": 80,
      "##غ": 81,
      "##ص": 82,
      "##ق": 83,
      "##ك": 84,
      "##ى": 85,
      "##ء": 86,
      "##ع": 87,
      "##ش": 88,
      "##ض": 89,
      "##٩": 90,
      "##ک": 91,
      "##٣": 92,
      "##١": 93,
      "##ی": 94,
      "##٠": 95,
      "##٥": 96,
      "##٤": 97,
      "##٦": 98,
      "##٧": 99,
      "##ـ": 100,
      "##٨": 101,
      "##٢": 102,
      "##۱": 103,
      "##۲": 104,
      "##۰": 105,
      "##۹": 106,
      "##۷": 107,
      "ال": 108,
      "##ال": 109,
      "##ان": 110,
      "##ها": 111,
      "ان": 112,
      "في": 113,
      "##ما": 114,
      "من": 115,
      "##ين": 116,
      "##را": 117,
      "##لا": 118,
      "الا": 119,
      "الم": 120,
      "عل": 121,
      "##رة": 122,
      "##يا": 123,
      "##لك": 124,
      "##نا": 125,
      "##ية": 126,
      "##ته": 127,
      "##ار": 128,
      "وال": 129,
      "##اب": 130,
      "لا": 131,
      "الى": 132,
      "##يد": 133,
      "على": 134,
      "##ست": 135,
      "##ول": 136,
      "##ير": 137,
      "##اد": 138,
      "ما": 139,
      "الح": 140,
      "##ذا": 141,
      "عن": 142,
      "##وا": 143,
      "##ون": 144,
      "وا": 145,
      "##يل": 146,
      "##ري": 147,
      "بال": 148,
      "##ام": 149,
      "##اء": 150,
      "##يه": 151,
      "##لم": 152,
      "##قال": 153,
      "ولك": 154,
      "لم": 155,
      "وه": 156,
      "الس": 157,
      "ولكن": 158,
      "الع": 159,
      "##له": 160,
      "##با": 161,
      "الت": 162,
      "##ور": 163,
      "##ني": 164,
      "##عد": 165,
      "##قد": 166,
      "##جل": 167,
      "##اي": 168,
      "كان": 169,
      "ثم": 170,
      "##حد": 171,
      "##هم": 172,
      "وت": 173,
      "##بي": 174,
      "##يق": 175,
      "##اس": 176,
      "الش": 177,
      "##رت": 178,
      "##بة": 179,
      "##فس": 180,
      "ام": 181,
      "##ات": 182,
      "##وم": 183,
      "##لت": 184,
      "##فت": 185,
      "الج": 186,
      "##ود": 187,
      "##وج": 188,
      "##وق": 189,
      "##تى": 190,
      "##يم": 191,
      "##عت": 192,
      "فقال": 193,
      "##كان": 194,
      "مع": 195,
      "##اح": 196,
      "الق": 197,
      "##كن": 198,
      "##اه": 199,
      "##مت": 200,
      "##كر": 201,
      "وج": 202,
      "##دا": 203,
      "اب": 204,
      "وان": 205,
      "الب": 206,
      "يت": 207,
      "يا": 208,
      "اخ": 209,
      "الر": 210,
      "او": 211,
      "##لق": 212,
      "##عة": 213,
      "##به": 214,
      "##رف": 215,
      "##دي": 216,
      "##ذه": 217,
      "حتى": 218,
      "الخ": 219,
      "##يف": 220,
      "له": 221,
      "##رك": 222,
      "##رب": 223,
      "الن": 224,
      "وهو": 225,
      "هذا": 226,
      "الذ": 227,
      "##يت": 228,
      "انه": 229,
      "##مة": 230,
      "##عل": 231,
      "##مر": 232,
      "##حت": 233,
      "##عا": 234,
      "##وت": 235,
      "ول": 236,
      "##قت": 237,
      "مت": 238,
      "به": 239,
      "وم": 240,
      "الص": 241,
      "لي": 242,
      "##سم": 243,
      "فت": 244,
      "الف": 245,
      "الد": 246,
      "##يها": 247,
      "شي": 248,
      "##مل": 249,
      "نفس": 250,
      "##در": 251,
      "وقال": 252,
      "##اف": 253,
      "ذلك": 254,
      "يق": 255,
      "##بل": 256,
      "الط": 257,
      "##قة": 258,
      "وس": 259,
      "ولا": 260,
      "##نت": 261,
      "كل": 262,
      "##يدة": 263,
      "##رى": 264,
      "الذي": 265,
      "قال": 266,
      "فا": 267,
      "اح": 268,
      "بين": 269,
      "اس": 270,
      "الك": 271,
      "##بت": 272,
      "##ظر": 273,
      "##وف": 274,
      "##قا": 275,
      "لل": 276,
      "اع": 277,
      "##وة": 278,
      "##بر": 279,
      "##يلة": 280,
      "##رج": 281,
      "التي": 282,
      "است": 283,
      "##رد": 284,
      "وكان": 285,
      "اي": 286,
      "##كت": 287,
      "ين": 288,
      "##لب": 289,
      "بع": 290,
      "يد": 291,
      "##وس": 292,
      "الز": 293,
      "##ساء": 294,
      "##راء": 295,
      "وق": 296,
      "انت": 297,
      "تت": 298,
      "##بد": 299,
      "وع": 300,
      "##لة": 301,
      "الان": 302,
      "تع": 303,
      "اما": 304,
      "##لام": 305,
      "##خل": 306,
      "الله": 307,
      "##فا": 308,
      "##في": 309,
      "##تها": 310,
      "##مال": 311,
      "يع": 312,
      "##رض": 313,
      "بعد": 314,
      "##جة": 315,
      "هو": 316,
      "مح": 317,
      "هذه": 318,
      "الي": 319,
      "##مد": 320,
      "عين": 321,
      "الغ": 322,
      "##مي": 323,
      "##يب": 324,
      "ولم": 325,
      "با": 326,
      "##جا": 327,
      "##ثر": 328,
      "قد": 329,
      "غير": 330,
      "وب": 331,
      "يج": 332,
      "##صر": 333,
      "شيء": 334,
      "##وي": 335,
      "##هر": 336,
      "بان": 337,
      "##حة": 338,
      "##حك": 339,
      "حس": 340,
      "عليه": 341,
      "##لي": 342,
      "##هد": 343,
      "وح": 344,
      "تق": 345,
      "كما": 346,
      "ولكنه": 347,
      "##من": 348,
      "##جر": 349,
      "##اط": 350,
      "تن": 351,
      "تح": 352,
      "##عه": 353,
      "عند": 354,
      "ات": 355,
      "لها": 356,
      "##قيق": 357,
      "##ياة": 358,
      "وهي": 359,
      "الل": 360,
      "الرجل": 361,
      "وقد": 362,
      "بن": 363,
      "##رق": 364,
      "##يرة": 365,
      "اليه": 366,
      "وجه": 367,
      "##اع": 368,
      "##كون": 369,
      "##دة": 370,
      "##دت": 371,
      "بها": 372,
      "##سة": 373,
      "##وان": 374,
      "##وح": 375,
      "لن": 376,
      "نح": 377,
      "##رح": 378,
      "##رات": 379,
      "نفسه": 380,
      "اش": 381,
      "بح": 382,
      "بك": 383,
      "##وه": 384,
      "وي": 385,
      "الاخ": 386,
      "##وب": 387,
      "هل": 388,
      "##سي": 389,
      "##قل": 390,
      "##فع": 391,
      "##راة": 392,
      "يح": 393,
      "##قب": 394,
      "لك": 395,
      "راس": 396,
      "بل": 397,
      "ون": 398,
      "##يات": 399,
      "##سا": 400,
      "علي": 401,
      "جد": 402,
      "كال": 403,
      "##عر": 404,
      "وما": 405,
      "##فة": 406,
      "##شة": 407,
      "##صد": 408,
      "##اك": 409,
      "##فر": 410,
      "انها": 411,
      "##وع": 412,
      "النا": 413,
      "احد": 414,
      "##هما": 415,
      "اه": 416,
      "يقول": 417,
      "##غم": 418,
      "##قه": 419,
      "وك": 420,
      "##ضا": 421,
      "##ضي": 422,
      "##وز": 423,
      "بص": 424,
      "##ادة": 425,
      "يست": 426,
      "##مع": 427,
      "مرة": 428,
      "قل": 429,
      "يس": 430,
      "هي": 431,
      "كيف": 432,
      "مث": 433,
      "##مه": 434,
      "##طف": 435,
      "##ورة": 436,
      "##ظرة": 437,
      "يش": 438,
      "واحد": 439,
      "##جرة": 440,
      "الث": 441,
      "##اله": 442,
      "اني": 443,
      "سا": 444,
      "##صل": 445,
      "يم": 446,
      "قبل": 447,
      "ماذا": 448,
      "كانت": 449,
      "##ريق": 450,
      "##ساءل": 451,
      "##شر": 452,
      "##ذكر": 453,
      "فه": 454,
      "بلا": 455,
      "اف": 456,
      "##سان": 457,
      "اذا": 458,
      "##ايلا": 459,
      "##ينة": 460,
      "##واج": 461,
      "##طر": 462,
      "اد": 463,
      "اق": 464,
      "اك": 465,
      "##صة": 466,
      "بم": 467,
      "انا": 468,
      "##نة": 469,
      "المت": 470,
      "##ناء": 471,
      "##ارت": 472,
      "بد": 473,
      "##ند": 474,
      "لو": 475,
      "اج": 476,
      "الاس": 477,
      "##طي": 478,
      "السيد": 479,
      "##شا": 480,
      "بس": 481,
      "فقالت": 482,
      "##ينا": 483,
      "تج": 484,
      "##ره": 485,
      "##يرا": 486,
      "يكن": 487,
      "المع": 488,
      "##ذلك": 489,
      "فان": 490,
      "الض": 491,
      "دون": 492,
      "##ياء": 493,
      "##غير": 494,
      "يخ": 495,
      "الحياة": 496,
      "عم": 497,
      "##وض": 498,
      "اص": 499,
      "##وء": 500,
      "تف": 501,
      "البي": 502,
      "اذ": 503,
      "##شي": 504,
      "##طل": 505,
      "لت": 506,
      "مست": 507,
      "##مس": 508,
      "##مان": 509,
      "##فق": 510,
      "فق": 511,
      "فيه": 512,
      "##تي": 513,
      "##امة": 514,
      "ود": 515,
      "مس": 516,
      "منه": 517,
      "بق": 518,
      "##رع": 519,
      "##نه": 520,
      "فلم": 521,
      "##جب": 522,
      "##ابت": 523,
      "##وى": 524,
      "عبد": 525,
      "وش": 526,
      "فوق": 527,
      "قايلا": 528,
      "الما": 529,
      "##ضى": 530,
      "##جلس": 531,
      "##طع": 532,
      "##يس": 533,
      "##طة": 534,
      "##ريد": 535,
      "##وال": 536,
      "يف": 537,
      "صد": 538,
      "انك": 539,
      "##نيا": 540,
      "##بع": 541,
      "##وك": 542,
      "##تف": 543,
      "اليوم": 544,
      "##راه": 545,
      "وراء": 546,
      "وفي": 547,
      "##وجه": 548,
      "باس": 549,
      "##حظ": 550,
      "##ضب": 551,
      "##بق": 552,
      "عليها": 553,
      "كث": 554,
      "##خر": 555,
      "وص": 556,
      "##اني": 557,
      "حقا": 558,
      "مج": 559,
      "##ارة": 560,
      "فس": 561,
      "جمي": 562,
      "را": 563,
      "ايضا": 564,
      "خط": 565,
      "##نون": 566,
      "حال": 567,
      "راي": 568,
      "يوم": 569,
      "##عب": 570,
      "والح": 571,
      "بي": 572,
      "الاح": 573,
      "تد": 574,
      "ست": 575,
      "رج": 576,
      "##نى": 577,
      "##يخ": 578,
      "البيت": 579,
      "##سل": 580,
      "اله": 581,
      "##عم": 582,
      "##باب": 583,
      "##يز": 584,
      "##الم": 585,
      "##يام": 586,
      "اخرى": 587,
      "عا": 588,
      "ياس": 589,
      "الام": 590,
      "تخ": 591,
      "حد": 592,
      "اول": 593,
      "بيت": 594,
      "لان": 595,
      "صاح": 596,
      "##وات": 597,
      "##ديث": 598,
      "##ركة": 599,
      "##مام": 600,
      "فل": 601,
      "##يمة": 602,
      "##الة": 603,
      "والا": 604,
      "تش": 605,
      "##اة": 606,
      "مش": 607,
      "ولكنها": 608,
      "بت": 609,
      "تحت": 610,
      "وخ": 611,
      "مص": 612,
      "##قيقة": 613,
      "وحد": 614,
      "مد": 615,
      "لع": 616,
      "##ذهب": 617,
      "حين": 618,
      "ابت": 619,
      "الظ": 620,
      "##فه": 621,
      "##عي": 622,
      "المراة": 623,
      "##كا": 624,
      "والم": 625,
      "##وما": 626,
      "##ضحك": 627,
      "اخر": 628,
      "##حا": 629,
      "عنه": 630,
      "فيما": 631,
      "ترى": 632,
      "##امل": 633,
      "##وار": 634,
      "##ده": 635,
      "##ولا": 636,
      "##ثة": 637,
      "واست": 638,
      "نحو": 639,
      "##غي": 640,
      "##انا": 641,
      "##يدا": 642,
      "اليها": 643,
      "##بث": 644,
      "ليس": 645,
      "جل": 646,
      "فر": 647,
      "##ادر": 648,
      "##لمة": 649,
      "فقد": 650,
      "سب": 651,
      "بصوت": 652,
      "اعت": 653,
      "والت": 654,
      "##انة": 655,
      "ياسين": 656,
      "##طا": 657,
      "المد": 658,
      "راسه": 659,
      "##زن": 660,
      "##بك": 661,
      "لما": 662,
      "جاء": 663,
      "ورا": 664,
      "##جاب": 665,
      "##زع": 666,
      "وقالت": 667,
      "تس": 668,
      "##كم": 669,
      "##لاء": 670,
      "بما": 671,
      "منها": 672,
      "##صدق": 673,
      "زوج": 674,
      "امام": 675,
      "ارت": 676,
      "وغ": 677,
      "الطريق": 678,
      "تست": 679,
      "كمال": 680,
      "##سمع": 681,
      "اكثر": 682,
      "##ذر": 683,
      "الاست": 684,
      "##بس": 685,
      "مما": 686,
      "المح": 687,
      "##نع": 688,
      "##صف": 689,
      "فيها": 690,
      "ولما": 691,
      "ور": 692,
      "اث": 693,
      "##واء": 694,
      "الجد": 695,
      "الرا": 696,
      "مق": 697,
      "شك": 698,
      "الفت": 699,
      "سي": 700,
      "يكون": 701,
      "رجل": 702,
      "فلا": 703,
      "##اذ": 704,
      "##زوج": 705,
      "مخ": 706,
      "##ضل": 707,
      "فرا": 708,
      "تقول": 709,
      "حي": 710,
      "واخ": 711,
      "##عاد": 712,
      "نظرة": 713,
      "شييا": 714,
      "##رام": 715,
      "##شت": 716,
      "##الي": 717,
      "##بها": 718,
      "القد": 719,
      "##ردد": 720,
      "##وجد": 721,
      "##يفة": 722,
      "حسن": 723,
      "الباب": 724,
      "عز": 725,
      "##باح": 726,
      "##اهر": 727,
      "قالت": 728,
      "الناس": 729,
      "الامر": 730,
      "وانت": 731,
      "صوت": 732,
      "كنت": 733,
      "##وية": 734,
      "اجل": 735,
      "##واد": 736,
      "البا": 737,
      "ومن": 738,
      "المن": 739,
      "##غل": 740,
      "##قي": 741,
      "الشاب": 742,
      "##وقف": 743,
      "##اج": 744,
      "##خص": 745,
      "بيد": 746,
      "##ضة": 747,
      "##ودة": 748,
      "##عادة": 749,
      "##فسه": 750,
      "##باد": 751,
      "اين": 752,
      "باب": 753,
      "سل": 754,
      "مثل": 755,
      "##بار": 756,
      "##ماء": 757,
      "منذ": 758,
      "عينيه": 759,
      "تم": 760,
      "رب": 761,
      "الحب": 762,
      "##تهم": 763,
      "وف": 764,
      "##امت": 765,
      "##بير": 766,
      "الوق": 767,
      "فهم": 768,
      "##جي": 769,
      "جم": 770,
      "شد": 771,
      "##ضت": 772,
      "##يارة": 773,
      "واحدة": 774,
      "قلبه": 775,
      "ذه": 776,
      "الاول": 777,
      "لقد": 778,
      "##ماع": 779,
      "##ريب": 780,
      "بر": 781,
      "##يقة": 782,
      "بخ": 783,
      "##حق": 784,
      "خل": 785,
      "##الت": 786,
      "يغ": 787,
      "تلك": 788,
      "##وظ": 789,
      "وجهه": 790,
      "كلا": 791,
      "##يني": 792,
      "بعض": 793,
      "رغم": 794,
      "الدنيا": 795,
      "كله": 796,
      "يك": 797,
      "كانما": 798,
      "الاع": 799,
      "حول": 800,
      "##جه": 801,
      "##حدث": 802,
      "حيا": 803,
      "##طلق": 804,
      "##زا": 805,
      "##ابة": 806,
      "جميعا": 807,
      "يه": 808,
      "تص": 809,
      "##راب": 810,
      "معا": 811,
      "عما": 812,
      "##رس": 813,
      "##ضح": 814,
      "##جد": 815,
      "الاخر": 816,
      "بش": 817,
      "تك": 818,
      "ولكني": 819,
      "حم": 820,
      "##رور": 821,
      "##وبة": 822,
      "الحجرة": 823,
      "ابي": 824,
      "##رم": 825,
      "##قدم": 826,
      "##تل": 827,
      "اغ": 828,
      "قلب": 829,
      "وط": 830,
      "فما": 831,
      "##ديجة": 832,
      "الاب": 833,
      "وانا": 834,
      "بدا": 835,
      "##سامة": 836,
      "هنا": 837,
      "يط": 838,
      "يمكن": 839,
      "##سب": 840,
      "##ولة": 841,
      "##تك": 842,
      "##زم": 843,
      "الشيخ": 844,
      "##هوة": 845,
      "يعد": 846,
      "بالم": 847,
      "يص": 848,
      "##وته": 849,
      "سم": 850,
      "الوقت": 851,
      "ذاك": 852,
      "فك": 853,
      "##سن": 854,
      "دع": 855,
      "صف": 856,
      "##رار": 857,
      "##واب": 858,
      "يوما": 859,
      "##مات": 860,
      "##على": 861,
      "حا": 862,
      "لكن": 863,
      "##لاق": 864,
      "##ذة": 865,
      "مكان": 866,
      "سن": 867,
      "##سى": 868,
      "الو": 869,
      "المس": 870,
      "##ياس": 871,
      "والع": 872,
      "نفسها": 873,
      "فقلت": 874,
      "شع": 875,
      "وبين": 876,
      "##بح": 877,
      "سيد": 878,
      "##زة": 879,
      "##طيع": 880,
      "##الها": 881,
      "##يك": 882,
      "##صا": 883,
      "الارض": 884,
      "##واق": 885,
      "خديجة": 886,
      "##الية": 887,
      "صدر": 888,
      "الحق": 889,
      "##حظة": 890,
      "##طان": 891,
      "ارا": 892,
      "صاد": 893,
      "بالح": 894,
      "جديد": 895,
      "اذن": 896,
      "##ارج": 897,
      "##بات": 898,
      "مل": 899,
      "##خذ": 900,
      "##قر": 901,
      "نظ": 902,
      "فن": 903,
      "والس": 904,
      "وكانت": 905,
      "##ضاء": 906,
      "##ارع": 907,
      "##فك": 908,
      "للم": 909,
      "##حر": 910,
      "ولو": 911,
      "##زل": 912,
      "##ضر": 913,
      "ذات": 914,
      "##قبل": 915,
      "##ذب": 916,
      "احمد": 917,
      "##جاة": 918,
      "ته": 919,
      "##شف": 920,
      "قلت": 921,
      "يل": 922,
      "##تمام": 923,
      "قا": 924,
      "وجد": 925,
      "اط": 926,
      "خا": 927,
      "##نق": 928,
      "الليل": 929,
      "##فل": 930,
      "##رن": 931,
      "##زد": 932,
      "##اري": 933,
      "جان": 934,
      "مغ": 935,
      "##انه": 936,
      "حسين": 937,
      "المست": 938,
      "##ليلا": 939,
      "بله": 940,
      "##طن": 941,
      "##ويلا": 942,
      "عليك": 943,
      "تكن": 944,
      "فهمي": 945,
      "بج": 946,
      "##شرة": 947,
      "##هاية": 948,
      "##ومة": 949,
      "بالا": 950,
      "فص": 951,
      "##مين": 952,
      "لماذا": 953,
      "طويلا": 954,
      "رح": 955,
      "عنها": 956,
      "الزواج": 957,
      "سبيل": 958,
      "فع": 959,
      "والد": 960,
      "ها": 961,
      "##ايق": 962,
      "يده": 963,
      "لنا": 964,
      "المص": 965,
      "##بيب": 966,
      "ضحك": 967,
      "امراة": 968,
      "محمد": 969,
      "##هل": 970,
      "##رارة": 971,
      "##طلع": 972,
      "قليلا": 973,
      "##ورا": 974,
      "##وره": 975,
      "بنظرة": 976,
      "وز": 977,
      "##عيد": 978,
      "غا": 979,
      "مر": 980,
      "وث": 981,
      "ير": 982,
      "نعم": 983,
      "يجد": 984,
      "حديث": 985,
      "عاد": 986,
      "##ايشة": 987,
      "##راهيم": 988,
      "الاحمر": 989,
      "حجرة": 990,
      "##اره": 991,
      "##يبة": 992,
      "##كة": 993,
      "##افة": 994,
      "##لات": 995,
      "وقت": 996,
      "##هرة": 997,
      "قب": 998,
      "##قط": 999,
      "فال": 1000,
      "##بين": 1001,
      "##عها": 1002,
      "صديق": 1003,
      "##ريم": 1004,
      "احت": 1005,
      "حما": 1006,
      "ذكر": 1007,
      "عر": 1008,
      "العمل": 1009,
      "اخت": 1010,
      "اض": 1011,
      "##شك": 1012,
      "##يار": 1013,
      "داي": 1014,
      "يعرف": 1015,
      "واذا": 1016,
      "ار": 1017,
      "تغ": 1018,
      "لنفسه": 1019,
      "انني": 1020,
      "سر": 1021,
      "ملا": 1022,
      "رغ": 1023,
      "الحديث": 1024,
      "##باه": 1025,
      "يجب": 1026,
      "هد": 1027,
      "##يي": 1028,
      "الحل": 1029,
      "##اق": 1030,
      "##رعان": 1031,
      "معنى": 1032,
      "اقت": 1033,
      "خير": 1034,
      "##ويل": 1035,
      "##تين": 1036,
      "##الته": 1037,
      "##جع": 1038,
      "ابتسامة": 1039,
      "ضاح": 1040,
      "##يش": 1041,
      "فاست": 1042,
      "عد": 1043,
      "##فظ": 1044,
      "##كذا": 1045,
      "بكل": 1046,
      "تما": 1047,
      "##جن": 1048,
      "حياته": 1049,
      "ابن": 1050,
      "تل": 1051,
      "##فتح": 1052,
      "جديدة": 1053,
      "قص": 1054,
      "##ابه": 1055,
      "لح": 1056,
      "وض": 1057,
      "بط": 1058,
      "ينت": 1059,
      "المق": 1060,
      "امه": 1061,
      "ومضى": 1062,
      "##ساءلت": 1063,
      "بلهجة": 1064,
      "##تاب": 1065,
      "##قول": 1066,
      "نفسي": 1067,
      "عمر": 1068,
      "نف": 1069,
      "##يته": 1070,
      "بالس": 1071,
      "##درسة": 1072,
      "تعرف": 1073,
      "باه": 1074,
      "تط": 1075,
      "حياة": 1076,
      "##صور": 1077,
      "تر": 1078,
      "طال": 1079,
      "##وها": 1080,
      "اليس": 1081,
      "تكون": 1082,
      "للا": 1083,
      "مرت": 1084,
      "يض": 1085,
      "##اث": 1086,
      "##حدة": 1087,
      "##بيض": 1088,
      "وعند": 1089,
      "وجهها": 1090,
      "##نان": 1091,
      "جدا": 1092,
      "ويت": 1093,
      "##وله": 1094,
      "##باس": 1095,
      "##بدو": 1096,
      "بانه": 1097,
      "ابراهيم": 1098,
      "اسم": 1099,
      "واح": 1100,
      "السا": 1101,
      "##احت": 1102,
      "الزوج": 1103,
      "هم": 1104,
      "##راف": 1105,
      "كثيرا": 1106,
      "شخص": 1107,
      "مكت": 1108,
      "يز": 1109,
      "##هشة": 1110,
      "الفرا": 1111,
      "بعين": 1112,
      "حق": 1113,
      "مجلس": 1114,
      "الحال": 1115,
      "##فض": 1116,
      "وانه": 1117,
      "كذلك": 1118,
      "##ريبة": 1119,
      "اثر": 1120,
      "فض": 1121,
      "ناح": 1122,
      "الايام": 1123,
      "جن": 1124,
      "##رتها": 1125,
      "مط": 1126,
      "##جت": 1127,
      "منك": 1128,
      "ينب": 1129,
      "##دى": 1130,
      "##شد": 1131,
      "الابيض": 1132,
      "##وقع": 1133,
      "صاحب": 1134,
      "الحس": 1135,
      "##الك": 1136,
      "##اهرة": 1137,
      "شعر": 1138,
      "متى": 1139,
      "##ادي": 1140,
      "##رفة": 1141,
      "ابيه": 1142,
      "طريق": 1143,
      "نش": 1144,
      "##ياح": 1145,
      "الرج": 1146,
      "عج": 1147,
      "السل": 1148,
      "ومع": 1149,
      "حل": 1150,
      "الخط": 1151,
      "##يانا": 1152,
      "العر": 1153,
      "##ماعيل": 1154,
      "##بط": 1155,
      "##ثل": 1156,
      "الموت": 1157,
      "##خت": 1158,
      "##ونة": 1159,
      "ليلة": 1160,
      "##دم": 1161,
      "بالت": 1162,
      "امت": 1163,
      "##فاق": 1164,
      "عايشة": 1165,
      "لذلك": 1166,
      "##كل": 1167,
      "##انية": 1168,
      "##رفع": 1169,
      "##رجع": 1170,
      "ساخ": 1171,
      "ذا": 1172,
      "فح": 1173,
      "##يح": 1174,
      "انف": 1175,
      "##ناول": 1176,
      "##يره": 1177,
      "الحد": 1178,
      "##طح": 1179,
      "عندما": 1180,
      "نع": 1181,
      "كانه": 1182,
      "نحن": 1183,
      "والق": 1184,
      "عام": 1185,
      "وتساءل": 1186,
      "يدري": 1187,
      "طب": 1188,
      "قط": 1189,
      "الحارة": 1190,
      "الجم": 1191,
      "##غت": 1192,
      "والن": 1193,
      "##ظن": 1194,
      "العج": 1195,
      "ثمة": 1196,
      "صمت": 1197,
      "##سر": 1198,
      "الحقيقة": 1199,
      "القهوة": 1200,
      "لط": 1201,
      "مه": 1202,
      "##بته": 1203,
      "ابدا": 1204,
      "حيات": 1205,
      "##قاء": 1206,
      "قايلة": 1207,
      "##ولي": 1208,
      "##املة": 1209,
      "تماما": 1210,
      "##جار": 1211,
      "##جوب": 1212,
      "##سمت": 1213,
      "ينبغي": 1214,
      "الحي": 1215,
      "المش": 1216,
      "وهل": 1217,
      "##درية": 1218,
      "الرح": 1219,
      "حدث": 1220,
      "محت": 1221,
      "لاول": 1222,
      "القديم": 1223,
      "وعلى": 1224,
      "##اها": 1225,
      "دايما": 1226,
      "الشر": 1227,
      "بصر": 1228,
      "واب": 1229,
      "##نين": 1230,
      "وكيف": 1231,
      "تز": 1232,
      "مضى": 1233,
      "##رعة": 1234,
      "##باك": 1235,
      "صدره": 1236,
      "مض": 1237,
      "انته": 1238,
      "##لقى": 1239,
      "شر": 1240,
      "فم": 1241,
      "لعل": 1242,
      "##دع": 1243,
      "وقع": 1244,
      "تعلم": 1245,
      "والخ": 1246,
      "##يتها": 1247,
      "هكذا": 1248,
      "##حل": 1249,
      "##وث": 1250,
      "##نف": 1251,
      "##غيرة": 1252,
      "##الا": 1253,
      "العمر": 1254,
      "اسماعيل": 1255,
      "ساعة": 1256,
      "##رية": 1257,
      "##ظة": 1258,
      "##شى": 1259,
      "امر": 1260,
      "لله": 1261,
      "##زي": 1262,
      "الوح": 1263,
      "بالع": 1264,
      "محجوب": 1265,
      "بنا": 1266,
      "تريد": 1267,
      "##ونا": 1268,
      "فتساءل": 1269,
      "فهو": 1270,
      "فابت": 1271,
      "##ريمة": 1272,
      "المعلم": 1273,
      "وراح": 1274,
      "ترك": 1275,
      "##ذي": 1276,
      "اعرف": 1277,
      "عهد": 1278,
      "واس": 1279,
      "احيانا": 1280,
      "عيناه": 1281,
      "##يء": 1282,
      "##داء": 1283,
      "بالن": 1284,
      "##ربت": 1285,
      "اهل": 1286,
      "##قص": 1287,
      "الوج": 1288,
      "##ثير": 1289,
      "##ارك": 1290,
      "الصمت": 1291,
      "الدين": 1292,
      "الفتاة": 1293,
      "تا": 1294,
      "شفت": 1295,
      "##ابط": 1296,
      "صادق": 1297,
      "فات": 1298,
      "يبق": 1299,
      "راسها": 1300,
      "بث": 1301,
      "نت": 1302,
      "##حن": 1303,
      "الدا": 1304,
      "البل": 1305,
      "##شيء": 1306,
      "تعد": 1307,
      "وهم": 1308,
      "فاجاب": 1309,
      "عينيها": 1310,
      "##طب": 1311,
      "حيث": 1312,
      "##وط": 1313,
      "المنا": 1314,
      "تذكر": 1315,
      "فخ": 1316,
      "##حف": 1317,
      "##بال": 1318,
      "##فاء": 1319,
      "الال": 1320,
      "الغضب": 1321,
      "##دل": 1322,
      "##سك": 1323,
      "الست": 1324,
      "علينا": 1325,
      "عش": 1326,
      "##حم": 1327,
      "##بية": 1328,
      "##ادت": 1329,
      "الذين": 1330,
      "الانسان": 1331,
      "لانه": 1332,
      "ضاحكا": 1333,
      "لحظة": 1334,
      "##عين": 1335,
      "قلبي": 1336,
      "كم": 1337,
      "نس": 1338,
      "##برة": 1339,
      "##ماق": 1340,
      "المكان": 1341,
      "النظر": 1342,
      "نفسك": 1343,
      "بنفس": 1344,
      "##واف": 1345,
      "سليم": 1346,
      "##هار": 1347,
      "##اريخ": 1348,
      "##وام": 1349,
      "واق": 1350,
      "##جليز": 1351,
      "حن": 1352,
      "عق": 1353,
      "عمل": 1354,
      "الخارج": 1355,
      "راى": 1356,
      "لعله": 1357,
      "##زت": 1358,
      "والش": 1359,
      "##يدان": 1360,
      "ليست": 1361,
      "##حب": 1362,
      "احب": 1363,
      "يدع": 1364,
      "از": 1365,
      "##سه": 1366,
      "الواق": 1367,
      "الاف": 1368,
      "الظلام": 1369,
      "اريد": 1370,
      "فكان": 1371,
      "نظر": 1372,
      "##ذك": 1373,
      "وحده": 1374,
      "ايام": 1375,
      "روح": 1376,
      "كر": 1377,
      "وظ": 1378,
      "##صي": 1379,
      "المخ": 1380,
      "قر": 1381,
      "وارت": 1382,
      "##ظار": 1383,
      "##غة": 1384,
      "بف": 1385,
      "ادرك": 1386,
      "الساعة": 1387,
      "المغ": 1388,
      "والج": 1389,
      "الجو": 1390,
      "بالق": 1391,
      "وجاء": 1392,
      "ذرا": 1393,
      "##متم": 1394,
      "##ميع": 1395,
      "صورة": 1396,
      "##يدي": 1397,
      "خف": 1398,
      "##ذاب": 1399,
      "##كلم": 1400,
      "تض": 1401,
      "وات": 1402,
      "معه": 1403,
      "الانت": 1404,
      "اكت": 1405,
      "عرف": 1406,
      "##تم": 1407,
      "##فح": 1408,
      "امها": 1409,
      "البك": 1410,
      "تب": 1411,
      "يدي": 1412,
      "يبدو": 1413,
      "##نهد": 1414,
      "الجن": 1415,
      "متس": 1416,
      "##ملة": 1417,
      "ناحية": 1418,
      "##ظيم": 1419,
      "##زق": 1420,
      "بهد": 1421,
      "نا": 1422,
      "وها": 1423,
      "##عدة": 1424,
      "كلما": 1425,
      "برا": 1426,
      "دار": 1427,
      "رض": 1428,
      "شهر": 1429,
      "##وري": 1430,
      "##راد": 1431,
      "##انت": 1432,
      "يهم": 1433,
      "الماضي": 1434,
      "سع": 1435,
      "يعت": 1436,
      "##مق": 1437,
      "الوز": 1438,
      "##بادل": 1439,
      "علا": 1440,
      "نج": 1441,
      "نق": 1442,
      "شيخ": 1443,
      "حز": 1444,
      "فضحك": 1445,
      "كبير": 1446,
      "لست": 1447,
      "ويق": 1448,
      "الاص": 1449,
      "للت": 1450,
      "يقت": 1451,
      "يرى": 1452,
      "##حية": 1453,
      "##طق": 1454,
      "##راك": 1455,
      "##جلة": 1456,
      "باهتمام": 1457,
      "تخل": 1458,
      "تردد": 1459,
      "##وش": 1460,
      "##نية": 1461,
      "المج": 1462,
      "##ونه": 1463,
      "بالص": 1464,
      "##واه": 1465,
      "ولكنك": 1466,
      "سمع": 1467,
      "فج": 1468,
      "علم": 1469,
      "حظ": 1470,
      "غض": 1471,
      "قلق": 1472,
      "انهم": 1473,
      "##ادم": 1474,
      "اعد": 1475,
      "تساءل": 1476,
      "خاط": 1477,
      "موض": 1478,
      "يحت": 1479,
      "منهم": 1480,
      "السعادة": 1481,
      "الليلة": 1482,
      "انق": 1483,
      "##بلغ": 1484,
      "ينظر": 1485,
      "ضحكة": 1486,
      "مظ": 1487,
      "##طار": 1488,
      "##ريبا": 1489,
      "شاب": 1490,
      "##وذ": 1491,
      "##مارة": 1492,
      "السماء": 1493,
      "الوجه": 1494,
      "##ارب": 1495,
      "##واصل": 1496,
      "جميع": 1497,
      "الاولى": 1498,
      "طري": 1499,
      "يخل": 1500,
      "##ويلة": 1501,
      "##شق": 1502,
      "وجدت": 1503,
      "للع": 1504,
      "الزمن": 1505,
      "طبعا": 1506,
      "ثلا": 1507,
      "وقلت": 1508,
      "##صدقاء": 1509,
      "لهم": 1510,
      "نهاية": 1511,
      "##ضية": 1512,
      "##ناد": 1513,
      "الحك": 1514,
      "##ارية": 1515,
      "##وظف": 1516,
      "الها": 1517,
      "المال": 1518,
      "##ذاك": 1519,
      "امينة": 1520,
      "سيدي": 1521,
      "باي": 1522,
      "نور": 1523,
      "##باء": 1524,
      "##غر": 1525,
      "##عام": 1526,
      "حب": 1527,
      "ولن": 1528,
      "اقول": 1529,
      "فرصة": 1530,
      "الجديد": 1531,
      "بهدوء": 1532,
      "شارع": 1533,
      "اشت": 1534,
      "سعد": 1535,
      "##كار": 1536,
      "##ياب": 1537,
      "##ابع": 1538,
      "يعلم": 1539,
      "الرجال": 1540,
      "راح": 1541,
      "يب": 1542,
      "##تفت": 1543,
      "##ياه": 1544,
      "نحوه": 1545,
      "وكل": 1546,
      "##يسى": 1547,
      "ربنا": 1548,
      "شديد": 1549,
      "حميدة": 1550,
      "طاهر": 1551,
      "##ماس": 1552,
      "##وني": 1553,
      "##كره": 1554,
      "الطبيب": 1555,
      "بعيد": 1556,
      "##طفى": 1557,
      "حض": 1558,
      "زهرة": 1559,
      "ورب": 1560,
      "##فعت": 1561,
      "واش": 1562,
      "واد": 1563,
      "##قدر": 1564,
      "الاسرة": 1565,
      "ربما": 1566,
      "كلمة": 1567,
      "##يع": 1568,
      "##ابل": 1569,
      "##بتها": 1570,
      "الجديدة": 1571,
      "مساء": 1572,
      "يوجد": 1573,
      "##مها": 1574,
      "##انها": 1575,
      "##ادث": 1576,
      "القلب": 1577,
      "##كتب": 1578,
      "وقف": 1579,
      "##واجه": 1580,
      "صاحبه": 1581,
      "بار": 1582,
      "بحدة": 1583,
      "عيسى": 1584,
      "##قى": 1585,
      "المدرسة": 1586,
      "وجعل": 1587,
      "عاب": 1588,
      "لبث": 1589,
      "موج": 1590,
      "يذكر": 1591,
      "##علت": 1592,
      "فتح": 1593,
      "كثير": 1594,
      "فد": 1595,
      "##صت": 1596,
      "##انم": 1597,
      "##هاب": 1598,
      "بغير": 1599,
      "دكان": 1600,
      "كلام": 1601,
      "مريم": 1602,
      "الانجليز": 1603,
      "باشا": 1604,
      "ادري": 1605,
      "رجال": 1606,
      "قلبها": 1607,
      "حقيق": 1608,
      "الجل": 1609,
      "العين": 1610,
      "كالم": 1611,
      "جميل": 1612,
      "بذلك": 1613,
      "ثق": 1614,
      "كي": 1615,
      "##وص": 1616,
      "##زه": 1617,
      "##سام": 1618,
      "##لقت": 1619,
      "الفر": 1620,
      "الاستاذ": 1621,
      "حاجة": 1622,
      "الفراش": 1623,
      "خي": 1624,
      "##عله": 1625,
      "منا": 1626,
      "##تهانة": 1627,
      "ظهر": 1628,
      "##يث": 1629,
      "##فن": 1630,
      "##راحة": 1631,
      "الابد": 1632,
      "##ورد": 1633,
      "##قاق": 1634,
      "الباشا": 1635,
      "شعور": 1636,
      "خبر": 1637,
      "قوة": 1638,
      "##حه": 1639,
      "يتع": 1640,
      "زين": 1641,
      "مصر": 1642,
      "يريد": 1643,
      "##فى": 1644,
      "الملا": 1645,
      "الخير": 1646,
      "بصره": 1647,
      "رضوان": 1648,
      "عباس": 1649,
      "##صاب": 1650,
      "##مار": 1651,
      "##بيع": 1652,
      "الصباح": 1653,
      "رايت": 1654,
      "تنا": 1655,
      "فجاة": 1656,
      "##حاب": 1657,
      "منت": 1658,
      "وسرعان": 1659,
      "احس": 1660,
      "##رجة": 1661,
      "يدها": 1662,
      "كامل": 1663,
      "##ليل": 1664,
      "##ارف": 1665,
      "الكلام": 1666,
      "تجد": 1667,
      "بقوة": 1668,
      "خاصة": 1669,
      "جو": 1670,
      "طل": 1671,
      "فعل": 1672,
      "الاش": 1673,
      "والص": 1674,
      "وتح": 1675,
      "##يقظ": 1676,
      "لولا": 1677,
      "مصطفى": 1678,
      "دا": 1679,
      "فش": 1680,
      "##ذن": 1681,
      "كانها": 1682,
      "##نتظر": 1683,
      "بينهما": 1684,
      "##فعال": 1685,
      "فلن": 1686,
      "حلم": 1687,
      "مز": 1688,
      "##وين": 1689,
      "الالم": 1690,
      "##امر": 1691,
      "السيا": 1692,
      "##ايم": 1693,
      "##بيرة": 1694,
      "وماذا": 1695,
      "الناف": 1696,
      "فراى": 1697,
      "عزت": 1698,
      "كت": 1699,
      "لسان": 1700,
      "مو": 1701,
      "يحدث": 1702,
      "##غبة": 1703,
      "النفس": 1704,
      "حر": 1705,
      "مم": 1706,
      "##خة": 1707,
      "الحظ": 1708,
      "بب": 1709,
      "عص": 1710,
      "يرت": 1711,
      "##غضب": 1712,
      "اليك": 1713,
      "الداخل": 1714,
      "خال": 1715,
      "##سية": 1716,
      "ذهب": 1717,
      "فكرة": 1718,
      "##فو": 1719,
      "##زعا": 1720,
      "اخذ": 1721,
      "الكبير": 1722,
      "بسرعة": 1723,
      "##بب": 1724,
      "##سلم": 1725,
      "##همة": 1726,
      "##افية": 1727,
      "##بتسم": 1728,
      "زب": 1729,
      "عقب": 1730,
      "##طرب": 1731,
      "واع": 1732,
      "بالخ": 1733,
      "امل": 1734,
      "عيني": 1735,
      "##خرية": 1736,
      "غدا": 1737,
      "نب": 1738,
      "##ذار": 1739,
      "الشي": 1740,
      "يستطيع": 1741,
      "العروس": 1742,
      "غريب": 1743,
      "مك": 1744,
      "##مته": 1745,
      "##عتها": 1746,
      "##اهل": 1747,
      "حركة": 1748,
      "خد": 1749,
      "##واطف": 1750,
      "##راءة": 1751,
      "الوا": 1752,
      "##ولت": 1753,
      "النوم": 1754,
      "وساله": 1755,
      "##ردت": 1756,
      "ونظر": 1757,
      "متسايلا": 1758,
      "بض": 1759,
      "مته": 1760,
      "وام": 1761,
      "واص": 1762,
      "الواقع": 1763,
      "رك": 1764,
      "عفت": 1765,
      "بالش": 1766,
      "##يقا": 1767,
      "وكانه": 1768,
      "بنفسه": 1769,
      "باسما": 1770,
      "فساله": 1771,
      "شاء": 1772,
      "وعد": 1773,
      "##خا": 1774,
      "##فات": 1775,
      "##ارق": 1776,
      "##وده": 1777,
      "اشد": 1778,
      "ترا": 1779,
      "رم": 1780,
      "لس": 1781,
      "معت": 1782,
      "##روف": 1783,
      "المل": 1784,
      "النهاية": 1785,
      "يفعل": 1786,
      "هناك": 1787,
      "فابتسم": 1788,
      "حج": 1789,
      "رو": 1790,
      "انسان": 1791,
      "الاد": 1792,
      "##يله": 1793,
      "بالله": 1794,
      "الجميع": 1795,
      "##اهد": 1796,
      "العجوز": 1797,
      "النافذة": 1798,
      "جسم": 1799,
      "##تهي": 1800,
      "الحا": 1801,
      "##متع": 1802,
      "قديم": 1803,
      "السلطان": 1804,
      "صح": 1805,
      "مني": 1806,
      "والف": 1807,
      "عندي": 1808,
      "العام": 1809,
      "##فاع": 1810,
      "لنفس": 1811,
      "موق": 1812,
      "##يري": 1813,
      "##جاج": 1814,
      "بيته": 1815,
      "اراد": 1816,
      "عرفت": 1817,
      "ارض": 1818,
      "صباح": 1819,
      "وين": 1820,
      "وابت": 1821,
      "##زاء": 1822,
      "##لاح": 1823,
      "##لقة": 1824,
      "المرة": 1825,
      "يتساءل": 1826,
      "يديه": 1827,
      "يحب": 1828,
      "##بعث": 1829,
      "جلس": 1830,
      "بنت": 1831,
      "عال": 1832,
      "##ريح": 1833,
      "##ريف": 1834,
      "العا": 1835,
      "متع": 1836,
      "##فكير": 1837,
      "دنيا": 1838,
      "سوء": 1839,
      "##ثال": 1840,
      "##لامة": 1841,
      "واض": 1842,
      "الجام": 1843,
      "##قهى": 1844,
      "رغبة": 1845,
      "شبه": 1846,
      "يسمع": 1847,
      "##ذرا": 1848,
      "##ومي": 1849,
      "##كنت": 1850,
      "##علن": 1851,
      "##دران": 1852,
      "##قبض": 1853,
      "وصاح": 1854,
      "القديمة": 1855,
      "حجر": 1856,
      "##الب": 1857,
      "##ابق": 1858,
      "اهم": 1859,
      "غريبة": 1860,
      "##راح": 1861,
      "المه": 1862,
      "السيارة": 1863,
      "##ودي": 1864,
      "وسط": 1865,
      "##مدون": 1866,
      "باست": 1867,
      "جنون": 1868,
      "فغ": 1869,
      "##ينه": 1870,
      "الاه": 1871,
      "الشمس": 1872,
      "##رتك": 1873,
      "الدكان": 1874,
      "بلغ": 1875,
      "عزيز": 1876,
      "تغير": 1877,
      "وتع": 1878,
      "سري": 1879,
      "طويل": 1880,
      "كن": 1881,
      "منظر": 1882,
      "##ناق": 1883,
      "عني": 1884,
      "ابو": 1885,
      "وربما": 1886,
      "ليل": 1887,
      "##ناه": 1888,
      "##ذات": 1889,
      "الخا": 1890,
      "الفا": 1891,
      "عمله": 1892,
      "غاية": 1893,
      "ضر": 1894,
      "طويلة": 1895,
      "##مون": 1896,
      "##بض": 1897,
      "والك": 1898,
      "واج": 1899,
      "ينتظر": 1900,
      "بهم": 1901,
      "دق": 1902,
      "زوجه": 1903,
      "ليت": 1904,
      "##ندي": 1905,
      "التح": 1906,
      "اولا": 1907,
      "الخوف": 1908,
      "##كتور": 1909,
      "اجد": 1910,
      "جميلة": 1911,
      "سيدة": 1912,
      "طيب": 1913,
      "عادة": 1914,
      "##فها": 1915,
      "##ناس": 1916,
      "##يهما": 1917,
      "صامت": 1918,
      "##انون": 1919,
      "يتح": 1920,
      "النساء": 1921,
      "بهذا": 1922,
      "تحب": 1923,
      "جمال": 1924,
      "موا": 1925,
      "هانم": 1926,
      "##جز": 1927,
      "##راق": 1928,
      "##تهما": 1929,
      "الحقيق": 1930,
      "بالد": 1931,
      "بالك": 1932,
      "اسرة": 1933,
      "يشعر": 1934,
      "فهي": 1935,
      "انتهى": 1936,
      "فلي": 1937,
      "لص": 1938,
      "##خرة": 1939,
      "والان": 1940,
      "##شرين": 1941,
      "قدر": 1942,
      "##ظاهر": 1943,
      "الاز": 1944,
      "##ياع": 1945,
      "##ابلة": 1946,
      "مات": 1947,
      "##نيها": 1948,
      "وليس": 1949,
      "فانت": 1950,
      "حوله": 1951,
      "سمعت": 1952,
      "حياتي": 1953,
      "خلق": 1954,
      "##اثر": 1955,
      "##جم": 1956,
      "الار": 1957,
      "وتت": 1958,
      "الشعر": 1959,
      "بابا": 1960,
      "لكنه": 1961,
      "بز": 1962,
      "خوف": 1963,
      "لق": 1964,
      "نصف": 1965,
      "##يط": 1966,
      "##يلا": 1967,
      "والب": 1968,
      "والر": 1969,
      "فاضل": 1970,
      "بيننا": 1971,
      "عاما": 1972,
      "عايدة": 1973,
      "الحديقة": 1974,
      "بوجه": 1975,
      "صار": 1976,
      "صوته": 1977,
      "كاس": 1978,
      "هن": 1979,
      "##از": 1980,
      "الحزن": 1981,
      "العالم": 1982,
      "النج": 1983,
      "احدا": 1984,
      "الضحك": 1985,
      "الضابط": 1986,
      "تلا": 1987,
      "تلق": 1988,
      "غضب": 1989,
      "##سد": 1990,
      "المط": 1991,
      "##داع": 1992,
      "يكاد": 1993,
      "دور": 1994,
      "للق": 1995,
      "##سين": 1996,
      "##راض": 1997,
      "##ودا": 1998,
      "بينه": 1999,
      "اجمل": 2000,
      "كثيرة": 2001,
      "فلما": 2002,
      "زوجها": 2003,
      "تمت": 2004,
      "رء": 2005,
      "رش": 2006,
      "قوله": 2007,
      "##هش": 2008,
      "والله": 2009,
      "الحم": 2010,
      "##امي": 2011,
      "القلق": 2012,
      "##ركت": 2013,
      "يعني": 2014,
      "##جربة": 2015,
      "##اطب": 2016,
      "اللحظة": 2017,
      "قليل": 2018,
      "واحدا": 2019,
      "الثورة": 2020,
      "رايك": 2021,
      "مليا": 2022,
      "##زداد": 2023,
      "خلا": 2024,
      "موقف": 2025,
      "وعل": 2026,
      "##بو": 2027,
      "##بعه": 2028,
      "##تة": 2029,
      "##تما": 2030,
      "##ظل": 2031,
      "##لف": 2032,
      "##راته": 2033,
      "##ريض": 2034,
      "##قدام": 2035,
      "وتن": 2036,
      "##اسية": 2037,
      "البشر": 2038,
      "اخيرا": 2039,
      "وعاد": 2040,
      "وشعر": 2041,
      "جانب": 2042,
      "حك": 2043,
      "رق": 2044,
      "ظن": 2045,
      "فط": 2046,
      "##بوع": 2047,
      "##لوب": 2048,
      "##ارد": 2049,
      "جاءت": 2050,
      "واخذ": 2051,
      "حمادة": 2052,
      "زينب": 2053,
      "بام": 2054,
      "حمدون": 2055,
      "##ظرت": 2056,
      "الاث": 2057,
      "وهذا": 2058,
      "##اتها": 2059,
      "الطعام": 2060,
      "مجلسه": 2061,
      "ارب": 2062,
      "ذو": 2063,
      "شه": 2064,
      "مال": 2065,
      "##عث": 2066,
      "##ادرت": 2067,
      "بالف": 2068,
      "الذكر": 2069,
      "##قتها": 2070,
      "اعماق": 2071,
      "بكلمة": 2072,
      "رجلا": 2073,
      "غاض": 2074,
      "ساخرا": 2075,
      "بشيء": 2076,
      "مسي": 2077,
      "##ضم": 2078,
      "الكن": 2079,
      "انظر": 2080,
      "المرح": 2081,
      "واعت": 2082,
      "##لتها": 2083,
      "الجمال": 2084,
      "النق": 2085,
      "احسان": 2086,
      "طالما": 2087,
      "تقت": 2088,
      "سال": 2089,
      "ظل": 2090,
      "ممت": 2091,
      "##كرت": 2092,
      "##شيدي": 2093,
      "##راج": 2094,
      "##ايب": 2095,
      "ابنه": 2096,
      "للس": 2097,
      "قدم": 2098,
      "##حكم": 2099,
      "يشبه": 2100,
      "زن": 2101,
      "سخ": 2102,
      "كف": 2103,
      "##راي": 2104,
      "##ناية": 2105,
      "وهنا": 2106,
      "##ربية": 2107,
      "##اطة": 2108,
      "الامور": 2109,
      "##هض": 2110,
      "الياس": 2111,
      "وهما": 2112,
      "ولكنني": 2113,
      "الجنون": 2114,
      "النح": 2115,
      "الاخيرة": 2116,
      "صدق": 2117,
      "الزوجة": 2118,
      "ذاه": 2119,
      "صنع": 2120,
      "غادر": 2121,
      "فعاد": 2122,
      "نها": 2123,
      "##وعة": 2124,
      "##كرة": 2125,
      "السر": 2126,
      "معي": 2127,
      "القاهرة": 2128,
      "الصح": 2129,
      "فتساءلت": 2130,
      "اسف": 2131,
      "تحية": 2132,
      "ونحن": 2133,
      "والحق": 2134,
      "زم": 2135,
      "سرعان": 2136,
      "عالم": 2137,
      "غم": 2138,
      "مفت": 2139,
      "##دفع": 2140,
      "##فاف": 2141,
      "اننا": 2142,
      "##ذاء": 2143,
      "التع": 2144,
      "الصغير": 2145,
      "فتاة": 2146,
      "استط": 2147,
      "وبدا": 2148,
      "الاخرى": 2149,
      "عبده": 2150,
      "خطوة": 2151,
      "الراس": 2152,
      "الوحيد": 2153,
      "سعادة": 2154,
      "شان": 2155,
      "ضوء": 2156,
      "عشرة": 2157,
      "مبت": 2158,
      "وار": 2159,
      "يقال": 2160,
      "##عن": 2161,
      "##عض": 2162,
      "الاقل": 2163,
      "بالج": 2164,
      "##وسف": 2165,
      "بحرارة": 2166,
      "اكبر": 2167,
      "زبيدة": 2168,
      "ايا": 2169,
      "حقيقة": 2170,
      "مرض": 2171,
      "هام": 2172,
      "##طت": 2173,
      "##قطع": 2174,
      "##شية": 2175,
      "##شار": 2176,
      "المز": 2177,
      "السن": 2178,
      "الشباب": 2179,
      "##افر": 2180,
      "احلام": 2181,
      "عيناها": 2182,
      "رجع": 2183,
      "المدير": 2184,
      "برقة": 2185,
      "تزوج": 2186,
      "طا": 2187,
      "فواد": 2188,
      "فالت": 2189,
      "هز": 2190,
      "##يران": 2191,
      "##ادرة": 2192,
      "واقت": 2193,
      "##ومن": 2194,
      "ومضت": 2195,
      "الصوت": 2196,
      "للح": 2197,
      "يجوز": 2198,
      "اهلا": 2199,
      "سبب": 2200,
      "فصاح": 2201,
      "ملي": 2202,
      "##دين": 2203,
      "##غب": 2204,
      "##صح": 2205,
      "##راجع": 2206,
      "بالر": 2207,
      "معها": 2208,
      "##متها": 2209,
      "يتم": 2210,
      "بعيدا": 2211,
      "##مالك": 2212,
      "يعود": 2213,
      "بانها": 2214,
      "الاخشيدي": 2215,
      "##قبال": 2216,
      "ارج": 2217,
      "اسمع": 2218,
      "مهما": 2219,
      "##يال": 2220,
      "##صار": 2221,
      "##ادا": 2222,
      "امي": 2223,
      "الصغيرة": 2224,
      "##منى": 2225,
      "##اعب": 2226,
      "فهتف": 2227,
      "صور": 2228,
      "يو": 2229,
      "يذهب": 2230,
      "##ذل": 2231,
      "التفكير": 2232,
      "الشقة": 2233,
      "##رتي": 2234,
      "امس": 2235,
      "##يتي": 2236,
      "الصد": 2237,
      "وكانما": 2238,
      "مجه": 2239,
      "تدري": 2240,
      "وغادر": 2241,
      "الشرطة": 2242,
      "جا": 2243,
      "فب": 2244,
      "##يذ": 2245,
      "##هن": 2246,
      "##كس": 2247,
      "الاعت": 2248,
      "الامل": 2249,
      "الموض": 2250,
      "##كندرية": 2251,
      "البح": 2252,
      "ولعل": 2253,
      "بهذه": 2254,
      "الفجر": 2255,
      "كلها": 2256,
      "##مانينة": 2257,
      "وراءه": 2258,
      "حام": 2259,
      "حزن": 2260,
      "دم": 2261,
      "عث": 2262,
      "قتل": 2263,
      "قهوة": 2264,
      "ووجد": 2265,
      "##عان": 2266,
      "##راسة": 2267,
      "عنك": 2268,
      "العلم": 2269,
      "انتظر": 2270,
      "مثله": 2271,
      "سمير": 2272,
      "الحلو": 2273,
      "بارت": 2274,
      "طه": 2275,
      "غام": 2276,
      "لد": 2277,
      "ناف": 2278,
      "وير": 2279,
      "ابنت": 2280,
      "الدور": 2281,
      "وسوف": 2282,
      "بنبرة": 2283,
      "جديدا": 2284,
      "ذراع": 2285,
      "جعل": 2286,
      "حينا": 2287,
      "لش": 2288,
      "مخل": 2289,
      "##بان": 2290,
      "##سوة": 2291,
      "القصر": 2292,
      "##يفا": 2293,
      "فاذا": 2294,
      "##بتي": 2295,
      "اعني": 2296,
      "##رجاء": 2297,
      "##اعف": 2298,
      "الثلا": 2299,
      "##رامى": 2300,
      "الجميل": 2301,
      "داع": 2302,
      "سعيد": 2303,
      "السوال": 2304,
      "##بيت": 2305,
      "الغلام": 2306,
      "المدام": 2307,
      "دخ": 2308,
      "دام": 2309,
      "عب": 2310,
      "##وبا": 2311,
      "##اته": 2312,
      "##رته": 2313,
      "##قته": 2314,
      "الجواد": 2315,
      "متج": 2316,
      "محم": 2317,
      "##عادته": 2318,
      "##ضحكت": 2319,
      "رحمة": 2320,
      "##فحص": 2321,
      "جيت": 2322,
      "فار": 2323,
      "لاب": 2324,
      "يضحك": 2325,
      "##اول": 2326,
      "##نب": 2327,
      "##قها": 2328,
      "##كما": 2329,
      "##لاص": 2330,
      "وتم": 2331,
      "البن": 2332,
      "ولبث": 2333,
      "الزمان": 2334,
      "حساب": 2335,
      "الاخير": 2336,
      "##اكم": 2337,
      "يفكر": 2338,
      "بني": 2339,
      "حيرة": 2340,
      "رس": 2341,
      "زال": 2342,
      "عسى": 2343,
      "يصدق": 2344,
      "##ظا": 2345,
      "انس": 2346,
      "العقل": 2347,
      "الشك": 2348,
      "ابنا": 2349,
      "حسني": 2350,
      "##اعر": 2351,
      "خليل": 2352,
      "فعلت": 2353,
      "وعندما": 2354,
      "سعيدة": 2355,
      "زنوبة": 2356,
      "جام": 2357,
      "فارت": 2358,
      "لدي": 2359,
      "وجلس": 2360,
      "يجلس": 2361,
      "انفس": 2362,
      "الاغ": 2363,
      "##ادية": 2364,
      "واما": 2365,
      "##عده": 2366,
      "الخبر": 2367,
      "##وتها": 2368,
      "##واني": 2369,
      "لكل": 2370,
      "فهل": 2371,
      "مكتبه": 2372,
      "كرشة": 2373,
      "الوزارة": 2374,
      "دف": 2375,
      "زواج": 2376,
      "شو": 2377,
      "ضع": 2378,
      "قول": 2379,
      "قريب": 2380,
      "##هور": 2381,
      "##سما": 2382,
      "الوف": 2383,
      "##يادة": 2384,
      "##ارض": 2385,
      "##ابر": 2386,
      "الحرب": 2387,
      "السلم": 2388,
      "السجن": 2389,
      "##ذهول": 2390,
      "##وسط": 2391,
      "باص": 2392,
      "نحوها": 2393,
      "الحسين": 2394,
      "##بالاة": 2395,
      "اذهب": 2396,
      "دخل": 2397,
      "##مى": 2398,
      "##يين": 2399,
      "##لو": 2400,
      "##زوق": 2401,
      "الابت": 2402,
      "##بيعة": 2403,
      "امامه": 2404,
      "مشك": 2405,
      "تستطيع": 2406,
      "مخاط": 2407,
      "فكيف": 2408,
      "تو": 2409,
      "خرج": 2410,
      "سرور": 2411,
      "مول": 2412,
      "نسي": 2413,
      "ينا": 2414,
      "بالان": 2415,
      "وتساءلت": 2416,
      "##اتل": 2417,
      "استاذ": 2418,
      "يسير": 2419,
      "فهز": 2420,
      "تفكر": 2421,
      "اثناء": 2422,
      "ملابس": 2423,
      "لعلها": 2424,
      "ثلاثة": 2425,
      "توا": 2426,
      "تحد": 2427,
      "صغيرة": 2428,
      "عجر": 2429,
      "كبيرة": 2430,
      "##تان": 2431,
      "##فية": 2432,
      "##فلة": 2433,
      "واله": 2434,
      "الخمر": 2435,
      "لهذا": 2436,
      "الطويل": 2437,
      "وسال": 2438,
      "الزقاق": 2439,
      "تدع": 2440,
      "ابتسم": 2441,
      "شفتيه": 2442,
      "الكنبة": 2443,
      "دهشة": 2444,
      "مقد": 2445,
      "وجل": 2446,
      "##غط": 2447,
      "##قية": 2448,
      "##ينما": 2449,
      "الارت": 2450,
      "وجوه": 2451,
      "يسال": 2452,
      "بري": 2453,
      "تسمع": 2454,
      "سطح": 2455,
      "فمن": 2456,
      "مبا": 2457,
      "وضحك": 2458,
      "##كب": 2459,
      "##عته": 2460,
      "بالغ": 2461,
      "##يفون": 2462,
      "فترة": 2463,
      "يقع": 2464,
      "يعيش": 2465,
      "اجت": 2466,
      "##بارك": 2467,
      "انفاس": 2468,
      "سليمان": 2469,
      "تقد": 2470,
      "تقدم": 2471,
      "رد": 2472,
      "سوف": 2473,
      "عنا": 2474,
      "قصر": 2475,
      "##يية": 2476,
      "##هة": 2477,
      "##رابة": 2478,
      "##يهم": 2479,
      "العظيم": 2480,
      "التاريخ": 2481,
      "ولي": 2482,
      "ولعله": 2483,
      "الدار": 2484,
      "الدكتور": 2485,
      "اعلم": 2486,
      "الهواء": 2487,
      "يخلو": 2488,
      "حبي": 2489,
      "نز": 2490,
      "##حان": 2491,
      "##رر": 2492,
      "##فكر": 2493,
      "##كين": 2494,
      "##عود": 2495,
      "مناس": 2496,
      "المرض": 2497,
      "الحاج": 2498,
      "يستحق": 2499,
      "##حظات": 2500,
      "##زدراء": 2501,
      "هنالك": 2502,
      "ساع": 2503,
      "فاد": 2504,
      "مرات": 2505,
      "الاصدقاء": 2506,
      "واضح": 2507,
      "العل": 2508,
      "##ايرة": 2509,
      "##متك": 2510,
      "##داقة": 2511,
      "##عاض": 2512,
      "يقف": 2513,
      "اعجب": 2514,
      "تقع": 2515,
      "يملك": 2516,
      "مسكن": 2517,
      "##كاية": 2518,
      "مرزوق": 2519,
      "ترت": 2520,
      "در": 2521,
      "رف": 2522,
      "عظ": 2523,
      "عف": 2524,
      "عرض": 2525,
      "نص": 2526,
      "##قام": 2527,
      "##كثر": 2528,
      "##عور": 2529,
      "##شه": 2530,
      "الهم": 2531,
      "التل": 2532,
      "##عدا": 2533,
      "الدع": 2534,
      "وسا": 2535,
      "عليهم": 2536,
      "تنظر": 2537,
      "##بقى": 2538,
      "طريقه": 2539,
      "احساس": 2540,
      "اية": 2541,
      "شقيق": 2542,
      "##راها": 2543,
      "##لاع": 2544,
      "السطح": 2545,
      "اعوام": 2546,
      "مدخل": 2547,
      "شداد": 2548,
      "##غتة": 2549,
      "شوكت": 2550,
      "تاريخ": 2551,
      "خم": 2552,
      "شار": 2553,
      "وعا": 2554,
      "##ثاء": 2555,
      "##ظاه": 2556,
      "##فته": 2557,
      "##لاة": 2558,
      "الاط": 2559,
      "المساء": 2560,
      "##لهم": 2561,
      "الشخص": 2562,
      "##فتت": 2563,
      "##كرر": 2564,
      "##لقاء": 2565,
      "النيل": 2566,
      "ينبس": 2567,
      "تعود": 2568,
      "الغد": 2569,
      "قدري": 2570,
      "افندي": 2571,
      "مجنون": 2572,
      "##سليم": 2573,
      "اثار": 2574,
      "تصور": 2575,
      "العينين": 2576,
      "الموضوع": 2577,
      "اذكر": 2578,
      "خص": 2579,
      "قام": 2580,
      "مرا": 2581,
      "يسم": 2582,
      "##كي": 2583,
      "الشاي": 2584,
      "الصورة": 2585,
      "الدم": 2586,
      "##جارة": 2587,
      "ويس": 2588,
      "حنفي": 2589,
      "##زعاج": 2590,
      "حجرته": 2591,
      "جذ": 2592,
      "رفع": 2593,
      "زيارة": 2594,
      "كاد": 2595,
      "يبتسم": 2596,
      "##بيل": 2597,
      "##تنا": 2598,
      "##قق": 2599,
      "الحلم": 2600,
      "##بره": 2601,
      "استطيع": 2602,
      "وعين": 2603,
      "يمضي": 2604,
      "الاسكندرية": 2605,
      "فقط": 2606,
      "سنية": 2607,
      "الشيطان": 2608,
      "تعت": 2609,
      "طيلة": 2610,
      "عان": 2611,
      "فاح": 2612,
      "فوجد": 2613,
      "لز": 2614,
      "يدر": 2615,
      "##نها": 2616,
      "##ذرة": 2617,
      "##غا": 2618,
      "العم": 2619,
      "العز": 2620,
      "العق": 2621,
      "العوا": 2622,
      "##ردة": 2623,
      "وبعد": 2624,
      "بدهشة": 2625,
      "تفك": 2626,
      "##وكد": 2627,
      "بيتي": 2628,
      "رويدا": 2629,
      "بمن": 2630,
      "تلم": 2631,
      "فرح": 2632,
      "مشر": 2633,
      "##حام": 2634,
      "##خط": 2635,
      "##طم": 2636,
      "##طفة": 2637,
      "##ضان": 2638,
      "المر": 2639,
      "بالز": 2640,
      "النهار": 2641,
      "##افي": 2642,
      "اسباب": 2643,
      "الكلمة": 2644,
      "هولاء": 2645,
      "عندك": 2646,
      "اتع": 2647,
      "##ضيحة": 2648,
      "فانه": 2649,
      "تفعل": 2650,
      "باح": 2651,
      "ترد": 2652,
      "شري": 2653,
      "لج": 2654,
      "يمن": 2655,
      "##نج": 2656,
      "##دية": 2657,
      "##فف": 2658,
      "اليق": 2659,
      "الاحت": 2660,
      "المم": 2661,
      "عليات": 2662,
      "واحت": 2663,
      "واشت": 2664,
      "##عدت": 2665,
      "##يمان": 2666,
      "ابوه": 2667,
      "يتصور": 2668,
      "ينسى": 2669,
      "راسي": 2670,
      "ذهبت": 2671,
      "المسالة": 2672,
      "نظرات": 2673,
      "الوجود": 2674,
      "اصدق": 2675,
      "رباه": 2676,
      "طول": 2677,
      "طوال": 2678,
      "طيبة": 2679,
      "مفر": 2680,
      "وذكر": 2681,
      "وكنت": 2682,
      "يلق": 2683,
      "##حته": 2684,
      "##لال": 2685,
      "##جزة": 2686,
      "الهد": 2687,
      "واث": 2688,
      "##ريس": 2689,
      "##ريضة": 2690,
      "##اتي": 2691,
      "##اهة": 2692,
      "اللع": 2693,
      "بحماس": 2694,
      "فسالته": 2695,
      "##طلقت": 2696,
      "الاخرين": 2697,
      "هدوء": 2698,
      "اود": 2699,
      "ايها": 2700,
      "دقيقة": 2701,
      "ريب": 2702,
      "طرف": 2703,
      "عدا": 2704,
      "ممن": 2705,
      "مولا": 2706,
      "##وخ": 2707,
      "##تار": 2708,
      "##لها": 2709,
      "اللا": 2710,
      "الته": 2711,
      "وانها": 2712,
      "##بدت": 2713,
      "خيرا": 2714,
      "سلم": 2715,
      "شباب": 2716,
      "صر": 2717,
      "ضح": 2718,
      "طلب": 2719,
      "عجب": 2720,
      "##خيل": 2721,
      "الكر": 2722,
      "الات": 2723,
      "السيدة": 2724,
      "##يقه": 2725,
      "##ركز": 2726,
      "ولذلك": 2727,
      "##برياء": 2728,
      "تنس": 2729,
      "زوجة": 2730,
      "##جيء": 2731,
      "##بحث": 2732,
      "اضط": 2733,
      "عمره": 2734,
      "عظيم": 2735,
      "كا": 2736,
      "مذ": 2737,
      "ملك": 2738,
      "معد": 2739,
      "مفا": 2740,
      "##بيه": 2741,
      "##وعا": 2742,
      "##فرة": 2743,
      "##عك": 2744,
      "##عيدة": 2745,
      "##هاد": 2746,
      "لمن": 2747,
      "##ايية": 2748,
      "الجان": 2749,
      "القا": 2750,
      "##رفض": 2751,
      "##جاجة": 2752,
      "فسال": 2753,
      "وراحت": 2754,
      "قصيرة": 2755,
      "بعينين": 2756,
      "الوجوه": 2757,
      "ويقول": 2758,
      "داخل": 2759,
      "السياسة": 2760,
      "ارى": 2761,
      "زلت": 2762,
      "سوى": 2763,
      "فاس": 2764,
      "فكر": 2765,
      "مقت": 2766,
      "##حي": 2767,
      "##ران": 2768,
      "##خم": 2769,
      "##خرج": 2770,
      "والغ": 2771,
      "##يرها": 2772,
      "العمارة": 2773,
      "##ورها": 2774,
      "امره": 2775,
      "##دارة": 2776,
      "##صرخ": 2777,
      "خلال": 2778,
      "فماذا": 2779,
      "منتصف": 2780,
      "صنعان": 2781,
      "توجد": 2782,
      "زمن": 2783,
      "ساله": 2784,
      "عاط": 2785,
      "عبث": 2786,
      "مقا": 2787,
      "ميدان": 2788,
      "ويد": 2789,
      "وست": 2790,
      "##ميم": 2791,
      "##ثا": 2792,
      "##ظم": 2793,
      "##صرف": 2794,
      "##كد": 2795,
      "الاحد": 2796,
      "المعت": 2797,
      "المحت": 2798,
      "والده": 2799,
      "##ستان": 2800,
      "##ريت": 2801,
      "السم": 2802,
      "##ودته": 2803,
      "وانته": 2804,
      "يتكلم": 2805,
      "النش": 2806,
      "للن": 2807,
      "##غمغم": 2808,
      "وكم": 2809,
      "الماء": 2810,
      "ذكريات": 2811,
      "بالصمت": 2812,
      "اقل": 2813,
      "بامت": 2814,
      "موظف": 2815,
      "ووقف": 2816,
      "يدا": 2817,
      "##ظري": 2818,
      "##جرت": 2819,
      "##زاد": 2820,
      "##الح": 2821,
      "##نات": 2822,
      "لاست": 2823,
      "واي": 2824,
      "العباس": 2825,
      "##ومه": 2826,
      "الفرن": 2827,
      "##يهات": 2828,
      "يقوم": 2829,
      "تعني": 2830,
      "##رقص": 2831,
      "باسمة": 2832,
      "حيال": 2833,
      "الاعماق": 2834,
      "نشاط": 2835,
      "##وافذ": 2836,
      "كثيرون": 2837,
      "دعا": 2838,
      "سح": 2839,
      "شدة": 2840,
      "صوب": 2841,
      "وته": 2842,
      "وغير": 2843,
      "##صاف": 2844,
      "الوك": 2845,
      "##ماعة": 2846,
      "الملك": 2847,
      "والز": 2848,
      "معروف": 2849,
      "##وفة": 2850,
      "وقعت": 2851,
      "تتع": 2852,
      "يستطع": 2853,
      "بقلق": 2854,
      "##والي": 2855,
      "دقايق": 2856,
      "بغ": 2857,
      "جال": 2858,
      "ذي": 2859,
      "سواء": 2860,
      "صب": 2861,
      "نصي": 2862,
      "هات": 2863,
      "وفت": 2864,
      "##نيه": 2865,
      "##درك": 2866,
      "##ظهر": 2867,
      "##جته": 2868,
      "##قف": 2869,
      "##هام": 2870,
      "##وجدت": 2871,
      "النظ": 2872,
      "متسا": 2873,
      "ينف": 2874,
      "يعمل": 2875,
      "الثق": 2876,
      "الثاني": 2877,
      "المدينة": 2878,
      "سبيله": 2879,
      "حديثه": 2880,
      "الزوجية": 2881,
      "ساخرة": 2882,
      "زي": 2883,
      "شقة": 2884,
      "عي": 2885,
      "قرا": 2886,
      "وله": 2887,
      "يوسف": 2888,
      "##لته": 2889,
      "##فوظ": 2890,
      "##سها": 2891,
      "##قلب": 2892,
      "السير": 2893,
      "اخي": 2894,
      "وسالته": 2895,
      "الكل": 2896,
      "ودع": 2897,
      "وراءها": 2898,
      "##يزة": 2899,
      "جليلة": 2900,
      "##طاير": 2901,
      "بخير": 2902,
      "##صاص": 2903,
      "فنظر": 2904,
      "رءوف": 2905,
      "الذكريات": 2906,
      "بات": 2907,
      "بدرية": 2908,
      "حياء": 2909,
      "فضحكت": 2910,
      "قت": 2911,
      "كنا": 2912,
      "ويم": 2913,
      "وذهب": 2914,
      "يود": 2915,
      "##وغ": 2916,
      "##طاء": 2917,
      "##هاء": 2918,
      "المعا": 2919,
      "الموقف": 2920,
      "والى": 2921,
      "##ونها": 2922,
      "وامت": 2923,
      "السكر": 2924,
      "السلام": 2925,
      "للش": 2926,
      "اعما": 2927,
      "##وسة": 2928,
      "وحتى": 2929,
      "افك": 2930,
      "جلست": 2931,
      "##وادث": 2932,
      "الاعين": 2933,
      "صدرها": 2934,
      "##ذكرت": 2935,
      "غضبه": 2936,
      "بو": 2937,
      "تعل": 2938,
      "تسم": 2939,
      "جدي": 2940,
      "خارج": 2941,
      "فاي": 2942,
      "لر": 2943,
      "مرح": 2944,
      "مبالاة": 2945,
      "١٩": 2946,
      "##ظفر": 2947,
      "##ذبة": 2948,
      "##ينية": 2949,
      "الارب": 2950,
      "علمت": 2951,
      "##ياته": 2952,
      "##ادمة": 2953,
      "الجريمة": 2954,
      "القانون": 2955,
      "وجعلت": 2956,
      "ومد": 2957,
      "##رضا": 2958,
      "باط": 2959,
      "باع": 2960,
      "افعل": 2961,
      "الظن": 2962,
      "زوجته": 2963,
      "ورغم": 2964,
      "سلوك": 2965,
      "حياتها": 2966,
      "المستقبل": 2967,
      "لنفسي": 2968,
      "اباه": 2969,
      "برجاء": 2970,
      "تنتظر": 2971,
      "فرج": 2972,
      "قيل": 2973,
      "كات": 2974,
      "ومر": 2975,
      "ورج": 2976,
      "##زان": 2977,
      "##شع": 2978,
      "اللقاء": 2979,
      "لاح": 2980,
      "واه": 2981,
      "بالام": 2982,
      "للخ": 2983,
      "تتح": 2984,
      "يجيء": 2985,
      "ساق": 2986,
      "الاسود": 2987,
      "بسبب": 2988,
      "##جيبة": 2989,
      "شديدة": 2990,
      "الوطن": 2991,
      "تمر": 2992,
      "عواطف": 2993,
      "يث": 2994,
      "الاق": 2995,
      "##ياد": 2996,
      "الشت": 2997,
      "القلوب": 2998,
      "##ظروف": 2999,
      "بعنف": 3000,
      "##وسا": 3001,
      "##خلص": 3002,
      "ويست": 3003,
      "##سيون": 3004,
      "##صلح": 3005,
      "فهتفت": 3006,
      "مجرد": 3007,
      "##حقق": 3008,
      "قبض": 3009,
      "يزال": 3010,
      "فحسب": 3011,
      "فمضى": 3012,
      "البلد": 3013,
      "وكلما": 3014,
      "الحقيقي": 3015,
      "مولاي": 3016,
      "اكون": 3017,
      "بادي": 3018,
      "تذهب": 3019,
      "كتاب": 3020,
      "هتف": 3021,
      "##صى": 3022,
      "##المة": 3023,
      "الميدان": 3024,
      "مامون": 3025,
      "الحر": 3026,
      "##جلت": 3027,
      "##فتها": 3028,
      "واني": 3029,
      "تقل": 3030,
      "تحمل": 3031,
      "وحدها": 3032,
      "جلال": 3033,
      "وراى": 3034,
      "الراي": 3035,
      "##اديث": 3036,
      "الجميلة": 3037,
      "علاقة": 3038,
      "ارجو": 3039,
      "تساءلت": 3040,
      "زا": 3041,
      "لف": 3042,
      "مدرسة": 3043,
      "##مور": 3044,
      "##يبه": 3045,
      "الاك": 3046,
      "##ارته": 3047,
      "##ولد": 3048,
      "ماض": 3049,
      "العد": 3050,
      "##وداء": 3051,
      "القص": 3052,
      "القمر": 3053,
      "اختف": 3054,
      "الصف": 3055,
      "باش": 3056,
      "غيره": 3057,
      "يحمل": 3058,
      "اهتمام": 3059,
      "##ابتسامة": 3060,
      "حدود": 3061,
      "ارتياح": 3062,
      "ارتباك": 3063,
      "الفتى": 3064,
      "خافت": 3065,
      "اظن": 3066,
      "بمع": 3067,
      "مف": 3068,
      "الاج": 3069,
      "المقا": 3070,
      "والاس": 3071,
      "##واص": 3072,
      "##متمت": 3073,
      "وجود": 3074,
      "الروح": 3075,
      "الفار": 3076,
      "الكتاب": 3077,
      "للد": 3078,
      "##جاعة": 3079,
      "لطيف": 3080,
      "ثلاث": 3081,
      "التحقيق": 3082,
      "اعل": 3083,
      "جلب": 3084,
      "ري": 3085,
      "زمان": 3086,
      "سيارة": 3087,
      "غلي": 3088,
      "مسم": 3089,
      "يمت": 3090,
      "##لاف": 3091,
      "المهم": 3092,
      "المسي": 3093,
      "واغ": 3094,
      "##اسة": 3095,
      "معل": 3096,
      "الغريب": 3097,
      "يجري": 3098,
      "جدوى": 3099,
      "الثال": 3100,
      "ادع": 3101,
      "اجاب": 3102,
      "اصحاب": 3103,
      "##بعها": 3104,
      "تود": 3105,
      "توف": 3106,
      "تصدق": 3107,
      "جرى": 3108,
      "طبي": 3109,
      "عصر": 3110,
      "لغ": 3111,
      "مي": 3112,
      "يلت": 3113,
      "##يظ": 3114,
      "##صب": 3115,
      "انح": 3116,
      "##لاب": 3117,
      "باله": 3118,
      "##ايي": 3119,
      "وتمتم": 3120,
      "ابعد": 3121,
      "البه": 3122,
      "الصالة": 3123,
      "الدهشة": 3124,
      "الكون": 3125,
      "##ويش": 3126,
      "ويع": 3127,
      "##تيجة": 3128,
      "بيده": 3129,
      "ضاحكة": 3130,
      "طلبة": 3131,
      "توق": 3132,
      "تنت": 3133,
      "حاج": 3134,
      "سره": 3135,
      "شتى": 3136,
      "لقاء": 3137,
      "مب": 3138,
      "##وهم": 3139,
      "##خي": 3140,
      "##ثت": 3141,
      "##زين": 3142,
      "##غار": 3143,
      "##شاء": 3144,
      "##لاك": 3145,
      "والام": 3146,
      "والاح": 3147,
      "الحركة": 3148,
      "معلم": 3149,
      "الخام": 3150,
      "##يتين": 3151,
      "اسعد": 3152,
      "##بتك": 3153,
      "وقل": 3154,
      "مثلا": 3155,
      "يشير": 3156,
      "افكر": 3157,
      "عميق": 3158,
      "المايدة": 3159,
      "رايحة": 3160,
      "##بادلا": 3161,
      "الوراء": 3162,
      "الفراغ": 3163,
      "بعينيه": 3164,
      "تسا": 3165,
      "حرك": 3166,
      "حاف": 3167,
      "خيل": 3168,
      "ركن": 3169,
      "كه": 3170,
      "##دها": 3171,
      "##غام": 3172,
      "منع": 3173,
      "##رامة": 3174,
      "##ياسة": 3175,
      "واط": 3176,
      "##كرم": 3177,
      "النور": 3178,
      "الصحف": 3179,
      "##درس": 3180,
      "##درجة": 3181,
      "يقطع": 3182,
      "استهانة": 3183,
      "اسرته": 3184,
      "استغ": 3185,
      "يدور": 3186,
      "وجهي": 3187,
      "مثلك": 3188,
      "الاحلام": 3189,
      "اوليك": 3190,
      "صفوان": 3191,
      "##وثب": 3192,
      "الجنود": 3193,
      "دفع": 3194,
      "سوال": 3195,
      "شا": 3196,
      "عالية": 3197,
      "لحظات": 3198,
      "ند": 3199,
      "نوع": 3200,
      "وفتح": 3201,
      "##بعة": 3202,
      "##طى": 3203,
      "##ضع": 3204,
      "##راث": 3205,
      "المقهى": 3206,
      "##ايع": 3207,
      "##حديث": 3208,
      "##وقه": 3209,
      "##احة": 3210,
      "البر": 3211,
      "ليكن": 3212,
      "بينهم": 3213,
      "للر": 3214,
      "اللهم": 3215,
      "##جاوز": 3216,
      "قديمة": 3217,
      "الثانية": 3218,
      "الضر": 3219,
      "واخيرا": 3220,
      "صوتها": 3221,
      "تكاد": 3222,
      "##تلف": 3223,
      "المسرح": 3224,
      "جانبه": 3225,
      "صامتا": 3226,
      "غاضبا": 3227,
      "عثمان": 3228,
      "تحدث": 3229,
      "لدى": 3230,
      "ويل": 3231,
      "يكت": 3232,
      "يرجع": 3233,
      "##سع": 3234,
      "##سلام": 3235,
      "##لاقة": 3236,
      "الامام": 3237,
      "والط": 3238,
      "الحياء": 3239,
      "##وقات": 3240,
      "ولولا": 3241,
      "الصبر": 3242,
      "بانني": 3243,
      "اشياء": 3244,
      "احدهم": 3245,
      "افهم": 3246,
      "المعركة": 3247,
      "لانها": 3248,
      "والاست": 3249,
      "تشاء": 3250,
      "##غلول": 3251,
      "الوزير": 3252,
      "اكن": 3253,
      "باد": 3254,
      "بدت": 3255,
      "تناول": 3256,
      "حبا": 3257,
      "حبه": 3258,
      "راه": 3259,
      "فحد": 3260,
      "وبا": 3261,
      "وذه": 3262,
      "ووض": 3263,
      "##ويا": 3264,
      "##وعه": 3265,
      "##دج": 3266,
      "##زح": 3267,
      "##ذت": 3268,
      "##كاك": 3269,
      "##الع": 3270,
      "##راما": 3271,
      "المو": 3272,
      "المجه": 3273,
      "المكتب": 3274,
      "##ناها": 3275,
      "والل": 3276,
      "لام": 3277,
      "##وليس": 3278,
      "الساب": 3279,
      "السعيد": 3280,
      "وتق": 3281,
      "الشراب": 3282,
      "الشيء": 3283,
      "##فتر": 3284,
      "القوة": 3285,
      "فتنهد": 3286,
      "فاض": 3287,
      "الكثير": 3288,
      "##غمض": 3289,
      "##جتمع": 3290,
      "عجيب": 3291,
      "بقدر": 3292,
      "جس": 3293,
      "خطر": 3294,
      "زغلول": 3295,
      "سرا": 3296,
      "فقا": 3297,
      "مقب": 3298,
      "مطلق": 3299,
      "##الس": 3300,
      "الامن": 3301,
      "##امية": 3302,
      "العت": 3303,
      "كانوا": 3304,
      "ابناء": 3305,
      "الصيف": 3306,
      "##بلة": 3307,
      "##وفه": 3308,
      "وقفت": 3309,
      "##سلل": 3310,
      "متسايلة": 3311,
      "تهم": 3312,
      "حمل": 3313,
      "سالته": 3314,
      "غريبا": 3315,
      "كتف": 3316,
      "نه": 3317,
      "وفا": 3318,
      "يرم": 3319,
      "##طه": 3320,
      "##طور": 3321,
      "##راس": 3322,
      "الاسم": 3323,
      "والدي": 3324,
      "##واطر": 3325,
      "واف": 3326,
      "##عداد": 3327,
      "##قدة": 3328,
      "وتج": 3329,
      "ابني": 3330,
      "البحر": 3331,
      "##ديو": 3332,
      "بهما": 3333,
      "اعين": 3334,
      "##رحان": 3335,
      "افضل": 3336,
      "يخرج": 3337,
      "##مسين": 3338,
      "بقية": 3339,
      "باسم": 3340,
      "مدى": 3341,
      "مدير": 3342,
      "فضلك": 3343,
      "فابتسمت": 3344,
      "ثقيل": 3345,
      "ظهره": 3346,
      "ايم": 3347,
      "اقدام": 3348,
      "توت": 3349,
      "تلقى": 3350,
      "حذر": 3351,
      "علام": 3352,
      "فلت": 3353,
      "ووجه": 3354,
      "##رقة": 3355,
      "##ثيل": 3356,
      "##نك": 3357,
      "##زيمة": 3358,
      "##غمة": 3359,
      "##راخ": 3360,
      "ماء": 3361,
      "العذاب": 3362,
      "##ايمة": 3363,
      "وتذكر": 3364,
      "امن": 3365,
      "##لتين": 3366,
      "##وقة": 3367,
      "البنت": 3368,
      "الفناء": 3369,
      "##كتة": 3370,
      "تنم": 3371,
      "عنده": 3372,
      "##فرغ": 3373,
      "قلوب": 3374,
      "بيتك": 3375,
      "الظاهر": 3376,
      "اعتقد": 3377,
      "جمصة": 3378,
      "تكلم": 3379,
      "الابناء": 3380,
      "المصباح": 3381,
      "بغتة": 3382,
      "فام": 3383,
      "قاسية": 3384,
      "ورفع": 3385,
      "يفتح": 3386,
      "##مرة": 3387,
      "##برت": 3388,
      "##تاف": 3389,
      "##لبة": 3390,
      "##شب": 3391,
      "الود": 3392,
      "##ماه": 3393,
      "المعه": 3394,
      "العصر": 3395,
      "معركة": 3396,
      "لهما": 3397,
      "الفن": 3398,
      "يدرك": 3399,
      "##راءى": 3400,
      "محا": 3401,
      "تفهم": 3402,
      "يغادر": 3403,
      "قلبك": 3404,
      "شفتيها": 3405,
      "الحكومة": 3406,
      "عابرة": 3407,
      "العباسية": 3408,
      "ابا": 3409,
      "تبدو": 3410,
      "جواب": 3411,
      "خاف": 3412,
      "سير": 3413,
      "عشر": 3414,
      "قاط": 3415,
      "ملت": 3416,
      "موس": 3417,
      "نخ": 3418,
      "يمر": 3419,
      "يرح": 3420,
      "##مم": 3421,
      "##حيل": 3422,
      "##لس": 3423,
      "##ذير": 3424,
      "##صق": 3425,
      "##وافق": 3426,
      "##ريقة": 3427,
      "ابواب": 3428,
      "البد": 3429,
      "احسن": 3430,
      "بينها": 3431,
      "بلى": 3432,
      "##ساة": 3433,
      "بسرور": 3434,
      "والاخ": 3435,
      "نظرت": 3436,
      "قبيل": 3437,
      "تزال": 3438,
      "افكاره": 3439,
      "خالية": 3440,
      "رن": 3441,
      "صغير": 3442,
      "مذه": 3443,
      "##حيم": 3444,
      "##رفت": 3445,
      "##يج": 3446,
      "##كية": 3447,
      "اللي": 3448,
      "منف": 3449,
      "##راع": 3450,
      "مايدة": 3451,
      "##املا": 3452,
      "وهتف": 3453,
      "ولكنهم": 3454,
      "العامة": 3455,
      "التعب": 3456,
      "##جلى": 3457,
      "ثمن": 3458,
      "القادم": 3459,
      "الفات": 3460,
      "الطيب": 3461,
      "فايدة": 3462,
      "##حكمة": 3463,
      "##سيان": 3464,
      "اقرب": 3465,
      "بقلب": 3466,
      "##يسر": 3467,
      "بيتها": 3468,
      "شكرا": 3469,
      "ابيها": 3470,
      "صفحة": 3471,
      "اذنيه": 3472,
      "فضلا": 3473,
      "ذاته": 3474,
      "الانتظار": 3475,
      "المجنون": 3476,
      "خاطر": 3477,
      "الحاضر": 3478,
      "مبتسما": 3479,
      "اعلى": 3480,
      "بابتسامة": 3481,
      "تذ": 3482,
      "فرفع": 3483,
      "يرد": 3484,
      "##طفا": 3485,
      "فيقول": 3486,
      "علوان": 3487,
      "##بيها": 3488,
      "القول": 3489,
      "البعض": 3490,
      "يترك": 3491,
      "الرغبة": 3492,
      "##ربع": 3493,
      "الكت": 3494,
      "الزيارة": 3495,
      "تترك": 3496,
      "وبلا": 3497,
      "مسر": 3498,
      "##زعج": 3499,
      "مقعد": 3500,
      "يهز": 3501,
      "سنوات": 3502,
      "عجوز": 3503,
      "العربة": 3504,
      "الرحيم": 3505,
      "يبقى": 3506,
      "روحه": 3507,
      "موقفه": 3508,
      "الخاصة": 3509,
      "تاك": 3510,
      "تبقى": 3511,
      "درجة": 3512,
      "زالت": 3513,
      "قريبا": 3514,
      "كاب": 3515,
      "مهم": 3516,
      "ورجع": 3517,
      "##ورات": 3518,
      "##طرة": 3519,
      "##طرد": 3520,
      "##ثرة": 3521,
      "##سبة": 3522,
      "##غمت": 3523,
      "##صه": 3524,
      "##صابه": 3525,
      "##كينة": 3526,
      "##ماوي": 3527,
      "السرور": 3528,
      "الشرفة": 3529,
      "امك": 3530,
      "معك": 3531,
      "القسم": 3532,
      "الفكر": 3533,
      "للز": 3534,
      "##وسل": 3535,
      "وقبل": 3536,
      "محفوظ": 3537,
      "تقوم": 3538,
      "يشت": 3539,
      "اصوات": 3540,
      "بيتنا": 3541,
      "المنظر": 3542,
      "حياتك": 3543,
      "المناسب": 3544,
      "يدعو": 3545,
      "بارتياح": 3546,
      "مخاطبا": 3547,
      "الشتاء": 3548,
      "توقف": 3549,
      "لب": 3550,
      "لير": 3551,
      "مبارك": 3552,
      "همس": 3553,
      "ياي": 3554,
      "##حها": 3555,
      "##بحت": 3556,
      "##لى": 3557,
      "##شعر": 3558,
      "اليم": 3559,
      "منهما": 3560,
      "الافق": 3561,
      "المكت": 3562,
      "المطر": 3563,
      "المشي": 3564,
      "لاحت": 3565,
      "العب": 3566,
      "##باين": 3567,
      "التالي": 3568,
      "##اهية": 3569,
      "الذهاب": 3570,
      "##حتك": 3571,
      "يقبل": 3572,
      "فاقت": 3573,
      "##قبلت": 3574,
      "##سايل": 3575,
      "تفضل": 3576,
      "دعني": 3577,
      "جانبا": 3578,
      "ذكرى": 3579,
      "##يارته": 3580,
      "تخلو": 3581,
      "المرحوم": 3582,
      "المجهول": 3583,
      "اردت": 3584,
      "بوس": 3585,
      "تظن": 3586,
      "ثورة": 3587,
      "جز": 3588,
      "حان": 3589,
      "حصل": 3590,
      "راحت": 3591,
      "قاب": 3592,
      "##اخر": 3593,
      "##زلة": 3594,
      "##سط": 3595,
      "##سكر": 3596,
      "##قاب": 3597,
      "##عى": 3598,
      "##علم": 3599,
      "فيك": 3600,
      "المث": 3601,
      "##اده": 3602,
      "##ايما": 3603,
      "الجرس": 3604,
      "البار": 3605,
      "ياخذ": 3606,
      "الخل": 3607,
      "##قتي": 3608,
      "ومح": 3609,
      "الصحة": 3610,
      "يقيم": 3611,
      "يدفع": 3612,
      "الغناء": 3613,
      "يجر": 3614,
      "##ضيع": 3615,
      "اقبل": 3616,
      "لعين": 3617,
      "##زاوي": 3618,
      "ابيض": 3619,
      "خفيفة": 3620,
      "الفرصة": 3621,
      "النجوم": 3622,
      "الوكالة": 3623,
      "ببر": 3624,
      "تطل": 3625,
      "جمع": 3626,
      "جنيها": 3627,
      "دل": 3628,
      "ساح": 3629,
      "ضم": 3630,
      "قطع": 3631,
      "كره": 3632,
      "##زف": 3633,
      "##ساس": 3634,
      "الور": 3635,
      "اناس": 3636,
      "فيم": 3637,
      "المفت": 3638,
      "الموس": 3639,
      "##ارس": 3640,
      "السلامة": 3641,
      "السعيدة": 3642,
      "الجدران": 3643,
      "##لقا": 3644,
      "تتكلم": 3645,
      "##قبله": 3646,
      "اصاب": 3647,
      "##بساطة": 3648,
      "الراحة": 3649,
      "تملك": 3650,
      "ذهول": 3651,
      "##وظيفة": 3652,
      "##ياسين": 3653,
      "مطم": 3654,
      "فجاء": 3655,
      "عاليا": 3656,
      "خمسة": 3657,
      "بوج": 3658,
      "تدر": 3659,
      "ثر": 3660,
      "خفي": 3661,
      "طم": 3662,
      "فرد": 3663,
      "مطلع": 3664,
      "نينة": 3665,
      "وذ": 3666,
      "ولت": 3667,
      "##برى": 3668,
      "##خله": 3669,
      "##جها": 3670,
      "##جام": 3671,
      "اللب": 3672,
      "الهر": 3673,
      "اند": 3674,
      "المعر": 3675,
      "##يده": 3676,
      "الحمد": 3677,
      "##يتك": 3678,
      "الغر": 3679,
      "##يبها": 3680,
      "##جرم": 3681,
      "تنتهي": 3682,
      "بيومي": 3683,
      "رجعت": 3684,
      "لعلك": 3685,
      "وثمة": 3686,
      "شعرها": 3687,
      "الوحيدة": 3688,
      "بنفسك": 3689,
      "واقفا": 3690,
      "ذراعه": 3691,
      "موضع": 3692,
      "الصديق": 3693,
      "مجهول": 3694,
      "باصرار": 3695,
      "مشكلة": 3696,
      "التليفون": 3697,
      "اصل": 3698,
      "بقل": 3699,
      "تث": 3700,
      "حوا": 3701,
      "خر": 3702,
      "سنة": 3703,
      "ضيق": 3704,
      "طف": 3705,
      "لحد": 3706,
      "وسم": 3707,
      "يردد": 3708,
      "يبلغ": 3709,
      "##حى": 3710,
      "##ريدة": 3711,
      "##طال": 3712,
      "##تني": 3713,
      "##ساب": 3714,
      "المك": 3715,
      "##اديا": 3716,
      "واصل": 3717,
      "بالب": 3718,
      "بالط": 3719,
      "التق": 3720,
      "##ورني": 3721,
      "##ايف": 3722,
      "##احب": 3723,
      "لهذه": 3724,
      "##ربوش": 3725,
      "متح": 3726,
      "الطا": 3727,
      "فاعت": 3728,
      "##طفال": 3729,
      "اصبح": 3730,
      "صدري": 3731,
      "باسى": 3732,
      "رجاء": 3733,
      "حديقة": 3734,
      "المحب": 3735,
      "وانتظر": 3736,
      "صديقه": 3737,
      "عقله": 3738,
      "واتجه": 3739,
      "البكاء": 3740,
      "الحكمة": 3741,
      "غامضة": 3742,
      "اصد": 3743,
      "اصدقاء": 3744,
      "بغضب": 3745,
      "ذها": 3746,
      "زل": 3747,
      "سبق": 3748,
      "فف": 3749,
      "وبر": 3750,
      "##مله": 3751,
      "##ثه": 3752,
      "##لية": 3753,
      "##جبت": 3754,
      "##زانة": 3755,
      "##سرة": 3756,
      "##عف": 3757,
      "مناق": 3758,
      "الاصل": 3759,
      "الموظف": 3760,
      "الحمام": 3761,
      "السينما": 3762,
      "التفت": 3763,
      "##همي": 3764,
      "امرا": 3765,
      "البصر": 3766,
      "##ذهبي": 3767,
      "بيني": 3768,
      "وكانها": 3769,
      "تنف": 3770,
      "##وحي": 3771,
      "اشبه": 3772,
      "ويح": 3773,
      "يحسن": 3774,
      "##صديق": 3775,
      "اقوى": 3776,
      "ودخل": 3777,
      "فسالها": 3778,
      "مكانه": 3779,
      "عادت": 3780,
      "اسمه": 3781,
      "يهمني": 3782,
      "الاصيل": 3783,
      "متهدج": 3784,
      "وابتسم": 3785,
      "الجامع": 3786,
      "الحمزاوي": 3787,
      "وهناك": 3788,
      "مباشرة": 3789,
      "الخامسة": 3790,
      "حيلة": 3791,
      "حكاية": 3792,
      "شيت": 3793,
      "غاب": 3794,
      "مضت": 3795,
      "مقهى": 3796,
      "ووق": 3797,
      "يبر": 3798,
      "يرفع": 3799,
      "##وحة": 3800,
      "##طني": 3801,
      "##دير": 3802,
      "##جان": 3803,
      "##جمع": 3804,
      "##ذين": 3805,
      "##صفة": 3806,
      "##قرا": 3807,
      "##ضط": 3808,
      "انفع": 3809,
      "##راقب": 3810,
      "الامت": 3811,
      "لاحد": 3812,
      "##قاليد": 3813,
      "التعل": 3814,
      "الشوق": 3815,
      "الشعب": 3816,
      "يتردد": 3817,
      "الخيال": 3818,
      "##وتك": 3819,
      "الانفعال": 3820,
      "تعال": 3821,
      "تنهد": 3822,
      "تحول": 3823,
      "بحزن": 3824,
      "لكم": 3825,
      "احدى": 3826,
      "##طفه": 3827,
      "##ندق": 3828,
      "عملا": 3829,
      "##شيخ": 3830,
      "عاش": 3831,
      "##ولاد": 3832,
      "تستحق": 3833,
      "##واقع": 3834,
      "بثينة": 3835,
      "الادب": 3836,
      "الاهتمام": 3837,
      "رقم": 3838,
      "مسيول": 3839,
      "الارتباك": 3840,
      "بامتعاض": 3841,
      "بفت": 3842,
      "جبين": 3843,
      "دهش": 3844,
      "سار": 3845,
      "سعاد": 3846,
      "سرحان": 3847,
      "عار": 3848,
      "قيمة": 3849,
      "قوية": 3850,
      "نست": 3851,
      "وسمع": 3852,
      "##نفس": 3853,
      "##جاه": 3854,
      "##عش": 3855,
      "##ضاب": 3856,
      "الوان": 3857,
      "فيت": 3858,
      "منى": 3859,
      "بالاس": 3860,
      "##امنة": 3861,
      "وهذه": 3862,
      "وهكذا": 3863,
      "##نيت": 3864,
      "الشهر": 3865,
      "##عتين": 3866,
      "الفق": 3867,
      "##نتها": 3868,
      "احبك": 3869,
      "اسبوع": 3870,
      "اعصابه": 3871,
      "استح": 3872,
      "تعيش": 3873,
      "##رضت": 3874,
      "##رضى": 3875,
      "محل": 3876,
      "##جاز": 3877,
      "يشاء": 3878,
      "ادنى": 3879,
      "بسلام": 3880,
      "بقي": 3881,
      "رايه": 3882,
      "عروس": 3883,
      "نعمة": 3884,
      "انتهت": 3885,
      "الجلوس": 3886,
      "موعد": 3887,
      "النقود": 3888,
      "ذراعيه": 3889,
      "الثلاثة": 3890,
      "ترح": 3891,
      "تيار": 3892,
      "جف": 3893,
      "جريمة": 3894,
      "سيا": 3895,
      "سالت": 3896,
      "غادرت": 3897,
      "قدي": 3898,
      "قصة": 3899,
      "كاملة": 3900,
      "لين": 3901,
      "لذة": 3902,
      "ميت": 3903,
      "وخل": 3904,
      "##ويه": 3905,
      "##اخ": 3906,
      "##خفض": 3907,
      "##دد": 3908,
      "##قار": 3909,
      "##شهد": 3910,
      "##راتها": 3911,
      "المض": 3912,
      "والث": 3913,
      "##ولى": 3914,
      "الحاكم": 3915,
      "##باط": 3916,
      "وتف": 3917,
      "الشارع": 3918,
      "ومتى": 3919,
      "اسود": 3920,
      "تتم": 3921,
      "يعجب": 3922,
      "وبال": 3923,
      "يخاطب": 3924,
      "والحب": 3925,
      "##ومات": 3926,
      "تسال": 3927,
      "الجدار": 3928,
      "وطال": 3929,
      "نعيمة": 3930,
      "داعي": 3931,
      "اعماقه": 3932,
      "افت": 3933,
      "تفس": 3934,
      "حف": 3935,
      "ده": 3936,
      "صافية": 3937,
      "ظروف": 3938,
      "كفا": 3939,
      "كريم": 3940,
      "كعادته": 3941,
      "ندت": 3942,
      "هيهات": 3943,
      "وذات": 3944,
      "##حني": 3945,
      "##اجر": 3946,
      "الينا": 3947,
      "الاقت": 3948,
      "##ناع": 3949,
      "##واها": 3950,
      "واين": 3951,
      "واراد": 3952,
      "##ريرة": 3953,
      "السبيل": 3954,
      "##ورية": 3955,
      "##بيرا": 3956,
      "##اهما": 3957,
      "الخض": 3958,
      "انهما": 3959,
      "##حتها": 3960,
      "الصدر": 3961,
      "فتحت": 3962,
      "يقل": 3963,
      "وسالها": 3964,
      "استيقظ": 3965,
      "تتزوج": 3966,
      "باقت": 3967,
      "##اطي": 3968,
      "تحقيق": 3969,
      "اللعب": 3970,
      "ونف": 3971,
      "هيية": 3972,
      "افكار": 3973,
      "اقصى": 3974,
      "الاسبوع": 3975,
      "خطا": 3976,
      "تشعر": 3977,
      "##غيير": 3978,
      "اعترف": 3979,
      "اثرا": 3980,
      "##زاز": 3981,
      "بشارع": 3982,
      "شعوره": 3983,
      "قصير": 3984,
      "لطيفة": 3985,
      "ادركت": 3986,
      "شهريار": 3987,
      "دكانه": 3988,
      "حقيقية": 3989,
      "كتب": 3990,
      "ملابسه": 3991,
      "خطي": 3992,
      "زهر": 3993,
      "عت": 3994,
      "مهد": 3995,
      "يبد": 3996,
      "##واله": 3997,
      "##يبا": 3998,
      "##ديد": 3999,
      "##ظى": 4000,
      "##ظلم": 4001,
      "##ضبة": 4002,
      "الممت": 4003,
      "المفا": 4004,
      "واخر": 4005,
      "واكثر": 4006,
      "##اهي": 4007,
      "البواب": 4008,
      "النف": 4009,
      "##عاية": 4010,
      "ومال": 4011,
      "فتناول": 4012,
      "اعمال": 4013,
      "بعناية": 4014,
      "الغام": 4015,
      "غيرها": 4016,
      "اليهم": 4017,
      "##ارتنا": 4018,
      "##مسك": 4019,
      "الماضية": 4020,
      "##راهية": 4021,
      "##بادي": 4022,
      "لكنها": 4023,
      "الوحدة": 4024,
      "شعرت": 4025,
      "ارادت": 4026,
      "هدف": 4027,
      "##جتماع": 4028,
      "الرحمة": 4029,
      "وظل": 4030,
      "##ذاكرة": 4031,
      "عانوس": 4032,
      "##كاكين": 4033,
      "بجد": 4034,
      "تجربة": 4035,
      "جار": 4036,
      "زه": 4037,
      "سلام": 4038,
      "عض": 4039,
      "قاس": 4040,
      "للك": 4041,
      "ويه": 4042,
      "يته": 4043,
      "##حات": 4044,
      "##طانة": 4045,
      "##نته": 4046,
      "##جيب": 4047,
      "##جابت": 4048,
      "##صلة": 4049,
      "##قم": 4050,
      "##عني": 4051,
      "اليد": 4052,
      "##مامة": 4053,
      "المنت": 4054,
      "##ياض": 4055,
      "##ستها": 4056,
      "##واية": 4057,
      "بالث": 4058,
      "وتنهد": 4059,
      "الشرق": 4060,
      "الشعور": 4061,
      "امين": 4062,
      "وجها": 4063,
      "البوليس": 4064,
      "الخار": 4065,
      "النظرة": 4066,
      "الدف": 4067,
      "الطيبة": 4068,
      "بلسان": 4069,
      "##سلية": 4070,
      "مشت": 4071,
      "المدخل": 4072,
      "##جابة": 4073,
      "تمضي": 4074,
      "يكف": 4075,
      "شخصا": 4076,
      "بثقة": 4077,
      "نسيت": 4078,
      "يحتمل": 4079,
      "مظهر": 4080,
      "خبرني": 4081,
      "جمالها": 4082,
      "قدميه": 4083,
      "فالتفت": 4084,
      "نافذة": 4085,
      "ضحكت": 4086,
      "وذهبت": 4087,
      "قديما": 4088,
      "ببساطة": 4089,
      "حرم": 4090,
      "خان": 4091,
      "دوا": 4092,
      "سحر": 4093,
      "غري": 4094,
      "لاني": 4095,
      "لشد": 4096,
      "ناد": 4097,
      "##اوه": 4098,
      "##خلت": 4099,
      "##دنا": 4100,
      "##قض": 4101,
      "الواج": 4102,
      "##لاوة": 4103,
      "الادارة": 4104,
      "الموا": 4105,
      "##ابا": 4106,
      "##ريته": 4107,
      "السايق": 4108,
      "##ايها": 4109,
      "##اسين": 4110,
      "امور": 4111,
      "اخبار": 4112,
      "##عاع": 4113,
      "وساد": 4114,
      "##لبها": 4115,
      "##لبية": 4116,
      "يدخل": 4117,
      "انتظ": 4118,
      "تتصور": 4119,
      "وعادت": 4120,
      "الانظار": 4121,
      "تقف": 4122,
      "اشهر": 4123,
      "بحنق": 4124,
      "اهو": 4125,
      "البيوت": 4126,
      "##عيش": 4127,
      "الاستقبال": 4128,
      "الباقي": 4129,
      "بيدها": 4130,
      "اضطر": 4131,
      "المقعد": 4132,
      "نشوة": 4133,
      "حياتنا": 4134,
      "بصرها": 4135,
      "يقتل": 4136,
      "الجامعة": 4137,
      "سريعة": 4138,
      "الحقيقية": 4139,
      "الوفد": 4140,
      "تاب": 4141,
      "ثانية": 4142,
      "جعلت": 4143,
      "خار": 4144,
      "ربي": 4145,
      "رات": 4146,
      "شهد": 4147,
      "ظه": 4148,
      "فاه": 4149,
      "محد": 4150,
      "##لح": 4151,
      "##سح": 4152,
      "##قرت": 4153,
      "الذهب": 4154,
      "الاثر": 4155,
      "والاب": 4156,
      "والاع": 4157,
      "عنيفة": 4158,
      "##يلها": 4159,
      "وهتفت": 4160,
      "السبب": 4161,
      "العودة": 4162,
      "##بارة": 4163,
      "القبر": 4164,
      "##رباء": 4165,
      "##وتي": 4166,
      "الكبيرة": 4167,
      "انتباه": 4168,
      "انتظار": 4169,
      "تتساءل": 4170,
      "##وعي": 4171,
      "بدات": 4172,
      "فاني": 4173,
      "اصبحت": 4174,
      "##بعض": 4175,
      "راها": 4176,
      "خطوات": 4177,
      "زوجي": 4178,
      "المحل": 4179,
      "ولماذا": 4180,
      "مقط": 4181,
      "مخا": 4182,
      "مثلها": 4183,
      "بالاست": 4184,
      "فكانت": 4185,
      "البنسيون": 4186,
      "ساعات": 4187,
      "مسكنه": 4188,
      "درويش": 4189,
      "اللعنة": 4190,
      "زيطة": 4191,
      "حكم": 4192,
      "خش": 4193,
      "سقط": 4194,
      "شل": 4195,
      "شبح": 4196,
      "صدا": 4197,
      "ضا": 4198,
      "عذاب": 4199,
      "قوي": 4200,
      "نوم": 4201,
      "##وخة": 4202,
      "##اير": 4203,
      "##رمة": 4204,
      "##رقت": 4205,
      "##يجة": 4206,
      "##خن": 4207,
      "##جتها": 4208,
      "##سول": 4209,
      "##سمة": 4210,
      "##عرت": 4211,
      "الظروف": 4212,
      "##ينني": 4213,
      "الامان": 4214,
      "##ارها": 4215,
      "لاحظ": 4216,
      "ولكننا": 4217,
      "الترام": 4218,
      "الشه": 4219,
      "الجواب": 4220,
      "##متي": 4221,
      "يتحدث": 4222,
      "النوافذ": 4223,
      "الطويلة": 4224,
      "اسار": 4225,
      "##مدت": 4226,
      "بازدراء": 4227,
      "تقبل": 4228,
      "##اطر": 4229,
      "النار": 4230,
      "##ندس": 4231,
      "صدقت": 4232,
      "كثب": 4233,
      "الحلواني": 4234,
      "##سمتي": 4235,
      "بنفسي": 4236,
      "##وافقة": 4237,
      "بفضل": 4238,
      "##بيعية": 4239,
      "عزيزتي": 4240,
      "المعاش": 4241,
      "توقع": 4242,
      "صال": 4243,
      "ضمن": 4244,
      "طعام": 4245,
      "عامة": 4246,
      "فث": 4247,
      "فنه": 4248,
      "قاد": 4249,
      "نم": 4250,
      "ونا": 4251,
      "يقدم": 4252,
      "##ثله": 4253,
      "##فار": 4254,
      "##فعه": 4255,
      "##ذف": 4256,
      "##كشف": 4257,
      "##انوية": 4258,
      "الاذ": 4259,
      "##ولها": 4260,
      "##ادسة": 4261,
      "الحرية": 4262,
      "##لمان": 4263,
      "##لهى": 4264,
      "##حدي": 4265,
      "امكن": 4266,
      "امرك": 4267,
      "##يمن": 4268,
      "معنا": 4269,
      "يتقدم": 4270,
      "ومض": 4271,
      "الطرق": 4272,
      "##وفيق": 4273,
      "باعت": 4274,
      "##صره": 4275,
      "اهتما": 4276,
      "يسته": 4277,
      "مثال": 4278,
      "يشق": 4279,
      "بدور": 4280,
      "صوتا": 4281,
      "##شفى": 4282,
      "##جنب": 4283,
      "هموم": 4284,
      "البلطي": 4285,
      "جسمه": 4286,
      "محمود": 4287,
      "المسيول": 4288,
      "ببرود": 4289,
      "بذ": 4290,
      "تبا": 4291,
      "تمتم": 4292,
      "حارة": 4293,
      "حقي": 4294,
      "دند": 4295,
      "شب": 4296,
      "صبا": 4297,
      "ليق": 4298,
      "نض": 4299,
      "يفت": 4300,
      "##حث": 4301,
      "##نعت": 4302,
      "##زعت": 4303,
      "الفس": 4304,
      "##هادة": 4305,
      "انط": 4306,
      "انقط": 4307,
      "##ماد": 4308,
      "##لاط": 4309,
      "المرت": 4310,
      "##ابات": 4311,
      "##امرة": 4312,
      "وهمس": 4313,
      "العطار": 4314,
      "التد": 4315,
      "##احه": 4316,
      "القاتل": 4317,
      "البري": 4318,
      "##لقه": 4319,
      "متش": 4320,
      "الفرح": 4321,
      "الدراسة": 4322,
      "يقرا": 4323,
      "وسي": 4324,
      "انتبه": 4325,
      "وعن": 4326,
      "##ويته": 4327,
      "اللط": 4328,
      "##شارة": 4329,
      "الضيق": 4330,
      "يخطر": 4331,
      "مسرح": 4332,
      "باستهانة": 4333,
      "تخف": 4334,
      "والتفت": 4335,
      "المنش": 4336,
      "حاجب": 4337,
      "صادقا": 4338,
      "بالحياة": 4339,
      "خاص": 4340,
      "يعرفه": 4341,
      "لسانه": 4342,
      "تزوجت": 4343,
      "جاوز": 4344,
      "الثلاث": 4345,
      "عبيد": 4346,
      "نصيبي": 4347,
      "ميعاد": 4348,
      "اكان": 4349,
      "تعا": 4350,
      "ثابت": 4351,
      "حافة": 4352,
      "رز": 4353,
      "رقيقة": 4354,
      "ساب": 4355,
      "شغ": 4356,
      "شرف": 4357,
      "ضاع": 4358,
      "عذ": 4359,
      "عشرين": 4360,
      "قسمتي": 4361,
      "لدرجة": 4362,
      "مدا": 4363,
      "موظ": 4364,
      "هيا": 4365,
      "وزوج": 4366,
      "يعل": 4367,
      "##وبي": 4368,
      "##ثلة": 4369,
      "##فال": 4370,
      "##جلا": 4371,
      "##صير": 4372,
      "##قبة": 4373,
      "##شوة": 4374,
      "##الق": 4375,
      "الاعلى": 4376,
      "##ياك": 4377,
      "والض": 4378,
      "الحلاق": 4379,
      "##يلته": 4380,
      "بالاي": 4381,
      "العهد": 4382,
      "العلاقة": 4383,
      "وتض": 4384,
      "##عتر": 4385,
      "القب": 4386,
      "القت": 4387,
      "وانف": 4388,
      "يتزوج": 4389,
      "يتفحص": 4390,
      "##رفعت": 4391,
      "##ديع": 4392,
      "اعصاب": 4393,
      "ينتهي": 4394,
      "تنبس": 4395,
      "اتذكر": 4396,
      "بحزم": 4397,
      "كالعادة": 4398,
      "بدوره": 4399,
      "مستقبل": 4400,
      "المامور": 4401,
      "بيضاء": 4402,
      "تدور": 4403,
      "##غيظ": 4404,
      "بخط": 4405,
      "عامر": 4406,
      "العجيب": 4407,
      "وظيفة": 4408,
      "رمضان": 4409,
      "يتحرك": 4410,
      "حامد": 4411,
      "ابنتها": 4412,
      "انفسنا": 4413,
      "مفاجاة": 4414,
      "عاطفة": 4415,
      "للرجل": 4416,
      "اانت": 4417,
      "تكت": 4418,
      "تبد": 4419,
      "جه": 4420,
      "سما": 4421,
      "سام": 4422,
      "ضرب": 4423,
      "طرق": 4424,
      "عود": 4425,
      "لخ": 4426,
      "لشيء": 4427,
      "مفع": 4428,
      "مسا": 4429,
      "مهل": 4430,
      "نهض": 4431,
      "يذ": 4432,
      "يحد": 4433,
      "##حص": 4434,
      "##بنا": 4435,
      "##بود": 4436,
      "##يان": 4437,
      "##يوم": 4438,
      "##دمة": 4439,
      "##جوم": 4440,
      "##جاهل": 4441,
      "اليا": 4442,
      "انما": 4443,
      "انور": 4444,
      "##رادة": 4445,
      "لاخر": 4446,
      "السور": 4447,
      "السفر": 4448,
      "السنة": 4449,
      "التم": 4450,
      "وتس": 4451,
      "##كرته": 4452,
      "البتة": 4453,
      "يتبادل": 4454,
      "اخاف": 4455,
      "الخلاء": 4456,
      "##علة": 4457,
      "ولد": 4458,
      "##سمين": 4459,
      "##سمية": 4460,
      "الفرج": 4461,
      "الطب": 4462,
      "استع": 4463,
      "الانف": 4464,
      "الغيب": 4465,
      "بانك": 4466,
      "##سارة": 4467,
      "يخت": 4468,
      "ودون": 4469,
      "##طعم": 4470,
      "وخيل": 4471,
      "الظلمة": 4472,
      "المحامي": 4473,
      "سيجارة": 4474,
      "##سبب": 4475,
      "صادقة": 4476,
      "رحلة": 4477,
      "رغبته": 4478,
      "يزيد": 4479,
      "بالقياس": 4480,
      "يديها": 4481,
      "وادرك": 4482,
      "الوداع": 4483,
      "بشر": 4484,
      "بذهول": 4485,
      "تاث": 4486,
      "تبادل": 4487,
      "جنا": 4488,
      "جري": 4489,
      "حوالي": 4490,
      "رفعت": 4491,
      "عوا": 4492,
      "عيب": 4493,
      "عقل": 4494,
      "غاي": 4495,
      "فوا": 4496,
      "فري": 4497,
      "مشي": 4498,
      "وو": 4499,
      "وردة": 4500,
      "ووجدت": 4501,
      "يظن": 4502,
      "##يون": 4503,
      "##ظع": 4504,
      "##فير": 4505,
      "##زية": 4506,
      "##عيم": 4507,
      "##عمة": 4508,
      "##مارس": 4509,
      "##لاه": 4510,
      "المحد": 4511,
      "والمع": 4512,
      "الحج": 4513,
      "عنقه": 4514,
      "العبث": 4515,
      "التالية": 4516,
      "التجربة": 4517,
      "كانك": 4518,
      "وتل": 4519,
      "##رتين": 4520,
      "ابوك": 4521,
      "الخلق": 4522,
      "النجاة": 4523,
      "النسيان": 4524,
      "فتمتم": 4525,
      "الدايم": 4526,
      "الطمانينة": 4527,
      "اسال": 4528,
      "للغ": 4529,
      "##رجال": 4530,
      "باخ": 4531,
      "##هربا": 4532,
      "##رحمة": 4533,
      "يسر": 4534,
      "اذنه": 4535,
      "فراح": 4536,
      "فكرت": 4537,
      "الحقوق": 4538,
      "اركان": 4539,
      "مضطر": 4540,
      "غضبا": 4541,
      "شابا": 4542,
      "راحة": 4543,
      "لبثت": 4544,
      "موجود": 4545,
      "خياله": 4546,
      "اهمية": 4547,
      "صورته": 4548,
      "البحث": 4549,
      "اليقظة": 4550,
      "الاحداث": 4551,
      "لعينيه": 4552,
      "الهرم": 4553,
      "ازد": 4554,
      "تها": 4555,
      "حاله": 4556,
      "زعتر": 4557,
      "سيق": 4558,
      "سالها": 4559,
      "غل": 4560,
      "غز": 4561,
      "فناء": 4562,
      "قري": 4563,
      "كمن": 4564,
      "كادت": 4565,
      "كبيرا": 4566,
      "موت": 4567,
      "##ملق": 4568,
      "##رص": 4569,
      "##يما": 4570,
      "##لل": 4571,
      "##قن": 4572,
      "##قاد": 4573,
      "##عون": 4574,
      "##هات": 4575,
      "المب": 4576,
      "المقد": 4577,
      "المجد": 4578,
      "##ياها": 4579,
      "##يارات": 4580,
      "##يدها": 4581,
      "ماما": 4582,
      "السابق": 4583,
      "الشا": 4584,
      "البقاء": 4585,
      "يتغير": 4586,
      "الخريف": 4587,
      "##ركات": 4588,
      "##قتك": 4589,
      "الطوار": 4590,
      "الطلبة": 4591,
      "##وفق": 4592,
      "##رضه": 4593,
      "الغلي": 4594,
      "##ميز": 4595,
      "اشك": 4596,
      "احدث": 4597,
      "اهذا": 4598,
      "وكمال": 4599,
      "##ضيء": 4600,
      "الثانوية": 4601,
      "##ندوق": 4602,
      "لتح": 4603,
      "يفهم": 4604,
      "والاخر": 4605,
      "وحدك": 4606,
      "##وارع": 4607,
      "سيكون": 4608,
      "يكد": 4609,
      "حولها": 4610,
      "##فكرا": 4611,
      "جانبها": 4612,
      "يضرب": 4613,
      "جنبا": 4614,
      "منكبيه": 4615,
      "تاجر": 4616,
      "حقيقي": 4617,
      "ممكن": 4618,
      "جنونية": 4619,
      "غاضبة": 4620,
      "الصحراء": 4621,
      "الكرسي": 4622,
      "الاربعين": 4623,
      "اختفى": 4624,
      "دندان": 4625,
      "بركة": 4626,
      "باحت": 4627,
      "بحكم": 4628,
      "تفر": 4629,
      "ثال": 4630,
      "حت": 4631,
      "خفق": 4632,
      "علاء": 4633,
      "نتيجة": 4634,
      "هجر": 4635,
      "يسا": 4636,
      "يراه": 4637,
      "##طية": 4638,
      "##طات": 4639,
      "##جون": 4640,
      "##سير": 4641,
      "انباء": 4642,
      "المف": 4643,
      "المدر": 4644,
      "المجلس": 4645,
      "##ستقبل": 4646,
      "##ولته": 4647,
      "##يرته": 4648,
      "بالاح": 4649,
      "وتمتمت": 4650,
      "معقول": 4651,
      "البال": 4652,
      "ولاحت": 4653,
      "فاش": 4654,
      "اعجاب": 4655,
      "الزا": 4656,
      "تعمل": 4657,
      "يعاني": 4658,
      "الغا": 4659,
      "وحسن": 4660,
      "تنسى": 4661,
      "اتح": 4662,
      "##دتك": 4663,
      "نحوي": 4664,
      "اشار": 4665,
      "ويش": 4666,
      "الاخت": 4667,
      "بصوته": 4668,
      "تجاهل": 4669,
      "حالة": 4670,
      "رايي": 4671,
      "تخاف": 4672,
      "مشغ": 4673,
      "ابتسمت": 4674,
      "فقدت": 4675,
      "##لاءة": 4676,
      "بشدة": 4677,
      "بالحب": 4678,
      "##فكار": 4679,
      "تاثر": 4680,
      "وجاءت": 4681,
      "خدمة": 4682,
      "حكمة": 4683,
      "اربعة": 4684,
      "مناسبة": 4685,
      "واشتد": 4686,
      "بالامس": 4687,
      "بذرا": 4688,
      "تار": 4689,
      "تفت": 4690,
      "ثقة": 4691,
      "جملة": 4692,
      "حاد": 4693,
      "حاس": 4694,
      "درا": 4695,
      "ذك": 4696,
      "ربع": 4697,
      "سكر": 4698,
      "سهام": 4699,
      "فوز": 4700,
      "فمه": 4701,
      "قصد": 4702,
      "كح": 4703,
      "كري": 4704,
      "مجل": 4705,
      "نك": 4706,
      "ويا": 4707,
      "ورد": 4708,
      "وذاك": 4709,
      "##بني": 4710,
      "##وادة": 4711,
      "##خول": 4712,
      "##ثور": 4713,
      "##جنون": 4714,
      "##سالة": 4715,
      "##صن": 4716,
      "الدي": 4717,
      "مند": 4718,
      "الاقدام": 4719,
      "##ادفة": 4720,
      "##ريكة": 4721,
      "التجار": 4722,
      "##قدت": 4723,
      "##جلوس": 4724,
      "##ايح": 4725,
      "وتناول": 4726,
      "الجرا": 4727,
      "الجحيم": 4728,
      "##ودد": 4729,
      "القامة": 4730,
      "القضاء": 4731,
      "الرقص": 4732,
      "النصر": 4733,
      "متاعب": 4734,
      "الصامت": 4735,
      "الدرجة": 4736,
      "يقصد": 4737,
      "##لبث": 4738,
      "وعايشة": 4739,
      "##لاميذ": 4740,
      "عينا": 4741,
      "الغداء": 4742,
      "يجعل": 4743,
      "عليهما": 4744,
      "وحل": 4745,
      "اتفق": 4746,
      "اتجه": 4747,
      "اتصور": 4748,
      "بحنان": 4749,
      "يشهد": 4750,
      "بدير": 4751,
      "الاسباب": 4752,
      "تجمع": 4753,
      "##وضع": 4754,
      "خطير": 4755,
      "ستكون": 4756,
      "تسير": 4757,
      "فراغ": 4758,
      "##شتمر": 4759,
      "يغني": 4760,
      "يكفي": 4761,
      "يصيح": 4762,
      "##رنو": 4763,
      "اقترب": 4764,
      "الجمعة": 4765,
      "##حلول": 4766,
      "##طبخ": 4767,
      "البحيري": 4768,
      "شاربه": 4769,
      "الشخصية": 4770,
      "تفكير": 4771,
      "يلقي": 4772,
      "مسموع": 4773,
      "ادر": 4774,
      "تبتسم": 4775,
      "جاد": 4776,
      "رفض": 4777,
      "ساد": 4778,
      "شقته": 4779,
      "صحة": 4780,
      "ضاق": 4781,
      "طبيب": 4782,
      "فرق": 4783,
      "كبر": 4784,
      "هما": 4785,
      "ومت": 4786,
      "يبت": 4787,
      "##برات": 4788,
      "##خف": 4789,
      "##ظرا": 4790,
      "##غرق": 4791,
      "##شاه": 4792,
      "##راعة": 4793,
      "الايمان": 4794,
      "المشت": 4795,
      "##ياط": 4796,
      "##ادف": 4797,
      "الحيرة": 4798,
      "الحكم": 4799,
      "##يلي": 4800,
      "السمع": 4801,
      "السادسة": 4802,
      "العسل": 4803,
      "وتش": 4804,
      "وتست": 4805,
      "وترك": 4806,
      "##فسد": 4807,
      "الجنا": 4808,
      "الجريدة": 4809,
      "الره": 4810,
      "##رفا": 4811,
      "الخش": 4812,
      "ومهما": 4813,
      "يقنع": 4814,
      "فاق": 4815,
      "اسوا": 4816,
      "##قايه": 4817,
      "ينقطع": 4818,
      "وقام": 4819,
      "الغريبة": 4820,
      "وحيدة": 4821,
      "تقريبا": 4822,
      "##رقب": 4823,
      "وجهك": 4824,
      "الناحية": 4825,
      "الثقة": 4826,
      "فهذا": 4827,
      "افظع": 4828,
      "##ندم": 4829,
      "يخاف": 4830,
      "الهوى": 4831,
      "مصير": 4832,
      "##طاق": 4833,
      "الراديو": 4834,
      "مقابلة": 4835,
      "حمدي": 4836,
      "##ماتة": 4837,
      "سيدنا": 4838,
      "بنفسها": 4839,
      "خفية": 4840,
      "سعيدا": 4841,
      "يقترب": 4842,
      "حضرة": 4843,
      "موجة": 4844,
      "كالمعت": 4845,
      "جسمها": 4846,
      "ابنتي": 4847,
      "وعيناه": 4848,
      "العزيز": 4849,
      "الجانب": 4850,
      "##ضطراب": 4851,
      "حاجبيه": 4852,
      "اقدم": 4853,
      "تضحك": 4854,
      "ترم": 4855,
      "حادة": 4856,
      "دليل": 4857,
      "ذنب": 4858,
      "راف": 4859,
      "سف": 4860,
      "سماء": 4861,
      "سابق": 4862,
      "صاف": 4863,
      "صبر": 4864,
      "صميم": 4865,
      "عجيبة": 4866,
      "نط": 4867,
      "نادرة": 4868,
      "##وثة": 4869,
      "##جعة": 4870,
      "##زى": 4871,
      "##سمات": 4872,
      "##قلت": 4873,
      "##عرف": 4874,
      "الري": 4875,
      "##رابي": 4876,
      "##لاوي": 4877,
      "الاطفال": 4878,
      "##نام": 4879,
      "والار": 4880,
      "لاه": 4881,
      "لاس": 4882,
      "الحانة": 4883,
      "##واس": 4884,
      "##واك": 4885,
      "##واجا": 4886,
      "العزاء": 4887,
      "العالمة": 4888,
      "وتص": 4889,
      "القران": 4890,
      "الخمسين": 4891,
      "النبي": 4892,
      "متحد": 4893,
      "يقضي": 4894,
      "فاخ": 4895,
      "فاشت": 4896,
      "استه": 4897,
      "للص": 4898,
      "استقر": 4899,
      "ينس": 4900,
      "يدل": 4901,
      "وعرف": 4902,
      "تعرض": 4903,
      "بحركة": 4904,
      "بحذر": 4905,
      "يساله": 4906,
      "بمرارة": 4907,
      "يخيل": 4908,
      "البيضاء": 4909,
      "والحمد": 4910,
      "تدرك": 4911,
      "مدفو": 4912,
      "##بسط": 4913,
      "مقام": 4914,
      "##شتراك": 4915,
      "تكف": 4916,
      "فصاحت": 4917,
      "خيرت": 4918,
      "واحس": 4919,
      "الخطاب": 4920,
      "عشرات": 4921,
      "للعمل": 4922,
      "كثيرين": 4923,
      "بضيق": 4924,
      "فلماذا": 4925,
      "وعلي": 4926,
      "يسمح": 4927,
      "ارجع": 4928,
      "تال": 4929,
      "تاف": 4930,
      "تمه": 4931,
      "تجلس": 4932,
      "سين": 4933,
      "سناء": 4934,
      "سوداء": 4935,
      "غال": 4936,
      "غيظ": 4937,
      "كش": 4938,
      "ليم": 4939,
      "مها": 4940,
      "مسمع": 4941,
      "وبه": 4942,
      "##ملت": 4943,
      "##وبه": 4944,
      "##رها": 4945,
      "##طلاع": 4946,
      "##دخل": 4947,
      "##جح": 4948,
      "##زب": 4949,
      "##ذية": 4950,
      "##صم": 4951,
      "##صراف": 4952,
      "##ضور": 4953,
      "المسا": 4954,
      "المثل": 4955,
      "المجتمع": 4956,
      "##ابد": 4957,
      "لاي": 4958,
      "الحوادث": 4959,
      "عنهم": 4960,
      "##واع": 4961,
      "##ونك": 4962,
      "لمح": 4963,
      "التاك": 4964,
      "القصة": 4965,
      "يتنا": 4966,
      "اخيه": 4967,
      "الخالية": 4968,
      "##مرض": 4969,
      "متزوج": 4970,
      "الطاهر": 4971,
      "للان": 4972,
      "استرد": 4973,
      "ينقص": 4974,
      "تعلق": 4975,
      "يعرض": 4976,
      "اليست": 4977,
      "وحس": 4978,
      "بلغت": 4979,
      "مثلي": 4980,
      "ادم": 4981,
      "بمثل": 4982,
      "يخلق": 4983,
      "##وضوح": 4984,
      "فقام": 4985,
      "يومن": 4986,
      "تدل": 4987,
      "الرابعة": 4988,
      "فراشه": 4989,
      "وفهمي": 4990,
      "##ياسية": 4991,
      "##رنح": 4992,
      "بطريقة": 4993,
      "مكتب": 4994,
      "شعره": 4995,
      "والقى": 4996,
      "حدثني": 4997,
      "محتجا": 4998,
      "عشماوي": 4999,
      "حظه": 5000,
      "يرتدي": 5001,
      "لنفسها": 5002,
      "رءوس": 5003,
      "دخلت": 5004,
      "الاطلاق": 5005,
      "العواقب": 5006,
      "النظرات": 5007,
      "باقتضاب": 5008,
      "اياه": 5009,
      "تهد": 5010,
      "تسي": 5011,
      "تراه": 5012,
      "ترامى": 5013,
      "جاه": 5014,
      "جيبه": 5015,
      "درج": 5016,
      "ذر": 5017,
      "سحلول": 5018,
      "شاك": 5019,
      "شاملة": 5020,
      "ضابط": 5021,
      "فست": 5022,
      "قه": 5023,
      "قوم": 5024,
      "قامت": 5025,
      "قرن": 5026,
      "كريمة": 5027,
      "يغير": 5028,
      "يطلع": 5029,
      "يثير": 5030,
      "##ولك": 5031,
      "##ربا": 5032,
      "##تا": 5033,
      "##جعا": 5034,
      "##ذبه": 5035,
      "##ذهاب": 5036,
      "##صال": 5037,
      "##لاما": 5038,
      "##لاته": 5039,
      "##لاشى": 5040,
      "المشر": 5041,
      "##واح": 5042,
      "واجب": 5043,
      "السحر": 5044,
      "العط": 5045,
      "##قدمه": 5046,
      "الجسم": 5047,
      "الجيران": 5048,
      "القنا": 5049,
      "القريب": 5050,
      "ابل": 5051,
      "يتوقع": 5052,
      "الخادم": 5053,
      "النس": 5054,
      "الصداقة": 5055,
      "الطف": 5056,
      "الطرب": 5057,
      "وسار": 5058,
      "وسيلة": 5059,
      "وسالت": 5060,
      "باني": 5061,
      "##عهما": 5062,
      "اتريد": 5063,
      "اشعر": 5064,
      "##قلال": 5065,
      "راسك": 5066,
      "##ياتي": 5067,
      "فانا": 5068,
      "يخفق": 5069,
      "يفقد": 5070,
      "وصمت": 5071,
      "راض": 5072,
      "تخرج": 5073,
      "وحدة": 5074,
      "برغبة": 5075,
      "يطلب": 5076,
      "يصح": 5077,
      "والعمل": 5078,
      "يدعى": 5079,
      "عصبية": 5080,
      "اربع": 5081,
      "احلامه": 5082,
      "رسالة": 5083,
      "خرجت": 5084,
      "فادرك": 5085,
      "تلت": 5086,
      "تبر": 5087,
      "تجر": 5088,
      "ثبت": 5089,
      "جر": 5090,
      "حدة": 5091,
      "ره": 5092,
      "ساء": 5093,
      "سبي": 5094,
      "سيت": 5095,
      "عدت": 5096,
      "عطف": 5097,
      "قات": 5098,
      "قضى": 5099,
      "لون": 5100,
      "ماري": 5101,
      "نمت": 5102,
      "ودا": 5103,
      "وغم": 5104,
      "وضح": 5105,
      "##نوط": 5106,
      "##تز": 5107,
      "##دايية": 5108,
      "##فقت": 5109,
      "##ذيب": 5110,
      "##صول": 5111,
      "##ءوس": 5112,
      "الاجتماع": 5113,
      "الافكار": 5114,
      "المطل": 5115,
      "المشك": 5116,
      "##يابه": 5117,
      "بالل": 5118,
      "وهز": 5119,
      "العالية": 5120,
      "##ورك": 5121,
      "وتخ": 5122,
      "وتقدم": 5123,
      "معان": 5124,
      "معرفة": 5125,
      "القتل": 5126,
      "البلا": 5127,
      "يتذكر": 5128,
      "##عاف": 5129,
      "##قتنا": 5130,
      "الصلاة": 5131,
      "ليح": 5132,
      "##دره": 5133,
      "احاديث": 5134,
      "الكبرى": 5135,
      "للف": 5136,
      "اعط": 5137,
      "##برني": 5138,
      "##رجا": 5139,
      "ينطق": 5140,
      "##يبته": 5141,
      "##وانه": 5142,
      "##وحه": 5143,
      "##قلبت": 5144,
      "اهله": 5145,
      "يقولون": 5146,
      "##وزة": 5147,
      "المتع": 5148,
      "##ندباد": 5149,
      "بتحد": 5150,
      "المدق": 5151,
      "##بكي": 5152,
      "زوجا": 5153,
      "واخرى": 5154,
      "اراك": 5155,
      "للمرة": 5156,
      "يلوح": 5157,
      "وقتا": 5158,
      "مرتين": 5159,
      "شخصية": 5160,
      "والخوف": 5161,
      "قررت": 5162,
      "الانتقام": 5163,
      "شهرزاد": 5164,
      "نجيب": 5165,
      "ظهرها": 5166,
      "الواس": 5167,
      "انفسهم": 5168,
      "وجلست": 5169,
      "بريء": 5170,
      "مشروع": 5171,
      "اليقين": 5172,
      "باشفاق": 5173,
      "الثالثة": 5174,
      "تفتح": 5175,
      "جيل": 5176,
      "جوان": 5177,
      "جعدة": 5178,
      "حجا": 5179,
      "سه": 5180,
      "سج": 5181,
      "سخرية": 5182,
      "سعادته": 5183,
      "فظ": 5184,
      "فجلس": 5185,
      "قان": 5186,
      "كلم": 5187,
      "مغم": 5188,
      "مرارة": 5189,
      "نفر": 5190,
      "هلا": 5191,
      "هتفت": 5192,
      "##تام": 5193,
      "##لين": 5194,
      "##فعة": 5195,
      "##زز": 5196,
      "##زيد": 5197,
      "##غد": 5198,
      "##قصة": 5199,
      "##شاط": 5200,
      "الوظيفة": 5201,
      "الامال": 5202,
      "الاهل": 5203,
      "والمس": 5204,
      "الحسن": 5205,
      "##يلت": 5206,
      "العاط": 5207,
      "التن": 5208,
      "التف": 5209,
      "##يقها": 5210,
      "##فتة": 5211,
      "الجوع": 5212,
      "##وجة": 5213,
      "القى": 5214,
      "وجم": 5215,
      "وجرى": 5216,
      "وجمال": 5217,
      "يتناول": 5218,
      "الدفاع": 5219,
      "##ملي": 5220,
      "فاغ": 5221,
      "فاخذ": 5222,
      "فاشار": 5223,
      "الكلب": 5224,
      "للج": 5225,
      "بعص": 5226,
      "امامي": 5227,
      "محسن": 5228,
      "باك": 5229,
      "النادل": 5230,
      "بصفة": 5231,
      "##وضاء": 5232,
      "اصح": 5233,
      "مستطل": 5234,
      "مجال": 5235,
      "حالك": 5236,
      "والحياة": 5237,
      "تشت": 5238,
      "ابتسام": 5239,
      "المدع": 5240,
      "وغادرت": 5241,
      "المنعم": 5242,
      "ذهنه": 5243,
      "##مينان": 5244,
      "حديثها": 5245,
      "عدم": 5246,
      "وضع": 5247,
      "اكتراث": 5248,
      "الجندي": 5249,
      "حضرتك": 5250,
      "الاشياء": 5251,
      "اخذت": 5252,
      "فليس": 5253,
      "المطلة": 5254,
      "خلاف": 5255,
      "حاملا": 5256,
      "انفاسه": 5257,
      "الدعوة": 5258,
      "##ظاهرا": 5259,
      "رييس": 5260,
      "غليظ": 5261,
      "بفتور": 5262,
      "حجازي": 5263,
      "بياع": 5264,
      "جفن": 5265,
      "حتما": 5266,
      "دمه": 5267,
      "ذن": 5268,
      "ذوي": 5269,
      "سات": 5270,
      "صغ": 5271,
      "فضيحة": 5272,
      "قسم": 5273,
      "قرار": 5274,
      "قشتمر": 5275,
      "مداع": 5276,
      "نوعا": 5277,
      "ورك": 5278,
      "يلم": 5279,
      "يسي": 5280,
      "##مرار": 5281,
      "##بش": 5282,
      "##خين": 5283,
      "##دفق": 5284,
      "##شها": 5285,
      "الوس": 5286,
      "انش": 5287,
      "منط": 5288,
      "##رافه": 5289,
      "الحاد": 5290,
      "الحكاية": 5291,
      "##واة": 5292,
      "واكت": 5293,
      "العفو": 5294,
      "##حدر": 5295,
      "معجزة": 5296,
      "وجدي": 5297,
      "الرضا": 5298,
      "##بهة": 5299,
      "ولع": 5300,
      "متظاهرا": 5301,
      "##سمه": 5302,
      "##افظ": 5303,
      "كلمات": 5304,
      "ينم": 5305,
      "##وسه": 5306,
      "وقلب": 5307,
      "##جاير": 5308,
      "تحرك": 5309,
      "اليهما": 5310,
      "يشك": 5311,
      "اقرا": 5312,
      "عميقا": 5313,
      "تفيدة": 5314,
      "ودعا": 5315,
      "صاحبة": 5316,
      "لعنة": 5317,
      "فرن": 5318,
      "يهتف": 5319,
      "تصرف": 5320,
      "الابن": 5321,
      "الابواب": 5322,
      "الابصار": 5323,
      "فنظرت": 5324,
      "يلزم": 5325,
      "بلهفة": 5326,
      "والديه": 5327,
      "عملي": 5328,
      "حزينة": 5329,
      "انقطع": 5330,
      "ثقيلة": 5331,
      "مزيد": 5332,
      "خوفا": 5333,
      "فبدا": 5334,
      "تقدير": 5335,
      "الهدوء": 5336,
      "المعهود": 5337,
      "مسرعا": 5338,
      "الخارجي": 5339,
      "بالايجاب": 5340,
      "بسي": 5341,
      "بدران": 5342,
      "حذار": 5343,
      "دمت": 5344,
      "داره": 5345,
      "رقيق": 5346,
      "سهر": 5347,
      "عه": 5348,
      "علاق": 5349,
      "عتاب": 5350,
      "قايما": 5351,
      "كبار": 5352,
      "مدة": 5353,
      "وبد": 5354,
      "يقدر": 5355,
      "يعلن": 5356,
      "##حبة": 5357,
      "##رث": 5358,
      "##رقا": 5359,
      "##خلة": 5360,
      "##طعه": 5361,
      "##نياء": 5362,
      "##لع": 5363,
      "##صيل": 5364,
      "##كمة": 5365,
      "انفعال": 5366,
      "فيهما": 5367,
      "الامس": 5368,
      "##ابها": 5369,
      "لاخ": 5370,
      "##يدية": 5371,
      "##واته": 5372,
      "##ريحة": 5373,
      "بالمع": 5374,
      "##لمت": 5375,
      "السراي": 5376,
      "التراب": 5377,
      "وترا": 5378,
      "الجا": 5379,
      "الجنة": 5380,
      "##لقي": 5381,
      "##مرح": 5382,
      "##حتي": 5383,
      "##وتر": 5384,
      "متفكرا": 5385,
      "ومرة": 5386,
      "ليالي": 5387,
      "الفضل": 5388,
      "شيطان": 5389,
      "##افظة": 5390,
      "وسر": 5391,
      "وسكت": 5392,
      "##وفا": 5393,
      "##رجت": 5394,
      "استد": 5395,
      "ايما": 5396,
      "##فاهم": 5397,
      "عينين": 5398,
      "وحب": 5399,
      "تنطق": 5400,
      "اتخذ": 5401,
      "بحب": 5402,
      "بحال": 5403,
      "يحلم": 5404,
      "يحلو": 5405,
      "الثامنة": 5406,
      "يموت": 5407,
      "بسوء": 5408,
      "مستع": 5409,
      "##ماني": 5410,
      "مسالة": 5411,
      "##تفاء": 5412,
      "الاحساس": 5413,
      "مقابل": 5414,
      "فلاح": 5415,
      "يطمين": 5416,
      "لكنك": 5417,
      "صديقي": 5418,
      "الحساب": 5419,
      "الخطبة": 5420,
      "عامين": 5421,
      "قطعة": 5422,
      "فاجابه": 5423,
      "##سكي": 5424,
      "باردة": 5425,
      "اولاد": 5426,
      "ذاهلا": 5427,
      "اياما": 5428,
      "بالرغم": 5429,
      "ولعلها": 5430,
      "العوامة": 5431,
      "وانتهى": 5432,
      "الكلمات": 5433,
      "الوطنية": 5434,
      "وقلبه": 5435,
      "الكتب": 5436,
      "ماريانا": 5437,
      "اظ": 5438,
      "اوا": 5439,
      "اراه": 5440,
      "بطن": 5441,
      "ترجع": 5442,
      "جثة": 5443,
      "جرس": 5444,
      "جادا": 5445,
      "ذق": 5446,
      "رزق": 5447,
      "ريقه": 5448,
      "ساف": 5449,
      "ظهور": 5450,
      "عناء": 5451,
      "قمر": 5452,
      "موم": 5453,
      "مود": 5454,
      "مرك": 5455,
      "مطر": 5456,
      "نهار": 5457,
      "وبلغ": 5458,
      "ياب": 5459,
      "يله": 5460,
      "يولي": 5461,
      "##مح": 5462,
      "##موعة": 5463,
      "##وشة": 5464,
      "##رعت": 5465,
      "##ييه": 5466,
      "##طمت": 5467,
      "##طوي": 5468,
      "##ثم": 5469,
      "##نو": 5470,
      "##فاد": 5471,
      "##جية": 5472,
      "##غية": 5473,
      "##قان": 5474,
      "##قله": 5475,
      "##عمل": 5476,
      "##ضرة": 5477,
      "الورد": 5478,
      "انطلق": 5479,
      "الاولاد": 5480,
      "ماية": 5481,
      "الحمال": 5482,
      "##ريه": 5483,
      "##امن": 5484,
      "الساح": 5485,
      "العريس": 5486,
      "التص": 5487,
      "التقت": 5488,
      "##ايرا": 5489,
      "##يقى": 5490,
      "##عتك": 5491,
      "الصمد": 5492,
      "اعوذ": 5493,
      "##رده": 5494,
      "محطة": 5495,
      "وبعض": 5496,
      "بانت": 5497,
      "وحيدا": 5498,
      "تند": 5499,
      "يحاول": 5500,
      "##ساول": 5501,
      "يشرب": 5502,
      "تجيء": 5503,
      "##وكل": 5504,
      "خطيرة": 5505,
      "خطورة": 5506,
      "اولى": 5507,
      "فلس": 5508,
      "تشك": 5509,
      "تستطع": 5510,
      "ورقة": 5511,
      "القدر": 5512,
      "ابيك": 5513,
      "اطمان": 5514,
      "اختفت": 5515,
      "نعرف": 5516,
      "الرحلة": 5517,
      "عيناهما": 5518,
      "واقفة": 5519,
      "كرسي": 5520,
      "يديك": 5521,
      "ناص": 5522,
      "براسه": 5523,
      "الاصوات": 5524,
      "حظي": 5525,
      "بايع": 5526,
      "##ذنب": 5527,
      "لديه": 5528,
      "باطنه": 5529,
      "التعليم": 5530,
      "اجلس": 5531,
      "اوقات": 5532,
      "توج": 5533,
      "جها": 5534,
      "جيدا": 5535,
      "حري": 5536,
      "حفظ": 5537,
      "درية": 5538,
      "سور": 5539,
      "شق": 5540,
      "شجرة": 5541,
      "شغل": 5542,
      "صلاة": 5543,
      "قض": 5544,
      "قوته": 5545,
      "قضاء": 5546,
      "لال": 5547,
      "ويف": 5548,
      "وفر": 5549,
      "وشر": 5550,
      "وياسين": 5551,
      "يراها": 5552,
      "##حمة": 5553,
      "##فون": 5554,
      "##زلت": 5555,
      "##غص": 5556,
      "##عال": 5557,
      "الذاكرة": 5558,
      "انفه": 5559,
      "##ينو": 5560,
      "المنتظر": 5561,
      "##لكة": 5562,
      "##ابرة": 5563,
      "السوق": 5564,
      "العطف": 5565,
      "العشرين": 5566,
      "##باقة": 5567,
      "وتبادلا": 5568,
      "الشجاعة": 5569,
      "الجز": 5570,
      "##ودها": 5571,
      "البعيد": 5572,
      "يتطلع": 5573,
      "الرش": 5574,
      "اوشك": 5575,
      "الخي": 5576,
      "النز": 5577,
      "##مره": 5578,
      "##قتل": 5579,
      "احبها": 5580,
      "اسفل": 5581,
      "اعظم": 5582,
      "تتغير": 5583,
      "وعم": 5584,
      "##فاظ": 5585,
      "باطن": 5586,
      "##ثروة": 5587,
      "ويغ": 5588,
      "الاخوان": 5589,
      "وكث": 5590,
      "##شاق": 5591,
      "باسف": 5592,
      "بيوت": 5593,
      "مقر": 5594,
      "واخت": 5595,
      "شديدا": 5596,
      "الاعمال": 5597,
      "الاعوام": 5598,
      "الشيخوخة": 5599,
      "المصاب": 5600,
      "المصري": 5601,
      "حماس": 5602,
      "ارملة": 5603,
      "سرعة": 5604,
      "تلوح": 5605,
      "عمرو": 5606,
      "عجبا": 5607,
      "بنات": 5608,
      "يعتبر": 5609,
      "نجاح": 5610,
      "واشار": 5611,
      "كلامه": 5612,
      "العاشرة": 5613,
      "واخذت": 5614,
      "النحاسين": 5615,
      "ذاهب": 5616,
      "للحياة": 5617,
      "قولها": 5618,
      "الهموم": 5619,
      "بالزواج": 5620,
      "النشوة": 5621,
      "رندة": 5622,
      "الفقراء": 5623,
      "ترج": 5624,
      "تمنى": 5625,
      "جرت": 5626,
      "حنق": 5627,
      "خمس": 5628,
      "زجاجة": 5629,
      "سواه": 5630,
      "شابة": 5631,
      "صل": 5632,
      "عط": 5633,
      "غلب": 5634,
      "فمال": 5635,
      "قف": 5636,
      "مزا": 5637,
      "نساء": 5638,
      "هادي": 5639,
      "ويب": 5640,
      "وصل": 5641,
      "يطل": 5642,
      "١٢": 5643,
      "##يض": 5644,
      "##خور": 5645,
      "##هى": 5646,
      "##فور": 5647,
      "##جرد": 5648,
      "##زمة": 5649,
      "##سعت": 5650,
      "##كير": 5651,
      "##شل": 5652,
      "##شرات": 5653,
      "الراه": 5654,
      "##انين": 5655,
      "انطلقت": 5656,
      "المطلق": 5657,
      "##ياتها": 5658,
      "الحادث": 5659,
      "##امته": 5660,
      "##لمه": 5661,
      "العواطف": 5662,
      "##باق": 5663,
      "التفات": 5664,
      "وتك": 5665,
      "وتتاب": 5666,
      "الشديد": 5667,
      "امث": 5668,
      "امري": 5669,
      "الجارية": 5670,
      "##وقها": 5671,
      "القط": 5672,
      "يتابع": 5673,
      "الخال": 5674,
      "##ربين": 5675,
      "فتنة": 5676,
      "الفضاء": 5677,
      "الفضيحة": 5678,
      "ولاول": 5679,
      "بعيدة": 5680,
      "الزيني": 5681,
      "وعجب": 5682,
      "يعنيه": 5683,
      "محن": 5684,
      "محز": 5685,
      "قدمي": 5686,
      "تحفظ": 5687,
      "##وحشة": 5688,
      "ونظرت": 5689,
      "##قهقه": 5690,
      "يمين": 5691,
      "قبلة": 5692,
      "فهزت": 5693,
      "اكراما": 5694,
      "بسخرية": 5695,
      "تجري": 5696,
      "يخف": 5697,
      "عميقة": 5698,
      "##طعام": 5699,
      "اليومية": 5700,
      "رايته": 5701,
      "##سلما": 5702,
      "تخطر": 5703,
      "تخاطب": 5704,
      "فرغ": 5705,
      "فرحة": 5706,
      "ارتفع": 5707,
      "الفترة": 5708,
      "##اذبة": 5709,
      "حيوان": 5710,
      "ارادة": 5711,
      "##وراق": 5712,
      "وزارة": 5713,
      "وقتذاك": 5714,
      "الخطير": 5715,
      "نقطة": 5716,
      "انقلب": 5717,
      "مظاهرة": 5718,
      "المالوف": 5719,
      "يتعرض": 5720,
      "السرير": 5721,
      "اسفاه": 5722,
      "مجهولة": 5723,
      "القصرين": 5724,
      "العليا": 5725,
      "الهدف": 5726,
      "الثالث": 5727,
      "طبيعي": 5728,
      "جبينه": 5729,
      "زهران": 5730,
      "النفوس": 5731,
      "صباحا": 5732,
      "تشي": 5733,
      "تطلع": 5734,
      "تبين": 5735,
      "جماعة": 5736,
      "حصر": 5737,
      "داف": 5738,
      "روا": 5739,
      "ربه": 5740,
      "زجاج": 5741,
      "سق": 5742,
      "سهرة": 5743,
      "طرا": 5744,
      "ظلام": 5745,
      "ظلمة": 5746,
      "عقد": 5747,
      "ففي": 5748,
      "فمد": 5749,
      "قرات": 5750,
      "قضي": 5751,
      "كس": 5752,
      "كار": 5753,
      "كعاد": 5754,
      "لغير": 5755,
      "لوجه": 5756,
      "مريض": 5757,
      "نبا": 5758,
      "هب": 5759,
      "هواء": 5760,
      "يلقى": 5761,
      "يصلح": 5762,
      "##مرت": 5763,
      "##حرف": 5764,
      "##حوظ": 5765,
      "##ثار": 5766,
      "##جعت": 5767,
      "##سف": 5768,
      "##قابل": 5769,
      "##شح": 5770,
      "##شفت": 5771,
      "الاله": 5772,
      "منخفض": 5773,
      "المته": 5774,
      "##يابة": 5775,
      "##اربة": 5776,
      "والطرب": 5777,
      "##واعث": 5778,
      "بالذات": 5779,
      "السح": 5780,
      "السوداء": 5781,
      "##جلال": 5782,
      "كانا": 5783,
      "##وقي": 5784,
      "القبو": 5785,
      "يتمالك": 5786,
      "اختي": 5787,
      "الخر": 5788,
      "الخطا": 5789,
      "متولي": 5790,
      "الفول": 5791,
      "الطبيعة": 5792,
      "فاص": 5793,
      "الكاس": 5794,
      "الكابة": 5795,
      "##بتني": 5796,
      "للحب": 5797,
      "##رجيلة": 5798,
      "استدع": 5799,
      "يداري": 5800,
      "الانس": 5801,
      "##فاية": 5802,
      "يعثر": 5803,
      "اتم": 5804,
      "بلد": 5805,
      "ونهض": 5806,
      "كالمت": 5807,
      "المتاعب": 5808,
      "##بعين": 5809,
      "تدخل": 5810,
      "ستجد": 5811,
      "جلسة": 5812,
      "اعترض": 5813,
      "الراحل": 5814,
      "مخيف": 5815,
      "وفض": 5816,
      "جانبي": 5817,
      "والدك": 5818,
      "دايرة": 5819,
      "اقترح": 5820,
      "ابنها": 5821,
      "نفوس": 5822,
      "مرتب": 5823,
      "ناحيته": 5824,
      "##زيون": 5825,
      "فخفق": 5826,
      "ناظري": 5827,
      "براي": 5828,
      "موضوع": 5829,
      "اشتد": 5830,
      "الملل": 5831,
      "حجرتها": 5832,
      "ارادته": 5833,
      "العاشق": 5834,
      "منظره": 5835,
      "بالكلام": 5836,
      "النجاح": 5837,
      "الاعتراف": 5838,
      "بريية": 5839,
      "عبثا": 5840,
      "الاكبر": 5841,
      "يايسا": 5842,
      "المعروف": 5843,
      "##ربوشه": 5844,
      "الموظفين": 5845,
      "حتی": 5846,
      "اطلق": 5847,
      "باف": 5848,
      "بوضوح": 5849,
      "ترب": 5850,
      "جادة": 5851,
      "حبل": 5852,
      "حبها": 5853,
      "حرارة": 5854,
      "خطة": 5855,
      "خواطر": 5856,
      "ذكرت": 5857,
      "زيادة": 5858,
      "سوس": 5859,
      "سلامة": 5860,
      "سكرت": 5861,
      "شامل": 5862,
      "ضغط": 5863,
      "فصل": 5864,
      "فواصل": 5865,
      "قمق": 5866,
      "كع": 5867,
      "لذ": 5868,
      "موف": 5869,
      "موه": 5870,
      "هاديا": 5871,
      "ورح": 5872,
      "يمد": 5873,
      "##وشك": 5874,
      "##طوبة": 5875,
      "##ظلام": 5876,
      "##جاح": 5877,
      "##زيا": 5878,
      "##صوص": 5879,
      "الوسط": 5880,
      "انسى": 5881,
      "##مادي": 5882,
      "منصور": 5883,
      "المطبخ": 5884,
      "##اربه": 5885,
      "والامل": 5886,
      "الحماس": 5887,
      "الحذاء": 5888,
      "واذن": 5889,
      "وهن": 5890,
      "السما": 5891,
      "العظ": 5892,
      "التردد": 5893,
      "وتردد": 5894,
      "##بيعي": 5895,
      "الشوارع": 5896,
      "##رتنا": 5897,
      "##اتم": 5898,
      "##وقا": 5899,
      "معذرة": 5900,
      "القل": 5901,
      "##كرك": 5902,
      "واندفع": 5903,
      "اخته": 5904,
      "##رفق": 5905,
      "وملا": 5906,
      "الفض": 5907,
      "الفكرة": 5908,
      "الدهر": 5909,
      "الدرس": 5910,
      "##درد": 5911,
      "وسل": 5912,
      "ولاحظ": 5913,
      "اسفا": 5914,
      "اسرع": 5915,
      "اسالك": 5916,
      "استسلم": 5917,
      "بعث": 5918,
      "بعيني": 5919,
      "وعي": 5920,
      "وعيه": 5921,
      "محله": 5922,
      "وبخا": 5923,
      "اللون": 5924,
      "بحسن": 5925,
      "النايم": 5926,
      "##قهوة": 5927,
      "##وزع": 5928,
      "يسلم": 5929,
      "يملا": 5930,
      "##ارتك": 5931,
      "وشعرت": 5932,
      "وفيما": 5933,
      "الهرب": 5934,
      "زوجك": 5935,
      "المحم": 5936,
      "فرايت": 5937,
      "حسنية": 5938,
      "يهبط": 5939,
      "عمارة": 5940,
      "##تلس": 5941,
      "دعاه": 5942,
      "دعوة": 5943,
      "مكانا": 5944,
      "ارايت": 5945,
      "يليق": 5946,
      "تغني": 5947,
      "سرورا": 5948,
      "ترين": 5949,
      "جنب": 5950,
      "الرجاء": 5951,
      "عهده": 5952,
      "عصاه": 5953,
      "متهكما": 5954,
      "##يقاظ": 5955,
      "سريعا": 5956,
      "ماتت": 5957,
      "كاسا": 5958,
      "صرخة": 5959,
      "جالسا": 5960,
      "البهو": 5961,
      "جسده": 5962,
      "فقاطع": 5963,
      "الذهبية": 5964,
      "الزاوية": 5965,
      "وبخاصة": 5966,
      "ترفع": 5967,
      "جوار": 5968,
      "حار": 5969,
      "دي": 5970,
      "صع": 5971,
      "صارت": 5972,
      "صمته": 5973,
      "طعم": 5974,
      "عثر": 5975,
      "فاف": 5976,
      "قيد": 5977,
      "قادر": 5978,
      "قاتل": 5979,
      "كافة": 5980,
      "لكان": 5981,
      "لعب": 5982,
      "مره": 5983,
      "مركز": 5984,
      "نومه": 5985,
      "هادية": 5986,
      "يرج": 5987,
      "يرض": 5988,
      "يزل": 5989,
      "##طو": 5990,
      "##ذوبة": 5991,
      "##غف": 5992,
      "##شات": 5993,
      "منش": 5994,
      "##رافة": 5995,
      "الايمن": 5996,
      "المحا": 5997,
      "##نار": 5998,
      "##ابعه": 5999,
      "الحرارة": 6000,
      "##واي": 6001,
      "العن": 6002,
      "العجيبة": 6003,
      "التك": 6004,
      "التحية": 6005,
      "##عدها": 6006,
      "وتفكر": 6007,
      "##لتك": 6008,
      "##فتاة": 6009,
      "الجثة": 6010,
      "##وجب": 6011,
      "القادر": 6012,
      "القراءة": 6013,
      "وانح": 6014,
      "البارد": 6015,
      "يتن": 6016,
      "اخرج": 6017,
      "##بهت": 6018,
      "متوس": 6019,
      "متمه": 6020,
      "ومرت": 6021,
      "فتقول": 6022,
      "فتراجع": 6023,
      "كلنا": 6024,
      "الكبر": 6025,
      "اعمل": 6026,
      "استعداد": 6027,
      "الزم": 6028,
      "الزفاف": 6029,
      "الزحام": 6030,
      "الزجاجة": 6031,
      "انتقل": 6032,
      "##مدة": 6033,
      "يجت": 6034,
      "يجمع": 6035,
      "تحاول": 6036,
      "عندنا": 6037,
      "##دتي": 6038,
      "بكف": 6039,
      "الاخضر": 6040,
      "كالن": 6041,
      "##صده": 6042,
      "وكما": 6043,
      "يشغل": 6044,
      "ادخل": 6045,
      "##شاقة": 6046,
      "تجعل": 6047,
      "الضاح": 6048,
      "الضخم": 6049,
      "بقوله": 6050,
      "وصاحت": 6051,
      "رافت": 6052,
      "الهانم": 6053,
      "##بابة": 6054,
      "تخت": 6055,
      "مشاع": 6056,
      "##ضحكة": 6057,
      "##املها": 6058,
      "##وارى": 6059,
      "المحطة": 6060,
      "مخت": 6061,
      "حمودة": 6062,
      "بالحقيقة": 6063,
      "والسلام": 6064,
      "والسرور": 6065,
      "##حرر": 6066,
      "اثره": 6067,
      "مطال": 6068,
      "طريقها": 6069,
      "امتد": 6070,
      "والقلق": 6071,
      "الحيوان": 6072,
      "الشرطي": 6073,
      "تاخذ": 6074,
      "حزنا": 6075,
      "##واجهة": 6076,
      "باريس": 6077,
      "حجرتي": 6078,
      "عزيزي": 6079,
      "صامتة": 6080,
      "فواده": 6081,
      "واقترب": 6082,
      "الابتسامة": 6083,
      "باعجاب": 6084,
      "كاتب": 6085,
      "##ورنيش": 6086,
      "بجدية": 6087,
      "##فاريت": 6088,
      "ابلغ": 6089,
      "اره": 6090,
      "بقب": 6091,
      "بناء": 6092,
      "بطي": 6093,
      "تبق": 6094,
      "جزاء": 6095,
      "حادث": 6096,
      "حارتنا": 6097,
      "خادم": 6098,
      "دلت": 6099,
      "دعت": 6100,
      "سمي": 6101,
      "شرب": 6102,
      "شمل": 6103,
      "صبي": 6104,
      "صداقة": 6105,
      "ضخ": 6106,
      "غر": 6107,
      "غد": 6108,
      "غار": 6109,
      "قن": 6110,
      "نن": 6111,
      "ناع": 6112,
      "نشا": 6113,
      "نداء": 6114,
      "هه": 6115,
      "هباء": 6116,
      "يلا": 6117,
      "يكتب": 6118,
      "##موع": 6119,
      "##وون": 6120,
      "##ارا": 6121,
      "##طيب": 6122,
      "##فين": 6123,
      "##زال": 6124,
      "##زاح": 6125,
      "##غيب": 6126,
      "##عرض": 6127,
      "##انيا": 6128,
      "##ماية": 6129,
      "##راسي": 6130,
      "والارت": 6131,
      "والالم": 6132,
      "ماساة": 6133,
      "السهرة": 6134,
      "السخرية": 6135,
      "العص": 6136,
      "العشاء": 6137,
      "التش": 6138,
      "التوفيق": 6139,
      "التلاميذ": 6140,
      "##ايعة": 6141,
      "##همه": 6142,
      "الشاحب": 6143,
      "##فتي": 6144,
      "##وقعة": 6145,
      "البو": 6146,
      "يتبعه": 6147,
      "##ديها": 6148,
      "ليلا": 6149,
      "الفلس": 6150,
      "الدكاكين": 6151,
      "الطرف": 6152,
      "ولاح": 6153,
      "اسن": 6154,
      "اعمى": 6155,
      "تتردد": 6156,
      "تتنهد": 6157,
      "##خلى": 6158,
      "تقرا": 6159,
      "تقيم": 6160,
      "اللسان": 6161,
      "يحل": 6162,
      "راسا": 6163,
      "كالح": 6164,
      "بصراحة": 6165,
      "يسعه": 6166,
      "##مهور": 6167,
      "تجاه": 6168,
      "اذني": 6169,
      "مستقب": 6170,
      "مستسلما": 6171,
      "##فقات": 6172,
      "##والد": 6173,
      "الاحوال": 6174,
      "الظل": 6175,
      "الظهر": 6176,
      "##حايا": 6177,
      "امامها": 6178,
      "اثاث": 6179,
      "حسنين": 6180,
      "عزاء": 6181,
      "وفكر": 6182,
      "خليق": 6183,
      "اغلق": 6184,
      "سمراء": 6185,
      "نظام": 6186,
      "يلعب": 6187,
      "ابنك": 6188,
      "تعرفه": 6189,
      "ذاكرته": 6190,
      "الرحمن": 6191,
      "تركت": 6192,
      "اهلها": 6193,
      "وهمست": 6194,
      "الستين": 6195,
      "وارتفع": 6196,
      "المغلق": 6197,
      "الهادي": 6198,
      "يبدا": 6199,
      "عابر": 6200,
      "الجلسة": 6201,
      "خيال": 6202,
      "فشعر": 6203,
      "ركبت": 6204,
      "واضحة": 6205,
      "تمتمت": 6206,
      "ظننت": 6207,
      "صدقني": 6208,
      "ابنايه": 6209,
      "دفعة": 6210,
      "##ظاهرات": 6211,
      "مجنونة": 6212,
      "الثقيل": 6213,
      "القصيرة": 6214,
      "##واصلت": 6215,
      "السابقة": 6216,
      "مطلقا": 6217,
      "يرمق": 6218,
      "جوابا": 6219,
      "الفاتحة": 6220,
      "باعتبار": 6221,
      "فوزي": 6222,
      "ارد": 6223,
      "جي": 6224,
      "جهد": 6225,
      "خصاص": 6226,
      "دين": 6227,
      "دقيق": 6228,
      "سد": 6229,
      "صحتك": 6230,
      "طظ": 6231,
      "طبع": 6232,
      "طبق": 6233,
      "ظفر": 6234,
      "غني": 6235,
      "فامت": 6236,
      "لحق": 6237,
      "لذي": 6238,
      "مدر": 6239,
      "مهر": 6240,
      "مرس": 6241,
      "نذهب": 6242,
      "نجد": 6243,
      "وضا": 6244,
      "يعا": 6245,
      "##بن": 6246,
      "##ويت": 6247,
      "##ذرت": 6248,
      "##صلا": 6249,
      "##عنا": 6250,
      "الوي": 6251,
      "الولا": 6252,
      "##انب": 6253,
      "##انق": 6254,
      "##هارة": 6255,
      "الموم": 6256,
      "المنع": 6257,
      "المياه": 6258,
      "المجرم": 6259,
      "المراقب": 6260,
      "والما": 6261,
      "والمد": 6262,
      "والغضب": 6263,
      "الحذر": 6264,
      "واك": 6265,
      "##يلية": 6266,
      "وهلة": 6267,
      "السنين": 6268,
      "السياسية": 6269,
      "التسليم": 6270,
      "الشرف": 6271,
      "الشقاء": 6272,
      "##لتي": 6273,
      "الجهد": 6274,
      "معب": 6275,
      "معار": 6276,
      "القضية": 6277,
      "وانهم": 6278,
      "يتلقى": 6279,
      "يتمتع": 6280,
      "الرسالة": 6281,
      "##رفه": 6282,
      "الخطر": 6283,
      "##ربدة": 6284,
      "ولقد": 6285,
      "فتور": 6286,
      "فتمتمت": 6287,
      "يقين": 6288,
      "اسرار": 6289,
      "##بتين": 6290,
      "##قاذ": 6291,
      "اعز": 6292,
      "اعاد": 6293,
      "##برته": 6294,
      "استث": 6295,
      "انتم": 6296,
      "تتحدث": 6297,
      "##تهام": 6298,
      "الغطاء": 6299,
      "##ليز": 6300,
      "تقصد": 6301,
      "وقدم": 6302,
      "بنظ": 6303,
      "بحيرة": 6304,
      "ويخ": 6305,
      "كالش": 6306,
      "##فرس": 6307,
      "احدهما": 6308,
      "احداث": 6309,
      "بصورة": 6310,
      "يسري": 6311,
      "فقطب": 6312,
      "ودار": 6313,
      "خطبة": 6314,
      "والحزن": 6315,
      "تدفع": 6316,
      "الهزيمة": 6317,
      "وحدي": 6318,
      "##كايات": 6319,
      "اعتاد": 6320,
      "##زعجا": 6321,
      "زوجتي": 6322,
      "وغضب": 6323,
      "##باركة": 6324,
      "##ضحية": 6325,
      "بدافع": 6326,
      "المستشار": 6327,
      "وثبت": 6328,
      "حديثا": 6329,
      "قبضة": 6330,
      "عربة": 6331,
      "اختار": 6332,
      "عدلية": 6333,
      "المقابلة": 6334,
      "بالسعادة": 6335,
      "للاست": 6336,
      "الحسناء": 6337,
      "حلوة": 6338,
      "امرها": 6339,
      "##ذيان": 6340,
      "##اركه": 6341,
      "##سكري": 6342,
      "ازمة": 6343,
      "الافضل": 6344,
      "خفيف": 6345,
      "تبدا": 6346,
      "يعترف": 6347,
      "قلقا": 6348,
      "السياسي": 6349,
      "الحاجة": 6350,
      "دنيازاد": 6351,
      "كنبة": 6352,
      "سالني": 6353,
      "استطرد": 6354,
      "يمنة": 6355,
      "عواطفه": 6356,
      "المحبوب": 6357,
      "ووقفت": 6358,
      "شلبي": 6359,
      "فنهض": 6360,
      "حمديس": 6361,
      "وكثيرا": 6362,
      "اتى": 6363,
      "تمن": 6364,
      "توه": 6365,
      "تراءى": 6366,
      "تغيير": 6367,
      "حلا": 6368,
      "حانة": 6369,
      "خيبة": 6370,
      "رع": 6371,
      "زيا": 6372,
      "سفر": 6373,
      "سالم": 6374,
      "شاه": 6375,
      "شركة": 6376,
      "عجلة": 6377,
      "فوجدت": 6378,
      "ملام": 6379,
      "موقع": 6380,
      "نية": 6381,
      "هزة": 6382,
      "هواه": 6383,
      "وواصل": 6384,
      "يفر": 6385,
      "يبحث": 6386,
      "##مينة": 6387,
      "##وصا": 6388,
      "##ييا": 6389,
      "##خار": 6390,
      "##طلب": 6391,
      "##نقه": 6392,
      "##درة": 6393,
      "##زته": 6394,
      "##صلت": 6395,
      "##قلة": 6396,
      "الذهبي": 6397,
      "اندفع": 6398,
      "فين": 6399,
      "الاما": 6400,
      "الايسر": 6401,
      "المظ": 6402,
      "المخت": 6403,
      "الملاءة": 6404,
      "والمن": 6405,
      "##ادره": 6406,
      "الحنق": 6407,
      "واعاد": 6408,
      "##ريث": 6409,
      "##يهة": 6410,
      "وهد": 6411,
      "السعد": 6412,
      "السادة": 6413,
      "السحب": 6414,
      "العادة": 6415,
      "##باتها": 6416,
      "التاثر": 6417,
      "وتحد": 6418,
      "الشرع": 6419,
      "الشحا": 6420,
      "الشاطي": 6421,
      "##فترق": 6422,
      "الجيش": 6423,
      "##ودات": 6424,
      "القبض": 6425,
      "##دافع": 6426,
      "ابنة": 6427,
      "وانق": 6428,
      "وانك": 6429,
      "ياكل": 6430,
      "اخطات": 6431,
      "ولست": 6432,
      "الفندق": 6433,
      "شيون": 6434,
      "##افح": 6435,
      "وساء": 6436,
      "فاجابت": 6437,
      "الكفاية": 6438,
      "الانا": 6439,
      "##خلف": 6440,
      "##فيع": 6441,
      "الغيرة": 6442,
      "الغورية": 6443,
      "وحياة": 6444,
      "##اطير": 6445,
      "ويوما": 6446,
      "##اكد": 6447,
      "##اكل": 6448,
      "##وزارة": 6449,
      "بصري": 6450,
      "يستقبل": 6451,
      "يسبق": 6452,
      "الاسى": 6453,
      "يفرق": 6454,
      "مجرى": 6455,
      "الاحياء": 6456,
      "صاحبها": 6457,
      "والاش": 6458,
      "وخطر": 6459,
      "مصادفة": 6460,
      "لعبة": 6461,
      "##عيان": 6462,
      "##واري": 6463,
      "فرم": 6464,
      "##اجيل": 6465,
      "خليقة": 6466,
      "بعضهم": 6467,
      "نظير": 6468,
      "تهز": 6469,
      "فصمت": 6470,
      "وثب": 6471,
      "حماسه": 6472,
      "واحيانا": 6473,
      "بعينيها": 6474,
      "شرط": 6475,
      "الالام": 6476,
      "نسمة": 6477,
      "مسيو": 6478,
      "النقطة": 6479,
      "لديك": 6480,
      "الابتدايية": 6481,
      "جلباب": 6482,
      "مناقشة": 6483,
      "الامتحان": 6484,
      "عتبة": 6485,
      "انتباهه": 6486,
      "تباعا": 6487,
      "التمثيل": 6488,
      "صغيرا": 6489,
      "الخروج": 6490,
      "اور": 6491,
      "ايق": 6492,
      "ازداد": 6493,
      "تصد": 6494,
      "تزل": 6495,
      "جث": 6496,
      "حوادث": 6497,
      "روية": 6498,
      "زواجه": 6499,
      "سماع": 6500,
      "سيارته": 6501,
      "شعاع": 6502,
      "صفا": 6503,
      "فجل": 6504,
      "فذه": 6505,
      "كبرياء": 6506,
      "مرج": 6507,
      "موك": 6508,
      "مرور": 6509,
      "يواصل": 6510,
      "##معت": 6511,
      "##ممت": 6512,
      "##خب": 6513,
      "##خض": 6514,
      "##طنة": 6515,
      "##زمت": 6516,
      "##غال": 6517,
      "##قين": 6518,
      "##شرت": 6519,
      "##اليف": 6520,
      "انكر": 6521,
      "##رايز": 6522,
      "المصر": 6523,
      "المرات": 6524,
      "والعا": 6525,
      "والارض": 6526,
      "##ابيع": 6527,
      "##ولو": 6528,
      "بالض": 6529,
      "##قالة": 6530,
      "السمر": 6531,
      "العريض": 6532,
      "التر": 6533,
      "التقل": 6534,
      "##ايفة": 6535,
      "ثمل": 6536,
      "وتبادل": 6537,
      "الشفاء": 6538,
      "امان": 6539,
      "املا": 6540,
      "##يمه": 6541,
      "##احبه": 6542,
      "القي": 6543,
      "القوم": 6544,
      "القوي": 6545,
      "البش": 6546,
      "البرق": 6547,
      "اخشى": 6548,
      "الخم": 6549,
      "الخفية": 6550,
      "النتيجة": 6551,
      "##علان": 6552,
      "الصار": 6553,
      "الصاد": 6554,
      "ليخ": 6555,
      "الطفل": 6556,
      "وسه": 6557,
      "احوال": 6558,
      "الكذب": 6559,
      "اعقاب": 6560,
      "استعد": 6561,
      "استياء": 6562,
      "استقبل": 6563,
      "وقلق": 6564,
      "تعجب": 6565,
      "##فاض": 6566,
      "##ماله": 6567,
      "محب": 6568,
      "الغيظ": 6569,
      "باذن": 6570,
      "وبن": 6571,
      "يجود": 6572,
      "وحنق": 6573,
      "يحق": 6574,
      "يحفظ": 6575,
      "لكي": 6576,
      "جدية": 6577,
      "بصحبة": 6578,
      "بمف": 6579,
      "بمثله": 6580,
      "بساطة": 6581,
      "تجن": 6582,
      "##شيش": 6583,
      "ودارت": 6584,
      "وشت": 6585,
      "وشك": 6586,
      "مجموعة": 6587,
      "الهجرة": 6588,
      "تشير": 6589,
      "مصباح": 6590,
      "فرمق": 6591,
      "##رامية": 6592,
      "##رامته": 6593,
      "يغب": 6594,
      "يغضب": 6595,
      "الاعجاب": 6596,
      "يهون": 6597,
      "يهتم": 6598,
      "يطيق": 6599,
      "سمعه": 6600,
      "نظرتها": 6601,
      "يرغب": 6602,
      "فالقى": 6603,
      "##اقبة": 6604,
      "عدد": 6605,
      "ابنته": 6606,
      "بطبيعة": 6607,
      "طالب": 6608,
      "مرتفع": 6609,
      "فاتجه": 6610,
      "نظره": 6611,
      "قرر": 6612,
      "قرشا": 6613,
      "والجمال": 6614,
      "الجنس": 6615,
      "اعداء": 6616,
      "خاطفة": 6617,
      "موضعه": 6618,
      "##سامح": 6619,
      "وتحول": 6620,
      "تراجع": 6621,
      "باستياء": 6622,
      "##ناقض": 6623,
      "اعماقها": 6624,
      "فعادت": 6625,
      "ولبثت": 6626,
      "الشكوى": 6627,
      "ضعيف": 6628,
      "تدعو": 6629,
      "عظيمة": 6630,
      "العميق": 6631,
      "الاتفاق": 6632,
      "فسالتها": 6633,
      "بوشي": 6634,
      "جديرة": 6635,
      "اعلان": 6636,
      "جلبابه": 6637,
      "السابعة": 6638,
      "مطلقة": 6639,
      "مذهلة": 6640,
      "ومحمد": 6641,
      "جنيهات": 6642,
      "اصدقايه": 6643,
      "اساريره": 6644,
      "الفساد": 6645,
      "يعلو": 6646,
      "الجرايد": 6647,
      "مدفوعا": 6648,
      "سبيلا": 6649,
      "اهد": 6650,
      "ارح": 6651,
      "افر": 6652,
      "افاق": 6653,
      "اكره": 6654,
      "بطل": 6655,
      "تسل": 6656,
      "تبلغ": 6657,
      "تعلن": 6658,
      "جزع": 6659,
      "حذاء": 6660,
      "خذ": 6661,
      "دحر": 6662,
      "زار": 6663,
      "شانه": 6664,
      "صاي": 6665,
      "طع": 6666,
      "عجل": 6667,
      "عودة": 6668,
      "عطفة": 6669,
      "عودته": 6670,
      "غناء": 6671,
      "فوج": 6672,
      "فرفعت": 6673,
      "فقهقه": 6674,
      "قنا": 6675,
      "قار": 6676,
      "ميل": 6677,
      "مجر": 6678,
      "ورق": 6679,
      "يودي": 6680,
      "يمارس": 6681,
      "١٠": 6682,
      "یا": 6683,
      "##بدا": 6684,
      "##يسة": 6685,
      "##طمين": 6686,
      "##ثرت": 6687,
      "##جف": 6688,
      "##جور": 6689,
      "##غاء": 6690,
      "##عات": 6691,
      "الولد": 6692,
      "##الج": 6693,
      "انع": 6694,
      "منكم": 6695,
      "##رابا": 6696,
      "##راره": 6697,
      "المبا": 6698,
      "المفر": 6699,
      "المظاهرات": 6700,
      "والتف": 6701,
      "وهرع": 6702,
      "العجل": 6703,
      "العود": 6704,
      "##وريا": 6705,
      "##ايين": 6706,
      "وتغ": 6707,
      "وترد": 6708,
      "##يقين": 6709,
      "##اتك": 6710,
      "معالم": 6711,
      "##دايا": 6712,
      "ابر": 6713,
      "وانني": 6714,
      "البط": 6715,
      "يتنهد": 6716,
      "اخطر": 6717,
      "الرعب": 6718,
      "متبا": 6719,
      "ومش": 6720,
      "الصغار": 6721,
      "الفك": 6722,
      "الفقر": 6723,
      "الده": 6724,
      "الدواء": 6725,
      "##ملته": 6726,
      "الطلاق": 6727,
      "الطبيعي": 6728,
      "احز": 6729,
      "اساس": 6730,
      "الكهل": 6731,
      "ينعم": 6732,
      "وقته": 6733,
      "وقامت": 6734,
      "تعب": 6735,
      "##لامه": 6736,
      "محذرا": 6737,
      "##هرع": 6738,
      "حسبي": 6739,
      "وحيد": 6740,
      "تحلم": 6741,
      "اشرب": 6742,
      "اشفاق": 6743,
      "بحق": 6744,
      "الاخبار": 6745,
      "##ساير": 6746,
      "اهت": 6747,
      "وكاد": 6748,
      "يسام": 6749,
      "الثياب": 6750,
      "##ذكريات": 6751,
      "اقر": 6752,
      "عملك": 6753,
      "##مانين": 6754,
      "فوقف": 6755,
      "وراءك": 6756,
      "##ضبط": 6757,
      "كثرة": 6758,
      "فسرعان": 6759,
      "جميلا": 6760,
      "يومه": 6761,
      "ستت": 6762,
      "وخديجة": 6763,
      "الفتور": 6764,
      "سيي": 6765,
      "حملت": 6766,
      "الابدي": 6767,
      "سيدتي": 6768,
      "والسعادة": 6769,
      "اطراف": 6770,
      "المصير": 6771,
      "الحلال": 6772,
      "اسمها": 6773,
      "فضرب": 6774,
      "جنيه": 6775,
      "محترم": 6776,
      "بالعمل": 6777,
      "المناسبة": 6778,
      "بالصبر": 6779,
      "يحتاج": 6780,
      "طريقة": 6781,
      "راحتها": 6782,
      "الجلباب": 6783,
      "##يثما": 6784,
      "الاشجار": 6785,
      "الداخلية": 6786,
      "جلسته": 6787,
      "الخاص": 6788,
      "كاسه": 6789,
      "الاثاث": 6790,
      "مليية": 6791,
      "متجاه": 6792,
      "مناسب": 6793,
      "اضطراب": 6794,
      "الجانبين": 6795,
      "القاضي": 6796,
      "النشاط": 6797,
      "سلوكه": 6798,
      "الكثيرين": 6799,
      "المعهودة": 6800,
      "الليالي": 6801,
      "الواجب": 6802,
      "وفضلا": 6803,
      "دحروج": 6804,
      "ايد": 6805,
      "اطلع": 6806,
      "بدر": 6807,
      "بخل": 6808,
      "جعله": 6809,
      "حنان": 6810,
      "حرية": 6811,
      "خدم": 6812,
      "دعي": 6813,
      "دامت": 6814,
      "زقاق": 6815,
      "سكان": 6816,
      "سكت": 6817,
      "سكون": 6818,
      "سنه": 6819,
      "شاي": 6820,
      "شريف": 6821,
      "طيبا": 6822,
      "عك": 6823,
      "فاب": 6824,
      "فذهب": 6825,
      "فزع": 6826,
      "فارق": 6827,
      "كشف": 6828,
      "ليد": 6829,
      "مكر": 6830,
      "ملق": 6831,
      "ناج": 6832,
      "هلم": 6833,
      "ونت": 6834,
      "وطا": 6835,
      "وزن": 6836,
      "وبات": 6837,
      "يجل": 6838,
      "يهد": 6839,
      "يره": 6840,
      "يوكد": 6841,
      "يظفر": 6842,
      "١٥": 6843,
      "##وجل": 6844,
      "##طورة": 6845,
      "##فرت": 6846,
      "##جله": 6847,
      "##جبا": 6848,
      "##زون": 6849,
      "##سيا": 6850,
      "##سرت": 6851,
      "##غله": 6852,
      "##صاح": 6853,
      "##قع": 6854,
      "##قامة": 6855,
      "##قرار": 6856,
      "##قابلة": 6857,
      "الذا": 6858,
      "الذهول": 6859,
      "المودة": 6860,
      "والاد": 6861,
      "لات": 6862,
      "##ريفة": 6863,
      "بالضحك": 6864,
      "##امه": 6865,
      "السرا": 6866,
      "العجب": 6867,
      "##ورته": 6868,
      "وتر": 6869,
      "الشبان": 6870,
      "اموال": 6871,
      "معق": 6872,
      "القرية": 6873,
      "##داة": 6874,
      "ابحث": 6875,
      "واند": 6876,
      "يتج": 6877,
      "اخفاء": 6878,
      "##يفي": 6879,
      "##مرد": 6880,
      "##قتين": 6881,
      "الصور": 6882,
      "الصافية": 6883,
      "فتم": 6884,
      "الفواد": 6885,
      "##ملها": 6886,
      "وسرور": 6887,
      "قالوا": 6888,
      "اساء": 6889,
      "الكه": 6890,
      "الكشك": 6891,
      "الكورنيش": 6892,
      "للط": 6893,
      "استقب": 6894,
      "استقرت": 6895,
      "الزباين": 6896,
      "##بدى": 6897,
      "##مالها": 6898,
      "يعيد": 6899,
      "عينيك": 6900,
      "باعلى": 6901,
      "تحر": 6902,
      "اتزوج": 6903,
      "اشارة": 6904,
      "##وعها": 6905,
      "يستح": 6906,
      "يستيقظ": 6907,
      "يمس": 6908,
      "المعين": 6909,
      "اصيل": 6910,
      "ودق": 6911,
      "يفطن": 6912,
      "تخلق": 6913,
      "مشاعر": 6914,
      "بتح": 6915,
      "وخرج": 6916,
      "فرص": 6917,
      "الاستطلاع": 6918,
      "المحقق": 6919,
      "الفتات": 6920,
      "الباكر": 6921,
      "جمعت": 6922,
      "خلف": 6923,
      "كلاهما": 6924,
      "وطلب": 6925,
      "يطرق": 6926,
      "دعابة": 6927,
      "حاول": 6928,
      "مكانها": 6929,
      "المسكن": 6930,
      "##صاعد": 6931,
      "اطلب": 6932,
      "المستشفى": 6933,
      "عادته": 6934,
      "اختيا": 6935,
      "اخترت": 6936,
      "اختيار": 6937,
      "هدية": 6938,
      "الحلوى": 6939,
      "المقام": 6940,
      "عمرها": 6941,
      "نفعل": 6942,
      "الفراق": 6943,
      "مهلا": 6944,
      "المشربية": 6945,
      "مضاع": 6946,
      "يدعوه": 6947,
      "المغلقة": 6948,
      "حزين": 6949,
      "خبريني": 6950,
      "يتعلق": 6951,
      "لسانها": 6952,
      "جنوني": 6953,
      "تمتد": 6954,
      "استطاع": 6955,
      "مليء": 6956,
      "اجتاح": 6957,
      "مقاومة": 6958,
      "عيون": 6959,
      "تسمح": 6960,
      "يلتفت": 6961,
      "توقعت": 6962,
      "حافظ": 6963,
      "كهذا": 6964,
      "ووجهه": 6965,
      "حانقا": 6966,
      "الجرسون": 6967,
      "بقليل": 6968,
      "الغليظ": 6969,
      "القناطر": 6970,
      "اعلن": 6971,
      "تمس": 6972,
      "تذكرت": 6973,
      "حوار": 6974,
      "خلت": 6975,
      "خبرة": 6976,
      "دهم": 6977,
      "سمارة": 6978,
      "شجا": 6979,
      "صالح": 6980,
      "ظاهر": 6981,
      "فتى": 6982,
      "فرض": 6983,
      "قدرية": 6984,
      "قابل": 6985,
      "كرة": 6986,
      "كون": 6987,
      "كاف": 6988,
      "كرم": 6989,
      "لث": 6990,
      "مغل": 6991,
      "محدث": 6992,
      "مدرس": 6993,
      "نعيش": 6994,
      "وطل": 6995,
      "وغمغم": 6996,
      "يرك": 6997,
      "يبعث": 6998,
      "##بري": 6999,
      "##بودة": 7000,
      "##اوم": 7001,
      "##رحت": 7002,
      "##خد": 7003,
      "##خبط": 7004,
      "##طوع": 7005,
      "##طاني": 7006,
      "##لما": 7007,
      "##فهر": 7008,
      "##غما": 7009,
      "##شيد": 7010,
      "##شوق": 7011,
      "الوعي": 7012,
      "##الوريا": 7013,
      "##انع": 7014,
      "انز": 7015,
      "انقبض": 7016,
      "الامة": 7017,
      "##نافس": 7018,
      "##ارى": 7019,
      "والياس": 7020,
      "ماكرة": 7021,
      "واقبل": 7022,
      "بالغضب": 7023,
      "##امله": 7024,
      "التاس": 7025,
      "##عدم": 7026,
      "##عدام": 7027,
      "##عدني": 7028,
      "##قدا": 7029,
      "ثمرة": 7030,
      "وتد": 7031,
      "الشاعر": 7032,
      "##اتب": 7033,
      "##فتين": 7034,
      "##يمون": 7035,
      "القر": 7036,
      "القطار": 7037,
      "##اهب": 7038,
      "يتف": 7039,
      "يتاح": 7040,
      "اختها": 7041,
      "الربيع": 7042,
      "الرءوس": 7043,
      "الخفي": 7044,
      "الخيبة": 7045,
      "النهر": 7046,
      "##علها": 7047,
      "##وتين": 7048,
      "مترن": 7049,
      "الصناد": 7050,
      "فتع": 7051,
      "الفيلا": 7052,
      "الدولة": 7053,
      "يقلب": 7054,
      "وسعه": 7055,
      "فاع": 7056,
      "احبه": 7057,
      "الكي": 7058,
      "الكدر": 7059,
      "ينطلق": 7060,
      "تتوقع": 7061,
      "وعبد": 7062,
      "وعبث": 7063,
      "##جاور": 7064,
      "بانكار": 7065,
      "بانفعال": 7066,
      "حسرة": 7067,
      "وحي": 7068,
      "وحش": 7069,
      "تقطع": 7070,
      "##اعات": 7071,
      "بحيث": 7072,
      "ويص": 7073,
      "يحظى": 7074,
      "##قبته": 7075,
      "عليكم": 7076,
      "جدار": 7077,
      "الناظر": 7078,
      "اهلك": 7079,
      "يسترق": 7080,
      "##طفل": 7081,
      "الثمن": 7082,
      "افلت": 7083,
      "بمح": 7084,
      "بمدرسة": 7085,
      "اجن": 7086,
      "الاسف": 7087,
      "##شاش": 7088,
      "بسب": 7089,
      "المعرفة": 7090,
      "مستحيل": 7091,
      "مسك": 7092,
      "مسته": 7093,
      "وشد": 7094,
      "وشرب": 7095,
      "المارة": 7096,
      "صدى": 7097,
      "رايتك": 7098,
      "عاود": 7099,
      "بتسليم": 7100,
      "بتوسل": 7101,
      "مصم": 7102,
      "وحدث": 7103,
      "##غيث": 7104,
      "##لاءتها": 7105,
      "ارتاح": 7106,
      "الفتيات": 7107,
      "مخيلته": 7108,
      "فراش": 7109,
      "##غلال": 7110,
      "##جيبا": 7111,
      "اغت": 7112,
      "صفوت": 7113,
      "صفوه": 7114,
      "حاولت": 7115,
      "فنف": 7116,
      "وجدانه": 7117,
      "صديقا": 7118,
      "صديقنا": 7119,
      "يعرفها": 7120,
      "حلما": 7121,
      "الخطيرة": 7122,
      "تريدين": 7123,
      "بالنظر": 7124,
      "بالنسبة": 7125,
      "المناق": 7126,
      "نظرته": 7127,
      "##ذكرة": 7128,
      "بالقوة": 7129,
      "يهمك": 7130,
      "حزنه": 7131,
      "فجعل": 7132,
      "راحته": 7133,
      "زبون": 7134,
      "خدها": 7135,
      "##خاوف": 7136,
      "معتذرا": 7137,
      "الازهر": 7138,
      "##ازينو": 7139,
      "رشيدة": 7140,
      "بالفعل": 7141,
      "##راجعة": 7142,
      "الابتسام": 7143,
      "الارتياح": 7144,
      "الممكن": 7145,
      "اللاتي": 7146,
      "شبابه": 7147,
      "##طايرت": 7148,
      "ساقيه": 7149,
      "ماضيه": 7150,
      "بادب": 7151,
      "ليرى": 7152,
      "مطمينة": 7153,
      "مطمينا": 7154,
      "المفاجاة": 7155,
      "الغامضة": 7156,
      "مظهره": 7157,
      "انقطاع": 7158,
      "الحجرات": 7159,
      "كالمعتذر": 7160,
      "درجات": 7161,
      "العاطفة": 7162,
      "يلهث": 7163,
      "ارس": 7164,
      "برح": 7165,
      "ببعض": 7166,
      "تبت": 7167,
      "تقا": 7168,
      "جع": 7169,
      "جماع": 7170,
      "حلت": 7171,
      "حاكم": 7172,
      "رسمية": 7173,
      "سيل": 7174,
      "سوق": 7175,
      "ستي": 7176,
      "شت": 7177,
      "شاع": 7178,
      "شحات": 7179,
      "ضبط": 7180,
      "ضحية": 7181,
      "ضخم": 7182,
      "طاق": 7183,
      "طربوشه": 7184,
      "ظاهرة": 7185,
      "عيد": 7186,
      "عناد": 7187,
      "فوض": 7188,
      "ففتح": 7189,
      "فدع": 7190,
      "قمي": 7191,
      "قريبة": 7192,
      "كدت": 7193,
      "كرس": 7194,
      "لسبب": 7195,
      "مبر": 7196,
      "مراة": 7197,
      "نال": 7198,
      "وشي": 7199,
      "يواجه": 7200,
      "يزداد": 7201,
      "ياتي": 7202,
      "##مني": 7203,
      "##حار": 7204,
      "##حول": 7205,
      "##بغ": 7206,
      "##ازة": 7207,
      "##رسل": 7208,
      "##يشة": 7209,
      "##نز": 7210,
      "##هي": 7211,
      "##جو": 7212,
      "##سلة": 7213,
      "##ضمن": 7214,
      "الول": 7215,
      "##الى": 7216,
      "##رايا": 7217,
      "##لايل": 7218,
      "الاشتراك": 7219,
      "##ياضة": 7220,
      "##ابية": 7221,
      "##ستي": 7222,
      "##ستقرا": 7223,
      "##يرك": 7224,
      "بالامر": 7225,
      "السف": 7226,
      "السرعة": 7227,
      "السودا": 7228,
      "السقف": 7229,
      "العف": 7230,
      "العكس": 7231,
      "##باته": 7232,
      "##قدار": 7233,
      "##حدى": 7234,
      "وتحت": 7235,
      "وتقول": 7236,
      "امثال": 7237,
      "الجملة": 7238,
      "##ودية": 7239,
      "##وقت": 7240,
      "##وقفه": 7241,
      "معهم": 7242,
      "القوى": 7243,
      "وجرت": 7244,
      "وجوده": 7245,
      "الخاطر": 7246,
      "متا": 7247,
      "متتاب": 7248,
      "فتت": 7249,
      "فتفكر": 7250,
      "الطبيعية": 7251,
      "فاز": 7252,
      "فازداد": 7253,
      "احمق": 7254,
      "اعود": 7255,
      "اعيش": 7256,
      "استحق": 7257,
      "ينذر": 7258,
      "##راءات": 7259,
      "وعقب": 7260,
      "تعبير": 7261,
      "اللهو": 7262,
      "اللهجة": 7263,
      "باغ": 7264,
      "حسنا": 7265,
      "حسناء": 7266,
      "حسبك": 7267,
      "تحل": 7268,
      "تحبه": 7269,
      "اترك": 7270,
      "اتساءل": 7271,
      "الرجلين": 7272,
      "##وحا": 7273,
      "بحا": 7274,
      "##وبها": 7275,
      "يحرك": 7276,
      "يحزن": 7277,
      "يحبها": 7278,
      "كالر": 7279,
      "كالس": 7280,
      "النادي": 7281,
      "النارجيلة": 7282,
      "يستسلم": 7283,
      "ادب": 7284,
      "##طيبة": 7285,
      "وددت": 7286,
      "##رعب": 7287,
      "##جبين": 7288,
      "يفصل": 7289,
      "##خروج": 7290,
      "رايعة": 7291,
      "تشهد": 7292,
      "تحتمل": 7293,
      "##فهوم": 7294,
      "جاءه": 7295,
      "مقص": 7296,
      "##اذب": 7297,
      "مختل": 7298,
      "مختلف": 7299,
      "سلوى": 7300,
      "الاعصاب": 7301,
      "اغنية": 7302,
      "يصنع": 7303,
      "سمح": 7304,
      "صفاء": 7305,
      "سنجام": 7306,
      "شعورا": 7307,
      "مغامرة": 7308,
      "بجراة": 7309,
      "بجنون": 7310,
      "سبيلها": 7311,
      "هدى": 7312,
      "الحسيني": 7313,
      "ساخطا": 7314,
      "وابراهيم": 7315,
      "انتهيت": 7316,
      "واتخذ": 7317,
      "يهمس": 7318,
      "##وذن": 7319,
      "طريقا": 7320,
      "المالوفة": 7321,
      "الملايك": 7322,
      "الملايين": 7323,
      "لسانك": 7324,
      "عزيزة": 7325,
      "تغيرت": 7326,
      "بوجهه": 7327,
      "صورتها": 7328,
      "ضعف": 7329,
      "عفريت": 7330,
      "فايقة": 7331,
      "اعلنت": 7332,
      "حاجبيها": 7333,
      "وفاة": 7334,
      "الحاضرين": 7335,
      "اليمين": 7336,
      "العبادة": 7337,
      "خروج": 7338,
      "قاسم": 7339,
      "انتظاره": 7340,
      "يستهان": 7341,
      "الثلاثين": 7342,
      "فريسة": 7343,
      "##ياطين": 7344,
      "التاكسي": 7345,
      "الطفولة": 7346,
      "اصحابه": 7347,
      "سوسن": 7348,
      "متمهلا": 7349,
      "شحاتة": 7350,
      "افتح": 7351,
      "تصر": 7352,
      "تامل": 7353,
      "تصف": 7354,
      "جرح": 7355,
      "جسد": 7356,
      "خبير": 7357,
      "دوره": 7358,
      "ريثما": 7359,
      "زفاف": 7360,
      "سراي": 7361,
      "سينما": 7362,
      "ضد": 7363,
      "ضجة": 7364,
      "طار": 7365,
      "طاب": 7366,
      "عذب": 7367,
      "عريضة": 7368,
      "فعا": 7369,
      "قم": 7370,
      "كام": 7371,
      "لفت": 7372,
      "لطف": 7373,
      "مقدم": 7374,
      "مهمة": 7375,
      "ملهى": 7376,
      "نار": 7377,
      "نشر": 7378,
      "هف": 7379,
      "يرفض": 7380,
      "##حين": 7381,
      "##برا": 7382,
      "##طعة": 7383,
      "##طاع": 7384,
      "##طلاق": 7385,
      "##هقه": 7386,
      "##جرا": 7387,
      "##صله": 7388,
      "##قيم": 7389,
      "##قضي": 7390,
      "##كام": 7391,
      "##كوت": 7392,
      "##عو": 7393,
      "##شاد": 7394,
      "الوجد": 7395,
      "##انس": 7396,
      "انزعاج": 7397,
      "انقلبت": 7398,
      "##لاج": 7399,
      "الاكل": 7400,
      "الاعيان": 7401,
      "الممر": 7402,
      "المقب": 7403,
      "المحكمة": 7404,
      "والمل": 7405,
      "والاف": 7406,
      "والشر": 7407,
      "والظاهر": 7408,
      "الحيلة": 7409,
      "بالجد": 7410,
      "لمع": 7411,
      "العدل": 7412,
      "العناية": 7413,
      "##قده": 7414,
      "##ايز": 7415,
      "##بيح": 7416,
      "##يقات": 7417,
      "الشرك": 7418,
      "الجسد": 7419,
      "الجيزة": 7420,
      "القايمة": 7421,
      "##متين": 7422,
      "البني": 7423,
      "اختل": 7424,
      "الرمال": 7425,
      "الخدم": 7426,
      "النض": 7427,
      "ومست": 7428,
      "الصبا": 7429,
      "الدجاج": 7430,
      "يقبض": 7431,
      "احاط": 7432,
      "الكث": 7433,
      "##وفي": 7434,
      "##برها": 7435,
      "استقل": 7436,
      "##رددة": 7437,
      "بعطف": 7438,
      "تتابع": 7439,
      "الانزعاج": 7440,
      "##خلها": 7441,
      "يعبر": 7442,
      "هوى": 7443,
      "محام": 7444,
      "الغبار": 7445,
      "##يبك": 7446,
      "باق": 7447,
      "باعين": 7448,
      "قدما": 7449,
      "وحن": 7450,
      "وحز": 7451,
      "وحق": 7452,
      "تنقطع": 7453,
      "عندها": 7454,
      "اللحم": 7455,
      "##رحيب": 7456,
      "بحياة": 7457,
      "ونظرة": 7458,
      "اهي": 7459,
      "##صلحة": 7460,
      "اقصد": 7461,
      "اجله": 7462,
      "الاستهانة": 7463,
      "المعجزة": 7464,
      "المعبودة": 7465,
      "الضوء": 7466,
      "يخفى": 7467,
      "عمرك": 7468,
      "عبدون": 7469,
      "وشهد": 7470,
      "يفيق": 7471,
      "الاحاديث": 7472,
      "وحدته": 7473,
      "والموت": 7474,
      "##ولات": 7475,
      "##ولاتة": 7476,
      "سيية": 7477,
      "فلاحت": 7478,
      "##اذن": 7479,
      "وانتبه": 7480,
      "فهمس": 7481,
      "الاعياء": 7482,
      "والعشرين": 7483,
      "بجسمه": 7484,
      "بالاض": 7485,
      "المصعد": 7486,
      "يعرفون": 7487,
      "الحلوة": 7488,
      "فاستطرد": 7489,
      "المقص": 7490,
      "بالسلامة": 7491,
      "ويتساءل": 7492,
      "اسمك": 7493,
      "الخطوة": 7494,
      "##ونات": 7495,
      "والشراب": 7496,
      "المخبر": 7497,
      "##رادق": 7498,
      "نقود": 7499,
      "شعورها": 7500,
      "واصلت": 7501,
      "ضرورة": 7502,
      "لصق": 7503,
      "المزاح": 7504,
      "توافق": 7505,
      "اجتماع": 7506,
      "فوجدها": 7507,
      "شريك": 7508,
      "معدودات": 7509,
      "الفرنسية": 7510,
      "سحابة": 7511,
      "السكرية": 7512,
      "تتحول": 7513,
      "للدفاع": 7514,
      "##غاريد": 7515,
      "ووضع": 7516,
      "فتنهدت": 7517,
      "فاضطر": 7518,
      "ثروة": 7519,
      "مقطبا": 7520,
      "اللطيف": 7521,
      "موظفا": 7522,
      "تاركا": 7523,
      "سهرته": 7524,
      "علاقته": 7525,
      "يوليو": 7526,
      "الراهنة": 7527,
      "التفاتة": 7528,
      "قمقام": 7529,
      "بسم": 7530,
      "بسا": 7531,
      "بامر": 7532,
      "بذل": 7533,
      "برفق": 7534,
      "تمد": 7535,
      "تورد": 7536,
      "ترقص": 7537,
      "تجاوز": 7538,
      "ثوان": 7539,
      "جارية": 7540,
      "حرا": 7541,
      "حية": 7542,
      "راب": 7543,
      "زاد": 7544,
      "ساك": 7545,
      "شرا": 7546,
      "شهادة": 7547,
      "صراخ": 7548,
      "صندوق": 7549,
      "ضجر": 7550,
      "طبيعية": 7551,
      "عمي": 7552,
      "عجيبا": 7553,
      "غبار": 7554,
      "فز": 7555,
      "فمر": 7556,
      "فسا": 7557,
      "فغم": 7558,
      "فريد": 7559,
      "فايق": 7560,
      "فجع": 7561,
      "فغمغم": 7562,
      "قمة": 7563,
      "قادمة": 7564,
      "كفى": 7565,
      "ناط": 7566,
      "هبط": 7567,
      "هزت": 7568,
      "وبي": 7569,
      "وذكرت": 7570,
      "يال": 7571,
      "يكره": 7572,
      "يوحي": 7573,
      "##مية": 7574,
      "##اص": 7575,
      "##يلاء": 7576,
      "##خرت": 7577,
      "##خابات": 7578,
      "##نونا": 7579,
      "##تر": 7580,
      "##ديا": 7581,
      "##لفت": 7582,
      "##جذب": 7583,
      "##ذها": 7584,
      "##غى": 7585,
      "##صاد": 7586,
      "##شرب": 7587,
      "##شونة": 7588,
      "##ضاعف": 7589,
      "اللام": 7590,
      "اللتين": 7591,
      "##التها": 7592,
      "فيلم": 7593,
      "##ماغ": 7594,
      "##ينات": 7595,
      "##رارا": 7596,
      "الاكت": 7597,
      "المخل": 7598,
      "المالية": 7599,
      "الموافقة": 7600,
      "علبة": 7601,
      "##تهى": 7602,
      "##اركة": 7603,
      "والاط": 7604,
      "والناس": 7605,
      "الحرام": 7606,
      "عنف": 7607,
      "##واتها": 7608,
      "وازد": 7609,
      "##ريزة": 7610,
      "بالمد": 7611,
      "بالاع": 7612,
      "وهب": 7613,
      "العاج": 7614,
      "التحدي": 7615,
      "وتلا": 7616,
      "وتنا": 7617,
      "وتبعه": 7618,
      "امنا": 7619,
      "اماله": 7620,
      "##لتني": 7621,
      "##فتاح": 7622,
      "الجاه": 7623,
      "الجبل": 7624,
      "الجبار": 7625,
      "الجهل": 7626,
      "##احبة": 7627,
      "القرب": 7628,
      "القاسية": 7629,
      "وجده": 7630,
      "ابوها": 7631,
      "يتوقف": 7632,
      "اخف": 7633,
      "##رفته": 7634,
      "الخجل": 7635,
      "##يفته": 7636,
      "فتن": 7637,
      "الدرب": 7638,
      "يقاوم": 7639,
      "كلب": 7640,
      "اسماء": 7641,
      "اسنان": 7642,
      "الكرة": 7643,
      "##وفان": 7644,
      "ايوب": 7645,
      "بعناد": 7646,
      "تتحقق": 7647,
      "الانوار": 7648,
      "##فاة": 7649,
      "##فيض": 7650,
      "بعده": 7651,
      "محس": 7652,
      "قدرة": 7653,
      "يجهل": 7654,
      "حسونة": 7655,
      "ولكنهما": 7656,
      "تنطلق": 7657,
      "تحبين": 7658,
      "بنور": 7659,
      "بنبرات": 7660,
      "اشكرك": 7661,
      "الاختفاء": 7662,
      "بلطف": 7663,
      "ونص": 7664,
      "وندت": 7665,
      "##ياتك": 7666,
      "##اكي": 7667,
      "يسترد": 7668,
      "مثير": 7669,
      "افراد": 7670,
      "بمجلس": 7671,
      "بدلة": 7672,
      "الاسر": 7673,
      "اصله": 7674,
      "تفقد": 7675,
      "تفارق": 7676,
      "لتت": 7677,
      "بقسوة": 7678,
      "##نهدا": 7679,
      "انكار": 7680,
      "راجع": 7681,
      "##سلى": 7682,
      "الامراء": 7683,
      "لانك": 7684,
      "وخفق": 7685,
      "مصدر": 7686,
      "جليل": 7687,
      "##ادرها": 7688,
      "ارتك": 7689,
      "وغل": 7690,
      "ورم": 7691,
      "##زوجة": 7692,
      "صوتك": 7693,
      "تهكم": 7694,
      "اطمين": 7695,
      "بجفاء": 7696,
      "فعلا": 7697,
      "وزوجه": 7698,
      "قصدت": 7699,
      "بطرف": 7700,
      "للاسف": 7701,
      "يضيق": 7702,
      "الساخرة": 7703,
      "الحدود": 7704,
      "بثمن": 7705,
      "##كارى": 7706,
      "##ونيو": 7707,
      "انسانا": 7708,
      "سريع": 7709,
      "##جزات": 7710,
      "بالدور": 7711,
      "الاركان": 7712,
      "تلقي": 7713,
      "زميل": 7714,
      "غمضة": 7715,
      "مليما": 7716,
      "يوثر": 7717,
      "بارتياب": 7718,
      "الاغنياء": 7719,
      "تواخذ": 7720,
      "وجوههم": 7721,
      "مرارا": 7722,
      "صرخ": 7723,
      "السمعة": 7724,
      "وفتحت": 7725,
      "النظام": 7726,
      "ينفذ": 7727,
      "قبضته": 7728,
      "حركته": 7729,
      "الضرورة": 7730,
      "فحدجه": 7731,
      "للزواج": 7732,
      "الخضراء": 7733,
      "زهيرة": 7734,
      "قادما": 7735,
      "ثابتة": 7736,
      "مفعمة": 7737,
      "الياسمين": 7738,
      "فواز": 7739,
      "الواسعة": 7740,
      "الجزار": 7741,
      "متوسطة": 7742,
      "فجلست": 7743,
      "وسهلا": 7744,
      "يسامحك": 7745,
      "السرايات": 7746,
      "اكر": 7747,
      "اطل": 7748,
      "ايقظ": 7749,
      "بور": 7750,
      "بره": 7751,
      "بطا": 7752,
      "بصدق": 7753,
      "تام": 7754,
      "ترق": 7755,
      "تسليم": 7756,
      "تقاليد": 7757,
      "جوه": 7758,
      "جولي": 7759,
      "حير": 7760,
      "حرب": 7761,
      "حنين": 7762,
      "خض": 7763,
      "راك": 7764,
      "رقص": 7765,
      "سرت": 7766,
      "شف": 7767,
      "شرع": 7768,
      "شرفة": 7769,
      "صراحة": 7770,
      "ظنه": 7771,
      "عمال": 7772,
      "غنى": 7773,
      "غرابة": 7774,
      "قايم": 7775,
      "مجا": 7776,
      "مطل": 7777,
      "مالك": 7778,
      "ناس": 7779,
      "هامة": 7780,
      "وود": 7781,
      "وضحكت": 7782,
      "يصرخ": 7783,
      "١١": 7784,
      "١٤": 7785,
      "##مير": 7786,
      "##برك": 7787,
      "##بطة": 7788,
      "##وبر": 7789,
      "##اض": 7790,
      "##ييها": 7791,
      "##خلا": 7792,
      "##ثى": 7793,
      "##ثها": 7794,
      "##نس": 7795,
      "##ظرك": 7796,
      "##فعا": 7797,
      "##جين": 7798,
      "##جبة": 7799,
      "##غض": 7800,
      "##غلب": 7801,
      "##صص": 7802,
      "##كور": 7803,
      "##عاب": 7804,
      "##شط": 7805,
      "##ضاح": 7806,
      "الريف": 7807,
      "انص": 7808,
      "انواع": 7809,
      "الاض": 7810,
      "الاضطراب": 7811,
      "الاوراق": 7812,
      "المي": 7813,
      "المثال": 7814,
      "##يابها": 7815,
      "والمت": 7816,
      "##ابعت": 7817,
      "لاذ": 7818,
      "##وايح": 7819,
      "واجت": 7820,
      "بالمس": 7821,
      "بالده": 7822,
      "##امع": 7823,
      "السندباد": 7824,
      "##باع": 7825,
      "##ايك": 7826,
      "##اسي": 7827,
      "امنة": 7828,
      "الجال": 7829,
      "##وجس": 7830,
      "##يمته": 7831,
      "##داية": 7832,
      "وانطلق": 7833,
      "يتحقق": 7834,
      "اختك": 7835,
      "الرزق": 7836,
      "##ديت": 7837,
      "الخليل": 7838,
      "##ربص": 7839,
      "##ربون": 7840,
      "النفي": 7841,
      "##وتة": 7842,
      "##قتني": 7843,
      "الصا": 7844,
      "فتوة": 7845,
      "الفزع": 7846,
      "الفلاح": 7847,
      "##افل": 7848,
      "وسلم": 7849,
      "احضان": 7850,
      "الكاملة": 7851,
      "##قاش": 7852,
      "اعياء": 7853,
      "##لبس": 7854,
      "وقب": 7855,
      "وقرا": 7856,
      "انتظرت": 7857,
      "وعما": 7858,
      "الانصراف": 7859,
      "تعاني": 7860,
      "##مالات": 7861,
      "يعبث": 7862,
      "بعدم": 7863,
      "##ميس": 7864,
      "باحد": 7865,
      "يجيب": 7866,
      "##هدوء": 7867,
      "تنفي": 7868,
      "اللف": 7869,
      "اللذين": 7870,
      "##رقه": 7871,
      "##وانين": 7872,
      "اشباح": 7873,
      "يحول": 7874,
      "يحادث": 7875,
      "جدير": 7876,
      "كالا": 7877,
      "يسكن": 7878,
      "يسيرة": 7879,
      "مثيرة": 7880,
      "الثراء": 7881,
      "اقيم": 7882,
      "الاسط": 7883,
      "المعارف": 7884,
      "الضرب": 7885,
      "الضجر": 7886,
      "اصط": 7887,
      "##وءة": 7888,
      "مسند": 7889,
      "منهن": 7890,
      "الهتاف": 7891,
      "بتلك": 7892,
      "تحتاج": 7893,
      "مصاب": 7894,
      "مدينة": 7895,
      "الظنون": 7896,
      "واستح": 7897,
      "واستد": 7898,
      "سببا": 7899,
      "الاستقلال": 7900,
      "سلطان": 7901,
      "##جيع": 7902,
      "ذهل": 7903,
      "ذهوله": 7904,
      "رغمه": 7905,
      "حولي": 7906,
      "تصنع": 7907,
      "بشخص": 7908,
      "ملحوظ": 7909,
      "مغام": 7910,
      "المستحيل": 7911,
      "يرسل": 7912,
      "صديقك": 7913,
      "تغضب": 7914,
      "اقتحم": 7915,
      "باهتة": 7916,
      "مطمين": 7917,
      "الرجوع": 7918,
      "امتحان": 7919,
      "نعود": 7920,
      "والنساء": 7921,
      "مهنة": 7922,
      "لعلي": 7923,
      "تركه": 7924,
      "الالوان": 7925,
      "الستار": 7926,
      "روحي": 7927,
      "عرفته": 7928,
      "البكالوريا": 7929,
      "الملابس": 7930,
      "السيارات": 7931,
      "بضعة": 7932,
      "واجما": 7933,
      "##راقبة": 7934,
      "وعليك": 7935,
      "تقترب": 7936,
      "النحيل": 7937,
      "المزيد": 7938,
      "مخاطبة": 7939,
      "توهم": 7940,
      "تلمي": 7941,
      "##صافحا": 7942,
      "الثقافة": 7943,
      "وامتلا": 7944,
      "المقاعد": 7945,
      "مقبولة": 7946,
      "العتيق": 7947,
      "موسى": 7948,
      "جزء": 7949,
      "راحتيه": 7950,
      "##سكرية": 7951,
      "وطالما": 7952,
      "الشرقية": 7953,
      "خارجا": 7954,
      "مضطربة": 7955,
      "ادرى": 7956,
      "الرهيب": 7957,
      "نطقت": 7958,
      "الاجتماعية": 7959,
      "المشكلة": 7960,
      "جفنيه": 7961,
      "وترامت": 7962,
      "ناظريه": 7963,
      "مرجان": 7964,
      "التاسعة": 7965,
      "تفا": 7966,
      "تثير": 7967,
      "تمالك": 7968,
      "تبحث": 7969,
      "تبكي": 7970,
      "ثقي": 7971,
      "ثياب": 7972,
      "جدر": 7973,
      "جذب": 7974,
      "جدران": 7975,
      "حرج": 7976,
      "حبك": 7977,
      "سيس": 7978,
      "صابر": 7979,
      "صينية": 7980,
      "طلق": 7981,
      "عس": 7982,
      "عات": 7983,
      "عذر": 7984,
      "عارية": 7985,
      "فورا": 7986,
      "فوره": 7987,
      "فاحت": 7988,
      "فكره": 7989,
      "فبدت": 7990,
      "قرب": 7991,
      "قولي": 7992,
      "قانون": 7993,
      "قويا": 7994,
      "مري": 7995,
      "مرم": 7996,
      "موث": 7997,
      "مجلة": 7998,
      "نقل": 7999,
      "هالة": 8000,
      "وقا": 8001,
      "يور": 8002,
      "يرف": 8003,
      "يرب": 8004,
      "يطلق": 8005,
      "يونيو": 8006,
      "##مدا": 8007,
      "##حون": 8008,
      "##وير": 8009,
      "##خان": 8010,
      "##طفي": 8011,
      "##نكار": 8012,
      "##زول": 8013,
      "##سس": 8014,
      "##سبه": 8015,
      "##ذبت": 8016,
      "##صان": 8017,
      "##عار": 8018,
      "##شوات": 8019,
      "الثروة": 8020,
      "##هاة": 8021,
      "##ماته": 8022,
      "##مادى": 8023,
      "المول": 8024,
      "الملي": 8025,
      "المريض": 8026,
      "##ارح": 8027,
      "والته": 8028,
      "والعب": 8029,
      "واليوم": 8030,
      "##ستر": 8031,
      "الحفل": 8032,
      "الحبيب": 8033,
      "##ذارة": 8034,
      "عنهما": 8035,
      "عنقها": 8036,
      "##واقب": 8037,
      "واجاب": 8038,
      "السخ": 8039,
      "السكون": 8040,
      "السكرت": 8041,
      "السماعة": 8042,
      "العما": 8043,
      "العمال": 8044,
      "العناء": 8045,
      "العامل": 8046,
      "العطفة": 8047,
      "##باحة": 8048,
      "التوبة": 8049,
      "التفتت": 8050,
      "وتب": 8051,
      "الشكر": 8052,
      "##فسير": 8053,
      "امال": 8054,
      "املك": 8055,
      "امله": 8056,
      "امونة": 8057,
      "##فتك": 8058,
      "الجزع": 8059,
      "##ودين": 8060,
      "القسمات": 8061,
      "##كنة": 8062,
      "##داعي": 8063,
      "البق": 8064,
      "يترامى": 8065,
      "اخل": 8066,
      "الرقيقة": 8067,
      "الرثاء": 8068,
      "الخف": 8069,
      "الخاط": 8070,
      "النداء": 8071,
      "النطق": 8072,
      "ولح": 8073,
      "متال": 8074,
      "متاب": 8075,
      "متمت": 8076,
      "متنهدا": 8077,
      "بهيجة": 8078,
      "الصالح": 8079,
      "##سمها": 8080,
      "الفرد": 8081,
      "كلانا": 8082,
      "احق": 8083,
      "اسير": 8084,
      "اسكت": 8085,
      "الكا": 8086,
      "للب": 8087,
      "الزعيم": 8088,
      "##راءت": 8089,
      "وقر": 8090,
      "انتهاء": 8091,
      "تتطلع": 8092,
      "وعينا": 8093,
      "##فاقا": 8094,
      "##تهاء": 8095,
      "##مالة": 8096,
      "قدمت": 8097,
      "##هده": 8098,
      "وحاول": 8099,
      "تقنع": 8100,
      "تحا": 8101,
      "اشهد": 8102,
      "ويجب": 8103,
      "الاخلاق": 8104,
      "##سيس": 8105,
      "##فعله": 8106,
      "يحيا": 8107,
      "يحضر": 8108,
      "جده": 8109,
      "##وعك": 8110,
      "يستقر": 8111,
      "يمسك": 8112,
      "##ذكرى": 8113,
      "بلاد": 8114,
      "##سانس": 8115,
      "ادراك": 8116,
      "اقسم": 8117,
      "اقصر": 8118,
      "بمس": 8119,
      "تجار": 8120,
      "##وضة": 8121,
      "اذنيها": 8122,
      "راقصة": 8123,
      "ستة": 8124,
      "##بابه": 8125,
      "الامير": 8126,
      "الامواج": 8127,
      "فلوح": 8128,
      "مشقة": 8129,
      "بتاثر": 8130,
      "اخرون": 8131,
      "##دهة": 8132,
      "واستسلم": 8133,
      "اعتراض": 8134,
      "تستقر": 8135,
      "وانتظرت": 8136,
      "بابها": 8137,
      "برغ": 8138,
      "حمله": 8139,
      "يصدر": 8140,
      "عادية": 8141,
      "عدو": 8142,
      "وضعت": 8143,
      "بطنه": 8144,
      "##وهام": 8145,
      "مجلسها": 8146,
      "السلطانة": 8147,
      "امتلا": 8148,
      "امتعاض": 8149,
      "قطب": 8150,
      "محتجة": 8151,
      "وابن": 8152,
      "المعلمين": 8153,
      "واسماعيل": 8154,
      "البلخي": 8155,
      "##طباء": 8156,
      "عشاء": 8157,
      "الانسانية": 8158,
      "الافراح": 8159,
      "سمعته": 8160,
      "وجدتني": 8161,
      "الانجليزي": 8162,
      "الفرص": 8163,
      "احسنت": 8164,
      "الواحدة": 8165,
      "لنفسك": 8166,
      "وينت": 8167,
      "المهندس": 8168,
      "ضربة": 8169,
      "البشرية": 8170,
      "الاثنين": 8171,
      "شهيد": 8172,
      "الذكرى": 8173,
      "زمنا": 8174,
      "غامض": 8175,
      "انسيت": 8176,
      "رددت": 8177,
      "حبيبتي": 8178,
      "الدعاء": 8179,
      "الدعابة": 8180,
      "خصوصا": 8181,
      "لزيارة": 8182,
      "وانتهت": 8183,
      "نشاطه": 8184,
      "جالسة": 8185,
      "هاتفا": 8186,
      "ورجعت": 8187,
      "مبعدة": 8188,
      "كهذه": 8189,
      "منعطف": 8190,
      "استغفر": 8191,
      "فقاطعه": 8192,
      "قلوبنا": 8193,
      "يرحم": 8194,
      "حواسه": 8195,
      "طفلا": 8196,
      "المحبوبة": 8197,
      "ذهابه": 8198,
      "انفعاله": 8199,
      "تفسير": 8200,
      "مخاوف": 8201,
      "انقطعت": 8202,
      "التدخين": 8203,
      "جاوزت": 8204,
      "مشغول": 8205,
      "راضيا": 8206,
      "بعصبية": 8207,
      "عهدا": 8208,
      "فلسفة": 8209,
      "المصابيح": 8210,
      "مشاعره": 8211,
      "البوابة": 8212,
      "الفلسفة": 8213,
      "الويسكي": 8214,
      "الدهليز": 8215,
      "اجر": 8216,
      "ايهما": 8217,
      "بقد": 8218,
      "بوق": 8219,
      "برق": 8220,
      "بزوج": 8221,
      "بغل": 8222,
      "بضر": 8223,
      "بواعث": 8224,
      "تومن": 8225,
      "حايرة": 8226,
      "دارت": 8227,
      "ريري": 8228,
      "رعاية": 8229,
      "زاي": 8230,
      "شاهد": 8231,
      "شاطي": 8232,
      "طن": 8233,
      "طاع": 8234,
      "طاري": 8235,
      "طارية": 8236,
      "فرات": 8237,
      "فوه": 8238,
      "فراه": 8239,
      "فضل": 8240,
      "قسوة": 8241,
      "كشك": 8242,
      "ليه": 8243,
      "لوح": 8244,
      "مغي": 8245,
      "مبال": 8246,
      "مجرم": 8247,
      "نفي": 8248,
      "نسمع": 8249,
      "نغمة": 8250,
      "نفترق": 8251,
      "همه": 8252,
      "هجرت": 8253,
      "ووج": 8254,
      "ووقع": 8255,
      "يمل": 8256,
      "يرام": 8257,
      "يرقص": 8258,
      "يظهر": 8259,
      "يجاوز": 8260,
      "يرضى": 8261,
      "يفسد": 8262,
      "##ويها": 8263,
      "##وبات": 8264,
      "##يعة": 8265,
      "##طاف": 8266,
      "##ثين": 8267,
      "##ثمان": 8268,
      "##دون": 8269,
      "##زقة": 8270,
      "##زعه": 8271,
      "##غني": 8272,
      "##قوط": 8273,
      "##عيه": 8274,
      "##شم": 8275,
      "##شين": 8276,
      "##انك": 8277,
      "##ينها": 8278,
      "##رابه": 8279,
      "##رايب": 8280,
      "الاوان": 8281,
      "الاعم": 8282,
      "الميت": 8283,
      "المهد": 8284,
      "المومن": 8285,
      "##تهتار": 8286,
      "والال": 8287,
      "والواقع": 8288,
      "والدتك": 8289,
      "##يدته": 8290,
      "##ادرا": 8291,
      "ماز": 8292,
      "الحين": 8293,
      "الحلقة": 8294,
      "واول": 8295,
      "وامه": 8296,
      "واغمض": 8297,
      "##ريك": 8298,
      "##ريها": 8299,
      "بالغة": 8300,
      "بالبيت": 8301,
      "بالجلوس": 8302,
      "بالذهاب": 8303,
      "العفاريت": 8304,
      "التساول": 8305,
      "##حديقة": 8306,
      "وتلك": 8307,
      "وتذكرت": 8308,
      "الشان": 8309,
      "الشرب": 8310,
      "الشركة": 8311,
      "##رتقال": 8312,
      "معات": 8313,
      "القادمة": 8314,
      "##كنون": 8315,
      "##اهدة": 8316,
      "وانطلقت": 8317,
      "الرسم": 8318,
      "الخص": 8319,
      "لهجته": 8320,
      "النقي": 8321,
      "ولل": 8322,
      "متفح": 8323,
      "بهو": 8324,
      "الصال": 8325,
      "فتر": 8326,
      "الفل": 8327,
      "الفاس": 8328,
      "يقظة": 8329,
      "الطفلة": 8330,
      "وسارت": 8331,
      "فاط": 8332,
      "فاك": 8333,
      "فاما": 8334,
      "فاقبل": 8335,
      "اسيلة": 8336,
      "الكواء": 8337,
      "استطع": 8338,
      "##ردها": 8339,
      "##رددا": 8340,
      "وقرر": 8341,
      "وعلا": 8342,
      "وعلم": 8343,
      "يعن": 8344,
      "بعدها": 8345,
      "الغرفة": 8346,
      "الغلمان": 8347,
      "تقبض": 8348,
      "##جره": 8349,
      "اتمنى": 8350,
      "اللغة": 8351,
      "كالع": 8352,
      "احدنا": 8353,
      "اكاد": 8354,
      "بمكر": 8355,
      "الاسلام": 8356,
      "##شاشة": 8357,
      "تجود": 8358,
      "المعبود": 8359,
      "المعيشة": 8360,
      "يخوض": 8361,
      "لتخ": 8362,
      "لتكن": 8363,
      "فوقه": 8364,
      "صديقة": 8365,
      "مجنونا": 8366,
      "يومين": 8367,
      "الهند": 8368,
      "عاشق": 8369,
      "عاجلا": 8370,
      "تشرب": 8371,
      "وخا": 8372,
      "واستيقظ": 8373,
      "##بثق": 8374,
      "اعتبر": 8375,
      "##زعجة": 8376,
      "تسلم": 8377,
      "وغدا": 8378,
      "الاستسلام": 8379,
      "##بسطت": 8380,
      "المحر": 8381,
      "اثنين": 8382,
      "الباقية": 8383,
      "ومنهم": 8384,
      "##بادلة": 8385,
      "بابه": 8386,
      "سلسلة": 8387,
      "تملا": 8388,
      "##جيال": 8389,
      "بخبث": 8390,
      "يغلق": 8391,
      "يكذب": 8392,
      "##رورقت": 8393,
      "اغراء": 8394,
      "يطيب": 8395,
      "يطالع": 8396,
      "يصغي": 8397,
      "دعنا": 8398,
      "##واقف": 8399,
      "والسماء": 8400,
      "##فكرة": 8401,
      "##فكرت": 8402,
      "##نقود": 8403,
      "مغر": 8404,
      "بالاخ": 8405,
      "والدها": 8406,
      "اضعاف": 8407,
      "دايم": 8408,
      "ارسل": 8409,
      "تغادر": 8410,
      "المقاهي": 8411,
      "باهي": 8412,
      "يضع": 8413,
      "عجز": 8414,
      "##سرته": 8415,
      "لطيفا": 8416,
      "تعلمين": 8417,
      "##وثبة": 8418,
      "واسع": 8419,
      "واسعة": 8420,
      "فاترة": 8421,
      "نتبادل": 8422,
      "الداعي": 8423,
      "عقلي": 8424,
      "الافطار": 8425,
      "المغامرة": 8426,
      "غضبي": 8427,
      "##طاردة": 8428,
      "واشفاق": 8429,
      "الانجليزية": 8430,
      "كالمجنون": 8431,
      "وعدم": 8432,
      "ترامت": 8433,
      "رمى": 8434,
      "صحته": 8435,
      "##بعثت": 8436,
      "المهيني": 8437,
      "الازهار": 8438,
      "تلاشت": 8439,
      "الجمالية": 8440,
      "ممتازة": 8441,
      "نهايته": 8442,
      "نهاييا": 8443,
      "زملا": 8444,
      "مفتاح": 8445,
      "التعارف": 8446,
      "اياك": 8447,
      "اياها": 8448,
      "ينادي": 8449,
      "رفضت": 8450,
      "##ثاءب": 8451,
      "ويسرة": 8452,
      "تفكيره": 8453,
      "ترددت": 8454,
      "الاحدب": 8455,
      "ارتباكه": 8456,
      "##راسته": 8457,
      "واتجهت": 8458,
      "انفعالا": 8459,
      "سعادتك": 8460,
      "تاثير": 8461,
      "قريبه": 8462,
      "المقدسة": 8463,
      "ثالث": 8464,
      "سكران": 8465,
      "الجاكتة": 8466,
      "ذقنه": 8467,
      "وتتابعت": 8468,
      "اسنانه": 8469,
      "باعتباره": 8470,
      "وضاق": 8471,
      "المومنين": 8472,
      "المناقشة": 8473,
      "فغمغمت": 8474,
      "فجعلت": 8475,
      "اطف": 8476,
      "اضحك": 8477,
      "اومن": 8478,
      "ادارة": 8479,
      "اريكة": 8480,
      "تور": 8481,
      "ترف": 8482,
      "تره": 8483,
      "تارة": 8484,
      "تابع": 8485,
      "تهمة": 8486,
      "تضيع": 8487,
      "تمسك": 8488,
      "ترنو": 8489,
      "ثغ": 8490,
      "ثار": 8491,
      "خاد": 8492,
      "خفة": 8493,
      "خلقت": 8494,
      "دفا": 8495,
      "دفاع": 8496,
      "روض": 8497,
      "رواد": 8498,
      "سان": 8499,
      "سجل": 8500,
      "شذ": 8501,
      "شمس": 8502,
      "شهوة": 8503,
      "شاعر": 8504,
      "صن": 8505,
      "طفل": 8506,
      "ظنون": 8507,
      "عشت": 8508,
      "غابت": 8509,
      "فته": 8510,
      "فدا": 8511,
      "قس": 8512,
      "قادم": 8513,
      "قراءة": 8514,
      "كرا": 8515,
      "كاملا": 8516,
      "لزوج": 8517,
      "لفظ": 8518,
      "ملم": 8519,
      "ميز": 8520,
      "نلت": 8521,
      "نجا": 8522,
      "نذير": 8523,
      "نطاق": 8524,
      "هتاف": 8525,
      "وذا": 8526,
      "وكر": 8527,
      "وكت": 8528,
      "وياس": 8529,
      "وظن": 8530,
      "١٣": 8531,
      "##مول": 8532,
      "##حو": 8533,
      "##حسر": 8534,
      "##بذ": 8535,
      "##بون": 8536,
      "##بعد": 8537,
      "##وطي": 8538,
      "##ويتها": 8539,
      "##فز": 8540,
      "##فرج": 8541,
      "##فحل": 8542,
      "##جال": 8543,
      "##جات": 8544,
      "##جعه": 8545,
      "##زاب": 8546,
      "##زام": 8547,
      "##سرب": 8548,
      "##ذوق": 8549,
      "##قذ": 8550,
      "##كث": 8551,
      "##شمي": 8552,
      "##انى": 8553,
      "##هاج": 8554,
      "انض": 8555,
      "انيقة": 8556,
      "انضم": 8557,
      "انغام": 8558,
      "منزلة": 8559,
      "منزعجا": 8560,
      "##راط": 8561,
      "الاهم": 8562,
      "الاطباء": 8563,
      "الملت": 8564,
      "الموع": 8565,
      "##يايه": 8566,
      "لاع": 8567,
      "لاقت": 8568,
      "##ادمين": 8569,
      "ماوى": 8570,
      "وامر": 8571,
      "وامن": 8572,
      "واوشك": 8573,
      "بالاف": 8574,
      "##لمس": 8575,
      "لمحت": 8576,
      "وهيهات": 8577,
      "السود": 8578,
      "العنف": 8579,
      "العبارة": 8580,
      "التجارة": 8581,
      "وتفحص": 8582,
      "الشجرة": 8583,
      "امسك": 8584,
      "الجمع": 8585,
      "##ودع": 8586,
      "##وقعه": 8587,
      "##وقعها": 8588,
      "معين": 8589,
      "معاذ": 8590,
      "القبل": 8591,
      "القريبة": 8592,
      "##كنه": 8593,
      "##داف": 8594,
      "ابى": 8595,
      "ابعاد": 8596,
      "البس": 8597,
      "البسي": 8598,
      "البركة": 8599,
      "البراءة": 8600,
      "يتصل": 8601,
      "الرفيع": 8602,
      "الخلف": 8603,
      "الخدمة": 8604,
      "النيابة": 8605,
      "بهجة": 8606,
      "ومص": 8607,
      "وسرت": 8608,
      "كلية": 8609,
      "احياء": 8610,
      "اعراض": 8611,
      "استقبال": 8612,
      "ينال": 8613,
      "ينفع": 8614,
      "ينهض": 8615,
      "بعمق": 8616,
      "بعجلة": 8617,
      "يدك": 8618,
      "وقطع": 8619,
      "تتوسط": 8620,
      "تعبث": 8621,
      "##فاقه": 8622,
      "محض": 8623,
      "محبو": 8624,
      "محكمة": 8625,
      "عيناي": 8626,
      "الغز": 8627,
      "الغلاء": 8628,
      "قدماه": 8629,
      "##هره": 8630,
      "تنفس": 8631,
      "تحزن": 8632,
      "تحقق": 8633,
      "نحب": 8634,
      "ويجيء": 8635,
      "يحس": 8636,
      "ونه": 8637,
      "جدال": 8638,
      "كالخ": 8639,
      "##عروس": 8640,
      "##وعيد": 8641,
      "وكيل": 8642,
      "##وزه": 8643,
      "قلبا": 8644,
      "يسكت": 8645,
      "##طفها": 8646,
      "يمض": 8647,
      "اقطع": 8648,
      "اقوال": 8649,
      "##نديل": 8650,
      "لونا": 8651,
      "اجابت": 8652,
      "الاسيلة": 8653,
      "المعز": 8654,
      "عمري": 8655,
      "تفلت": 8656,
      "تفوق": 8657,
      "تفحص": 8658,
      "مستوى": 8659,
      "##فقر": 8660,
      "مسهل": 8661,
      "فوقع": 8662,
      "##والم": 8663,
      "يفوق": 8664,
      "يفارق": 8665,
      "##وكب": 8666,
      "فسر": 8667,
      "راضية": 8668,
      "خطاه": 8669,
      "حالها": 8670,
      "رايها": 8671,
      "##سلطان": 8672,
      "الهذيان": 8673,
      "تخيل": 8674,
      "بيتا": 8675,
      "اخرين": 8676,
      "##وارب": 8677,
      "سبحان": 8678,
      "##بكة": 8679,
      "##بكاء": 8680,
      "ورايت": 8681,
      "مقعده": 8682,
      "حييت": 8683,
      "واختل": 8684,
      "القدم": 8685,
      "وانتقل": 8686,
      "فهمست": 8687,
      "برجل": 8688,
      "بخلاف": 8689,
      "يغيب": 8690,
      "بعضها": 8691,
      "تصدر": 8692,
      "يطمع": 8693,
      "يطارد": 8694,
      "##تكلم": 8695,
      "بالموت": 8696,
      "يصيب": 8697,
      "الوطني": 8698,
      "وبينها": 8699,
      "نظري": 8700,
      "فصار": 8701,
      "يدهش": 8702,
      "اقتربت": 8703,
      "تلعب": 8704,
      "تعرفين": 8705,
      "تطيق": 8706,
      "محترمة": 8707,
      "##حفز": 8708,
      "حنقا": 8709,
      "عقلك": 8710,
      "برايه": 8711,
      "حزب": 8712,
      "قلقه": 8713,
      "الهاوية": 8714,
      "##غرها": 8715,
      "حضوره": 8716,
      "بارد": 8717,
      "يذكره": 8718,
      "ببراءة": 8719,
      "بالخبر": 8720,
      "بضع": 8721,
      "كنز": 8722,
      "ضربا": 8723,
      "تحبني": 8724,
      "موقفها": 8725,
      "فطال": 8726,
      "الصحافة": 8727,
      "غمغم": 8728,
      "غمغمت": 8729,
      "طاقة": 8730,
      "الاعتذار": 8731,
      "عثرت": 8732,
      "فارس": 8733,
      "رسول": 8734,
      "لديها": 8735,
      "مولانا": 8736,
      "وليست": 8737,
      "مناسبا": 8738,
      "شقيقه": 8739,
      "فسالني": 8740,
      "بامتنان": 8741,
      "باتت": 8742,
      "قتلت": 8743,
      "الاربعة": 8744,
      "تتحرك": 8745,
      "##يادس": 8746,
      "يمتد": 8747,
      "الكونياك": 8748,
      "والاحلام": 8749,
      "كتفيه": 8750,
      "قلوبهم": 8751,
      "التعبير": 8752,
      "الموسيقى": 8753,
      "مسيولية": 8754,
      "وخليل": 8755,
      "بالثقة": 8756,
      "مخاوفه": 8757,
      "ضاقت": 8758,
      "ومضيت": 8759,
      "اهتمامه": 8760,
      "المدرسية": 8761,
      "النبيذ": 8762,
      "متحدية": 8763,
      "فاشتد": 8764,
      "مستطلعا": 8765,
      "المدعوين": 8766,
      "مداعبا": 8767,
      "بسيط": 8768,
      "المطلقة": 8769,
      "ركبتيه": 8770,
      "صايحا": 8771,
      "تواخذني": 8772,
      "الخليلي": 8773,
      "ثقيلا": 8774,
      "طنطا": 8775,
      "ارق": 8776,
      "اقبلت": 8777,
      "بجل": 8778,
      "بكت": 8779,
      "بياس": 8780,
      "ببط": 8781,
      "بديع": 8782,
      "تجا": 8783,
      "توكد": 8784,
      "تبادلا": 8785,
      "تسلل": 8786,
      "تسلية": 8787,
      "جاف": 8788,
      "حبيب": 8789,
      "حيرته": 8790,
      "خبي": 8791,
      "درب": 8792,
      "دفعت": 8793,
      "دكتور": 8794,
      "داهية": 8795,
      "سيف": 8796,
      "شعب": 8797,
      "طمانينة": 8798,
      "عامل": 8799,
      "عباء": 8800,
      "عريس": 8801,
      "غفلة": 8802,
      "فستان": 8803,
      "قلة": 8804,
      "قايمة": 8805,
      "كابة": 8806,
      "لحظ": 8807,
      "مان": 8808,
      "مادة": 8809,
      "مبك": 8810,
      "مواف": 8811,
      "مريضة": 8812,
      "نحت": 8813,
      "هربت": 8814,
      "وصد": 8815,
      "وطر": 8816,
      "يول": 8817,
      "##حمت": 8818,
      "##وعد": 8819,
      "##وطن": 8820,
      "##خاء": 8821,
      "##طير": 8822,
      "##تت": 8823,
      "##هولة": 8824,
      "##دته": 8825,
      "##ظه": 8826,
      "##فاس": 8827,
      "##ذبا": 8828,
      "##غراب": 8829,
      "##صرة": 8830,
      "##قنا": 8831,
      "##عق": 8832,
      "انجليز": 8833,
      "##مايل": 8834,
      "منظرا": 8835,
      "##ينب": 8836,
      "المقت": 8837,
      "المجلة": 8838,
      "المجيء": 8839,
      "##ارقه": 8840,
      "والقت": 8841,
      "والمال": 8842,
      "لامر": 8843,
      "##ستور": 8844,
      "##ذاجة": 8845,
      "##وايا": 8846,
      "واز": 8847,
      "وامس": 8848,
      "وامها": 8849,
      "##يلم": 8850,
      "بالدم": 8851,
      "السهر": 8852,
      "الساق": 8853,
      "العني": 8854,
      "العيش": 8855,
      "التس": 8856,
      "التحر": 8857,
      "التاجر": 8858,
      "الشوك": 8859,
      "##فساد": 8860,
      "##اتا": 8861,
      "##لتنا": 8862,
      "الجزاء": 8863,
      "الجبهة": 8864,
      "##احظ": 8865,
      "##داها": 8866,
      "ابقى": 8867,
      "البعيدة": 8868,
      "البنات": 8869,
      "الرواية": 8870,
      "الخواطر": 8871,
      "الختام": 8872,
      "لهفة": 8873,
      "##ركه": 8874,
      "النقل": 8875,
      "النوع": 8876,
      "الذعر": 8877,
      "##عاون": 8878,
      "ولدى": 8879,
      "الصبح": 8880,
      "الصفاء": 8881,
      "فتردد": 8882,
      "الفم": 8883,
      "نفسا": 8884,
      "الطابق": 8885,
      "وسعها": 8886,
      "احلم": 8887,
      "استمر": 8888,
      "وكانا": 8889,
      "يدخن": 8890,
      "##وسع": 8891,
      "الزين": 8892,
      "وقط": 8893,
      "وقار": 8894,
      "##بدد": 8895,
      "##بدة": 8896,
      "محيط": 8897,
      "حسنة": 8898,
      "وحما": 8899,
      "وحين": 8900,
      "وحزن": 8901,
      "بنسيون": 8902,
      "##رقنا": 8903,
      "##وانا": 8904,
      "اشجار": 8905,
      "بحر": 8906,
      "ويج": 8907,
      "يحيط": 8908,
      "لكني": 8909,
      "بلباقة": 8910,
      "##وزيع": 8911,
      "ساعد": 8912,
      "##ذكره": 8913,
      "بميدان": 8914,
      "لوال": 8915,
      "فانقبض": 8916,
      "الضحى": 8917,
      "اصنع": 8918,
      "اصلاح": 8919,
      "##طلون": 8920,
      "مستن": 8921,
      "فقامت": 8922,
      "ودخلت": 8923,
      "بقيت": 8924,
      "##وكيد": 8925,
      "##بقاء": 8926,
      "رايتها": 8927,
      "والحيرة": 8928,
      "لانسان": 8929,
      "مصح": 8930,
      "##وارير": 8931,
      "واستقبل": 8932,
      "جاءوا": 8933,
      "تساله": 8934,
      "امامنا": 8935,
      "تستسلم": 8936,
      "المحيط": 8937,
      "ورث": 8938,
      "الجدد": 8939,
      "واختف": 8940,
      "##بهات": 8941,
      "وفوق": 8942,
      "وفجاة": 8943,
      "بخشونة": 8944,
      "خلع": 8945,
      "يهرب": 8946,
      "##جدد": 8947,
      "تكذب": 8948,
      "الاباء": 8949,
      "بالمراة": 8950,
      "وبينه": 8951,
      "اذنها": 8952,
      "مغال": 8953,
      "مغلقة": 8954,
      "مغزى": 8955,
      "رحب": 8956,
      "والدنيا": 8957,
      "تغيب": 8958,
      "سرها": 8959,
      "فاستدرك": 8960,
      "ينتبه": 8961,
      "تطال": 8962,
      "مرتبه": 8963,
      "اسمح": 8964,
      "همسا": 8965,
      "مكتبي": 8966,
      "ناحيتي": 8967,
      "##كلف": 8968,
      "قطعت": 8969,
      "الوحشة": 8970,
      "##ذيع": 8971,
      "بالنساء": 8972,
      "الوجيه": 8973,
      "تاخر": 8974,
      "الاليم": 8975,
      "المغيب": 8976,
      "متسع": 8977,
      "يهمه": 8978,
      "حظك": 8979,
      "الفران": 8980,
      "جوعا": 8981,
      "يحدثني": 8982,
      "الشيون": 8983,
      "الواحد": 8984,
      "تراجعت": 8985,
      "فغادر": 8986,
      "دقات": 8987,
      "##ناسبة": 8988,
      "الازمة": 8989,
      "بزيارة": 8990,
      "اربعين": 8991,
      "تقتل": 8992,
      "##راجعت": 8993,
      "استطعت": 8994,
      "استطلاع": 8995,
      "مخلوق": 8996,
      "داعيا": 8997,
      "جامع": 8998,
      "انفاسها": 8999,
      "الاطمينان": 9000,
      "يمنع": 9001,
      "صبرا": 9002,
      "المقاومة": 9003,
      "للدنيا": 9004,
      "توفيق": 9005,
      "واطمان": 9006,
      "فحدجته": 9007,
      "خافق": 9008,
      "يشترك": 9009,
      "ضميره": 9010,
      "كرهت": 9011,
      "الغروب": 9012,
      "وسمعت": 9013,
      "دهرا": 9014,
      "افكارها": 9015,
      "ضاعت": 9016,
      "تبادلنا": 9017,
      "الاختيار": 9018,
      "اتفقنا": 9019,
      "##شاهدة": 9020,
      "متحديا": 9021,
      "البلاد": 9022,
      "كارثة": 9023,
      "وهنالك": 9024,
      "القللي": 9025,
      "معبودته": 9026,
      "متجاهلا": 9027,
      "خدمته": 9028,
      "جوليون": 9029,
      "الجالسين": 9030,
      "بته": 9031,
      "بعت": 9032,
      "بمد": 9033,
      "بقدم": 9034,
      "بفض": 9035,
      "بغيظ": 9036,
      "تمام": 9037,
      "تذك": 9038,
      "تواصل": 9039,
      "تكتب": 9040,
      "تبدت": 9041,
      "ثقل": 9042,
      "جرا": 9043,
      "حنا": 9044,
      "حرام": 9045,
      "حاملة": 9046,
      "خسر": 9047,
      "دواء": 9048,
      "درس": 9049,
      "زباين": 9050,
      "ساط": 9051,
      "سيخ": 9052,
      "سيره": 9053,
      "سحب": 9054,
      "صا": 9055,
      "صلة": 9056,
      "ضي": 9057,
      "طرب": 9058,
      "طفلة": 9059,
      "عباد": 9060,
      "غي": 9061,
      "غيب": 9062,
      "ففت": 9063,
      "لولو": 9064,
      "مرف": 9065,
      "ممر": 9066,
      "ملب": 9067,
      "مومن": 9068,
      "مريرة": 9069,
      "ملاءتها": 9070,
      "نزع": 9071,
      "نيته": 9072,
      "هدي": 9073,
      "هاج": 9074,
      "وول": 9075,
      "وبدت": 9076,
      "ورفعت": 9077,
      "يرا": 9078,
      "يلي": 9079,
      "يزا": 9080,
      "يغمغم": 9081,
      "يراقب": 9082,
      "يرنو": 9083,
      "١٦": 9084,
      "١٧": 9085,
      "##حمل": 9086,
      "##وضا": 9087,
      "##وتهم": 9088,
      "##رون": 9089,
      "##طوة": 9090,
      "##نوا": 9091,
      "##هو": 9092,
      "##هال": 9093,
      "##دود": 9094,
      "##لعب": 9095,
      "##فيا": 9096,
      "##فقة": 9097,
      "##جنة": 9098,
      "##زمه": 9099,
      "##سيل": 9100,
      "##ذون": 9101,
      "##ذره": 9102,
      "##قلا": 9103,
      "##قبه": 9104,
      "##شيا": 9105,
      "##شدا": 9106,
      "##شيت": 9107,
      "##انيه": 9108,
      "فيلا": 9109,
      "فيمن": 9110,
      "منفر": 9111,
      "منطق": 9112,
      "الايدي": 9113,
      "الاريكة": 9114,
      "الملهى": 9115,
      "والذي": 9116,
      "لاخت": 9117,
      "##ادات": 9118,
      "الحوار": 9119,
      "واذ": 9120,
      "وايا": 9121,
      "واجه": 9122,
      "##يلين": 9123,
      "بالتف": 9124,
      "بالحق": 9125,
      "بالانت": 9126,
      "بالحديث": 9127,
      "بالذنب": 9128,
      "السري": 9129,
      "العقد": 9130,
      "العشق": 9131,
      "العوادة": 9132,
      "##لهف": 9133,
      "##وردة": 9134,
      "##عداء": 9135,
      "##حديد": 9136,
      "وتابع": 9137,
      "##اسف": 9138,
      "##اتى": 9139,
      "##يمها": 9140,
      "##عترف": 9141,
      "القليل": 9142,
      "ابلة": 9143,
      "وانس": 9144,
      "البناء": 9145,
      "يتها": 9146,
      "يتمتم": 9147,
      "الركن": 9148,
      "اوراق": 9149,
      "الخواجا": 9150,
      "لهجة": 9151,
      "النع": 9152,
      "النها": 9153,
      "النخلة": 9154,
      "##وترة": 9155,
      "ومج": 9156,
      "ومنا": 9157,
      "الصبي": 9158,
      "ليال": 9159,
      "فتج": 9160,
      "فتش": 9161,
      "الدرج": 9162,
      "وسع": 9163,
      "وسعادة": 9164,
      "وسخرية": 9165,
      "فاين": 9166,
      "فاخت": 9167,
      "الكف": 9168,
      "الكمال": 9169,
      "الكريم": 9170,
      "الكهربا": 9171,
      "الكاذبة": 9172,
      "##بتنا": 9173,
      "للث": 9174,
      "للناس": 9175,
      "استمع": 9176,
      "يند": 9177,
      "الزفة": 9178,
      "انتقلت": 9179,
      "الانفتاح": 9180,
      "تعالي": 9181,
      "##فاها": 9182,
      "الغرام": 9183,
      "باخت": 9184,
      "وبط": 9185,
      "وبص": 9186,
      "وبالت": 9187,
      "##صرخت": 9188,
      "##ويح": 9189,
      "وحم": 9190,
      "تقضي": 9191,
      "تنسي": 9192,
      "عندكم": 9193,
      "اتوقع": 9194,
      "##وحشية": 9195,
      "بكثير": 9196,
      "يحا": 9197,
      "ونظ": 9198,
      "كالك": 9199,
      "كالاخر": 9200,
      "##اكمة": 9201,
      "كيفما": 9202,
      "مثالا": 9203,
      "الثناء": 9204,
      "انيس": 9205,
      "يميل": 9206,
      "يمينه": 9207,
      "اكل": 9208,
      "بدء": 9209,
      "بدورها": 9210,
      "اجدر": 9211,
      "بسر": 9212,
      "المعاملة": 9213,
      "يخفي": 9214,
      "عمياء": 9215,
      "اصار": 9216,
      "مستغر": 9217,
      "مستدرك": 9218,
      "فقبل": 9219,
      "ودفع": 9220,
      "مسكينة": 9221,
      "يفقه": 9222,
      "انكم": 9223,
      "##خرين": 9224,
      "فساد": 9225,
      "راته": 9226,
      "تدب": 9227,
      "رجاله": 9228,
      "عاصفة": 9229,
      "عاصم": 9230,
      "الامكان": 9231,
      "تخفي": 9232,
      "صاحت": 9233,
      "تحتها": 9234,
      "وخط": 9235,
      "وخلا": 9236,
      "مدام": 9237,
      "حينه": 9238,
      "حينما": 9239,
      "والمكان": 9240,
      "واستمر": 9241,
      "جلجلة": 9242,
      "ورايي": 9243,
      "##زعزع": 9244,
      "تسته": 9245,
      "تسبق": 9246,
      "واخرج": 9247,
      "الباطني": 9248,
      "##قيبة": 9249,
      "بيدي": 9250,
      "تمثيل": 9251,
      "تمنيت": 9252,
      "فهمت": 9253,
      "الاخرون": 9254,
      "تكد": 9255,
      "اغا": 9256,
      "يطال": 9257,
      "يصير": 9258,
      "دعيني": 9259,
      "دعوتك": 9260,
      "صفية": 9261,
      "##لاقها": 9262,
      "الويل": 9263,
      "ملته": 9264,
      "المستدير": 9265,
      "هاما": 9266,
      "وزاد": 9267,
      "يروم": 9268,
      "##قطعة": 9269,
      "احتجاج": 9270,
      "ارها": 9271,
      "عدل": 9272,
      "##فظا": 9273,
      "حقايق": 9274,
      "مطارد": 9275,
      "صاحبنا": 9276,
      "الحسد": 9277,
      "طبقة": 9278,
      "الرحيل": 9279,
      "وابى": 9280,
      "مضيت": 9281,
      "الواقعة": 9282,
      "تضيق": 9283,
      "الجنسية": 9284,
      "ناض": 9285,
      "يعترض": 9286,
      "للتفكير": 9287,
      "سمعها": 9288,
      "سمعنا": 9289,
      "اعداد": 9290,
      "انقض": 9291,
      "مظاهر": 9292,
      "الهام": 9293,
      "اشترك": 9294,
      "يبالي": 9295,
      "وادركت": 9296,
      "كلامها": 9297,
      "العينان": 9298,
      "وتحركت": 9299,
      "حلمه": 9300,
      "خاليا": 9301,
      "نبرات": 9302,
      "نبراته": 9303,
      "العاصفة": 9304,
      "متعجبا": 9305,
      "واضط": 9306,
      "الفاخرة": 9307,
      "ليتك": 9308,
      "يتحول": 9309,
      "خلقه": 9310,
      "والرجل": 9311,
      "هنيهة": 9312,
      "العالمين": 9313,
      "للسيد": 9314,
      "هامسا": 9315,
      "هزيمة": 9316,
      "نافذ": 9317,
      "دفعا": 9318,
      "زواجها": 9319,
      "والهواء": 9320,
      "اجتمع": 9321,
      "عظيما": 9322,
      "عفوا": 9323,
      "نصيب": 9324,
      "احساسه": 9325,
      "لجنة": 9326,
      "المعتاد": 9327,
      "دعاها": 9328,
      "١٩٢": 9329,
      "كاتم": 9330,
      "كتفه": 9331,
      "توتو": 9332,
      "توتر": 9333,
      "تكلمت": 9334,
      "اباها": 9335,
      "يرحب": 9336,
      "تاكسي": 9337,
      "اليمنى": 9338,
      "يجرو": 9339,
      "استيقظت": 9340,
      "وتنهدت": 9341,
      "تابى": 9342,
      "يتحدثون": 9343,
      "الطرقات": 9344,
      "يتبادلان": 9345,
      "يختفي": 9346,
      "عواقب": 9347,
      "ثالثة": 9348,
      "سفينة": 9349,
      "الرييس": 9350,
      "المشروع": 9351,
      "العطلة": 9352,
      "الخيانة": 9353,
      "الالهية": 9354,
      "الزملاء": 9355,
      "بالاضافة": 9356,
      "مستدركا": 9357,
      "اصر": 9358,
      "ايمان": 9359,
      "افرغ": 9360,
      "اوافق": 9361,
      "برد": 9362,
      "براف": 9363,
      "بضحكة": 9364,
      "تبع": 9365,
      "تكره": 9366,
      "جب": 9367,
      "جول": 9368,
      "جافة": 9369,
      "حدا": 9370,
      "حضر": 9371,
      "حفل": 9372,
      "خفت": 9373,
      "خالي": 9374,
      "ختام": 9375,
      "داء": 9376,
      "ربك": 9377,
      "ريقها": 9378,
      "زعب": 9379,
      "سواله": 9380,
      "سجاير": 9381,
      "شم": 9382,
      "شن": 9383,
      "شجاعة": 9384,
      "شقتي": 9385,
      "صقر": 9386,
      "عصف": 9387,
      "غرة": 9388,
      "غرام": 9389,
      "فلك": 9390,
      "فنا": 9391,
      "فرك": 9392,
      "فقل": 9393,
      "فعلى": 9394,
      "فصا": 9395,
      "فظن": 9396,
      "فندق": 9397,
      "قولك": 9398,
      "كذاب": 9399,
      "لغة": 9400,
      "مقال": 9401,
      "مودة": 9402,
      "مباد": 9403,
      "ممتع": 9404,
      "مباركة": 9405,
      "مفهوم": 9406,
      "نكون": 9407,
      "نزل": 9408,
      "نوافذ": 9409,
      "هج": 9410,
      "هاي": 9411,
      "ورف": 9412,
      "وبل": 9413,
      "وفق": 9414,
      "يون": 9415,
      "يكر": 9416,
      "يصل": 9417,
      "يزد": 9418,
      "يوفق": 9419,
      "##مبر": 9420,
      "##موح": 9421,
      "##حمه": 9422,
      "##براء": 9423,
      "##وذي": 9424,
      "##خذة": 9425,
      "##تدي": 9426,
      "##دق": 9427,
      "##دال": 9428,
      "##فوف": 9429,
      "##زنة": 9430,
      "##عقد": 9431,
      "##شفه": 9432,
      "##ضار": 9433,
      "الوسا": 9434,
      "##هاز": 9435,
      "انوار": 9436,
      "فيا": 9437,
      "منتف": 9438,
      "##راغ": 9439,
      "##لاطم": 9440,
      "الامارة": 9441,
      "الاوقات": 9442,
      "المجر": 9443,
      "المدرس": 9444,
      "##ياحا": 9445,
      "والضحك": 9446,
      "الحان": 9447,
      "الحالة": 9448,
      "الحواس": 9449,
      "الحضور": 9450,
      "عنيف": 9451,
      "##واما": 9452,
      "##يليادس": 9453,
      "##امى": 9454,
      "##امتها": 9455,
      "##املات": 9456,
      "##لمين": 9457,
      "لمقابلة": 9458,
      "السوء": 9459,
      "السكة": 9460,
      "السقاء": 9461,
      "العيون": 9462,
      "العثور": 9463,
      "##بارات": 9464,
      "التج": 9465,
      "التلم": 9466,
      "الترك": 9467,
      "التغير": 9468,
      "التيار": 9469,
      "##ورت": 9470,
      "##وردي": 9471,
      "##ايش": 9472,
      "كاني": 9473,
      "وتبين": 9474,
      "الشع": 9475,
      "امرة": 9476,
      "امواج": 9477,
      "الجري": 9478,
      "الجهن": 9479,
      "معال": 9480,
      "معاملة": 9481,
      "معلقا": 9482,
      "القرافة": 9483,
      "##اهتمام": 9484,
      "يتفق": 9485,
      "يتخذ": 9486,
      "الرعد": 9487,
      "الرفض": 9488,
      "اوت": 9489,
      "اوه": 9490,
      "الخراب": 9491,
      "##ربما": 9492,
      "الندم": 9493,
      "النقاش": 9494,
      "##يتان": 9495,
      "انهن": 9496,
      "##علومات": 9497,
      "ولان": 9498,
      "متف": 9499,
      "متاع": 9500,
      "الصندوق": 9501,
      "ليش": 9502,
      "الفاح": 9503,
      "الفعل": 9504,
      "الفستان": 9505,
      "##افه": 9506,
      "احذر": 9507,
      "بينكما": 9508,
      "اسلم": 9509,
      "الكار": 9510,
      "الكشف": 9511,
      "للحديث": 9512,
      "اعجز": 9513,
      "استسلام": 9514,
      "ينشد": 9515,
      "الزجاج": 9516,
      "تتكرر": 9517,
      "وعثمان": 9518,
      "##خلع": 9519,
      "يعز": 9520,
      "يعلق": 9521,
      "باصاب": 9522,
      "باكية": 9523,
      "غيرت": 9524,
      "وبح": 9525,
      "يجدر": 9526,
      "وحياء": 9527,
      "تقلب": 9528,
      "##جرع": 9529,
      "##جرته": 9530,
      "تنعم": 9531,
      "تحبها": 9532,
      "اتت": 9533,
      "اللذة": 9534,
      "الرجلان": 9535,
      "##كونة": 9536,
      "##وحش": 9537,
      "اشرف": 9538,
      "بحجرة": 9539,
      "ويض": 9540,
      "##وبته": 9541,
      "يحقق": 9542,
      "وكنا": 9543,
      "##ضارة": 9544,
      "يشاهد": 9545,
      "ساوي": 9546,
      "بمش": 9547,
      "بدلا": 9548,
      "الاسرار": 9549,
      "بسط": 9550,
      "تجهم": 9551,
      "تجرب": 9552,
      "المعلمة": 9553,
      "فانف": 9554,
      "يخشى": 9555,
      "اذان": 9556,
      "لتست": 9557,
      "مستح": 9558,
      "##مسار": 9559,
      "##مسون": 9560,
      "مسح": 9561,
      "##رعى": 9562,
      "##جبن": 9563,
      "فوقها": 9564,
      "##وكة": 9565,
      "راينا": 9566,
      "رايع": 9567,
      "الاحزان": 9568,
      "فلعله": 9569,
      "والاص": 9570,
      "وخاطب": 9571,
      "مدين": 9572,
      "الظهور": 9573,
      "##حاق": 9574,
      "##ولاه": 9575,
      "امامك": 9576,
      "ارتفعت": 9577,
      "وغد": 9578,
      "المحفوظ": 9579,
      "اثرت": 9580,
      "اثبت": 9581,
      "الراوي": 9582,
      "الفتاح": 9583,
      "مخال": 9584,
      "حيوية": 9585,
      "واخلاص": 9586,
      "صوتي": 9587,
      "المنطق": 9588,
      "بيديه": 9589,
      "تموت": 9590,
      "تمثل": 9591,
      "جمعة": 9592,
      "بروح": 9593,
      "كلاما": 9594,
      "حمراء": 9595,
      "يصعد": 9596,
      "فكل": 9597,
      "##لاقات": 9598,
      "سنها": 9599,
      "##شفاء": 9600,
      "وجدها": 9601,
      "##فلس": 9602,
      "مغادرة": 9603,
      "بجزع": 9604,
      "وثقة": 9605,
      "احترام": 9606,
      "لحم": 9607,
      "وضرب": 9608,
      "وضاعف": 9609,
      "بطول": 9610,
      "بالسلام": 9611,
      "بالسياسة": 9612,
      "تراني": 9613,
      "اليسرى": 9614,
      "تكوني": 9615,
      "واحب": 9616,
      "واحمد": 9617,
      "همست": 9618,
      "مطار": 9619,
      "السلوك": 9620,
      "بالتالي": 9621,
      "محتشمي": 9622,
      "مضطرب": 9623,
      "فمضت": 9624,
      "##وثبت": 9625,
      "اعرفه": 9626,
      "شفتاها": 9627,
      "حنقه": 9628,
      "حنظل": 9629,
      "الخارجية": 9630,
      "ازعا": 9631,
      "المخرج": 9632,
      "تضاعف": 9633,
      "الانتحار": 9634,
      "شيخون": 9635,
      "يقتحم": 9636,
      "حظها": 9637,
      "موضة": 9638,
      "انقضت": 9639,
      "يبعد": 9640,
      "باشارة": 9641,
      "الابدية": 9642,
      "زينهم": 9643,
      "داخله": 9644,
      "ببصره": 9645,
      "الشيوخ": 9646,
      "تراها": 9647,
      "الملته": 9648,
      "وابتسمت": 9649,
      "فليكن": 9650,
      "تلاشى": 9651,
      "##لفزيون": 9652,
      "حكاي": 9653,
      "قدميها": 9654,
      "ذاهلة": 9655,
      "مخلوف": 9656,
      "متجهم": 9657,
      "متجهما": 9658,
      "جامدة": 9659,
      "وسالني": 9660,
      "مقدمة": 9661,
      "وليكن": 9662,
      "فادركت": 9663,
      "العلوم": 9664,
      "رفيق": 9665,
      "احساسا": 9666,
      "فاحس": 9667,
      "فاسيليادس": 9668,
      "الوكيل": 9669,
      "صبري": 9670,
      "الثقيلة": 9671,
      "اعماقي": 9672,
      "يثبت": 9673,
      "القصص": 9674,
      "اصحابها": 9675,
      "ندري": 9676,
      "تناولت": 9677,
      "ايمكن": 9678,
      "محاولة": 9679,
      "الخلفي": 9680,
      "اندفعت": 9681,
      "الطاولة": 9682,
      "ترحب": 9683,
      "ميتة": 9684,
      "الاقتراح": 9685,
      "للكلام": 9686,
      "لاحظت": 9687,
      "حقيبة": 9688,
      "القبور": 9689,
      "مضطربا": 9690,
      "احدثك": 9691,
      "ذروة": 9692,
      "فرنسا": 9693,
      "مقابلته": 9694,
      "يابى": 9695,
      "بانتباه": 9696,
      "مزايا": 9697,
      "محزونا": 9698,
      "نفوسهم": 9699,
      "معارفه": 9700,
      "والعافية": 9701,
      "مترنحا": 9702,
      "السوداوين": 9703,
      "ساكنا": 9704,
      "الاكتراث": 9705,
      "الاعمى": 9706,
      "زعبلاوي": 9707,
      "فصاعدا": 9708,
      "بكر": 9709,
      "بتف": 9710,
      "تقدر": 9711,
      "تجلت": 9712,
      "توحي": 9713,
      "ثيابه": 9714,
      "جيب": 9715,
      "جوفه": 9716,
      "حملة": 9717,
      "خشية": 9718,
      "دبت": 9719,
      "ذهاب": 9720,
      "رجب": 9721,
      "رمق": 9722,
      "رهن": 9723,
      "رويته": 9724,
      "رقبته": 9725,
      "زيارته": 9726,
      "سارت": 9727,
      "سايق": 9728,
      "سانت": 9729,
      "شرك": 9730,
      "شراب": 9731,
      "طبيعة": 9732,
      "طربا": 9733,
[...]
